#version: 0.2
Ġ s
Ġ t
Ġ a
h e
Ã ¡
l a
Ã Ń
Ġ p
n d
e d
Ġ w
Ġ b
o u
Ġ n
Ġ d
Ä Ľ
Ġt he
Ġ m
Ġ h
Ġt o
i n
Ġ v
Ġa nd
Ġ j
l i
e n
Å ¾
Ġs e
l e
Ġ o
Ġ c
e r
Å Ļ
i l
a s
i t
o m
a t
Ġ f
Å ¡
Ġ k
Ä į
Ġ T
r e
a l
Ã ½
a r
Ã ©
e l
Ġ he
Ġ z
a n
i d
s t
l o
Ġw as
Ġ "
h o
Ġ u
Ġ S
Ġn a
a k
r o
i m
in g
a d
c h
i s
Ġd o
t e
Ġ g
n e
Å¾ e
Ġs a
il y
Ġ L
a m
c e
Ġp o
Ġ B
ĠT he
e nd
o r
Ġn e
o v
r a
Ġb y
r Ã¡
Ġs t
Ġ J
u t
Ġ H
Ġ M
Ġj e
ÅĻ e
Ġs i
Ġ it
k a
Ġt h
ĠL ily
a y
e t
Ġ li
Å ¯
Ġ Å¾e
o t
Ġhe r
i r
x t
o f
l y
ĠS he
c k
a v
ed n
ĠH e
of te
< |
| >
end ofte
endofte xt
k u
o n
Ġ in
Ġs v
Ġ lo
a la
Ġb e
ĠThe y
Ġp ÅĻ
e s
Ġ y
d y
Ġh o
m y
Ġ r
Ġsa id
j ÃŃ
l d
Ġ Å¡
o k
Ġ I
ÄĽ la
a p
Ġ e
Ġt ak
Ġ P
t er
Ġv el
Ġ A
r i
ÄĽ l
Ġs he
m i
Ġp la
it h
ÅĻe k
Ġw ith
Ġc h
n ÃŃ
e m
! "
i g
Ġy ou
Ġo f
Ġs p
Ġs o
Ġ ÅĻek
Ġh is
Ġ ro
er y
i la
b y
ĠT im
Ġo n
u n
Ġd ay
o d
Ġth at
k y
Ġv y
n ÄĽ
Ġu p
ÃŃ t
c i
Ġ le
ou t
. "
an t
as t
Ġh ad
en t
Ġs m
Ġj edn
Ġpla y
Ġ N
Ġthe y
Ġm u
n Ã½
Ġ V
Ġm om
Ġf or
h t
o h
Ġ O
ou ld
' s
Ġz a
e k
T he
ap p
r y
ĠB en
t t
Ã¡ d
k ed
Ġg o
ÃŃ v
n Ã¡
he r
ĠT om
Ġh app
l u
Ġw ant
Ġo b
n o
a li
Ġp ro
Ġn ÄĽ
r ou
Ġd ne
s e
om e
? "
Å ¥
i Äį
Ã¡ m
r om
a ck
Ġc o
Ġb o
ĠB y
Ġk ter
Ġ Ċ
im e
Ġv ery
Ġby l
Ġn ot
l ÃŃ
v ÄĽ
Ġby la
tt le
r u
Ġt ime
e p
Ġli ttle
Ġthe re
Ġa n
Ġ re
Ġ D
l l
Ġ K
y s
Ġh rÃ¡
k Ã¡
Ġhapp y
u d
n a
Ġb ig
av e
Ġ is
ĠI t
k o
Ġb ut
ĠTim my
Ġ C
Ġvel mi
ĠÅ¡ Å¥
Ġf ri
Ġ Å
Ġsa w
o ho
Ġfri end
Ġa s
dy Å¾
ĠÅ¡Å¥ ast
Ã¡ t
v e
ÃŃ m
Ġp ar
Ġsv Ã©
v ed
er e
ĠÅĻek la
Ġa by
Ġa le
n ce
p e
' t
Ġm al
Ġu s
edn oho
n Ã©
l ou
i li
Ġlo ok
Ġvel k
Ġw ere
, "
u g
O nce
h at
u l
Ġ la
ÅĻ ÃŃ
id e
B y
n i
Ġk o
ĠJ ednoho
Ġs h
Ġro z
Ġh im
Ġjedn ou
Ġj s
Ġj ak
l ed
k e
v er
Ġ R
Ġo d
ar d
ĠÅ ĺ
Ġ Z
Ġa re
ir l
Ġwant ed
Ġg irl
Ġup on
n y
d ÄĽ
Ġ out
Ġthe m
ĠpÅĻ i
j e
m Ã¡
u r
Ġst ar
Ġv ÄĽ
v id
o re
m e
Ġ rÃ¡
Å¡ ÃŃ
Ġthe ir
Ġn o
v ÃŃ
Ġm at
w ay
i nd
ho d
t Ã¡
Ġd id
Ġc ould
Ġ Äį
o l
ĠJ e
f ul
Ġh ave
t o
Ġj ÃŃ
he n
il l
l Ã©
Å¡ en
ak e
am in
Ġs c
Å¡ t
o b
ĠrÃ¡ d
he d
Ġe x
ĠÅĻek l
i c
Ġhe l
Ġj m
Ġd e
Å¯ Å¾e
Ġw ent
j i
Ġa t
rou nd
Ġo p
Ġc an
al l
Ġv Å¡
ÄĽ li
Ġp om
ĠM a
h ing
Ġfriend s
Ġhel p
ĠA le
p p
Ġh ra
d ÄĽla
t ed
Ġb ack
Ġa ll
L ily
Ġk dyÅ¾
Ġf el
Ġf un
ÄĽ t
Ġv e
w n
i ce
Y ou
Äį iÄį
Ġj i
Ä ı
Ġu vid
il ed
a re
g ht
ĠS am
Ġna m
ar a
Ġ U
u s
o ne
ov al
ep t
ov ala
Ġd om
v ery
ÅĻ i
ĠÅĺ ek
Ġsm iled
en ÃŃ
e ch
Ġnam ed
Ã© ho
a in
Ġpo d
Ġto o
ĠpÅĻ ÃŃ
s ide
Ġ Å¾
Ġlo ved
i ck
Ġm an
ĠMa x
c o
ĠO ne
u m
Ġas ked
Ġm e
Ã¡ v
Ġ W
Ġli ke
k ou
ÄįiÄį ka
Ġfel t
n na
Ġlook ed
l Ã¡
Ġs ome
om et
Ġa round
Ã½ m
a nd
am i
Ġj ed
am e
ou nd
Ġv z
lo w
Ġm Ã¡m
b e
g et
u re
Ġb ir
p ad
Ġsv ou
t her
Ġv id
Ġch t
Ġw ould
Ġdo b
Ġw e
Å¡ el
Ġm ÃŃ
ou s
Ġd en
s s
Ġje jÃŃ
a ch
Ġbo y
Ġza Äį
â Ģ
Ġm amin
Ġa l
o c
Ġs omet
Ġbir d
v en
Ġho l
Ġn Ã¡
Ġjedn a
Ġsp o
ĠhrÃ¡ t
ing s
ra b
Ġa g
Ġm ake
Ġse e
Ġw or
ad e
Ġw hat
Ġ E
By la
Ġus mÃ¡
Ġf e
Ġhra Äį
Ġr an
Ġt re
Ġc ar
ĠB ut
get her
Ġ You
Ġpar k
Ġa way
c it
ĠBy la
O ne
n g
Ġkter Ã¡
Ġs ho
a b
Ġsa ys
Ġstar ted
a g
pe c
o z
Ġch la
Ġs k
Ġk rÃ¡
Ġm oh
al ly
Ġh la
Ġw at
ĠnÄĽ co
Ġkter Ã½
Ġjed en
Ġje ho
ar ed
Ã½ t
i ch
Ġm ade
a jÃŃ
Ġsomet hing
Ġto gether
vÄĽ d
Ã¡t el
Ġna d
rÃ¡ t
i e
Ġr y
o j
o p
Ġmat ka
Ġs ad
u st
m u
ĠK dyÅ¾
Å¯ j
Ġo ther
ĠJ ack
ĠpÅĻ Ã¡tel
Ġne w
o w
ĠBy l
Ġp ut
Ġn ov
i a
r an
Ġf rom
Ġhol ÄįiÄįka
Ġt e
Ġ F
z e
ig ht
le m
Ġsm ut
d e
Ġh ug
Ã¡ l
i v
Ġne m
s k
Ġex cit
Ġag ain
i f
Ġz Ã¡
ĠS ara
Ġh ome
ĠA nna
Ã º
Ġsp e
Ġb Ã½t
n ou
Ġgo od
Ġmal Ã¡
Ġpar ku
Ġw ho
Ġc ÃŃt
Ġw al
b ÄĽ
Ġm y
ri ed
Ġf ound
Ġjm en
Ġthe n
ĠnÄĽ j
i k
Ġde c
Ġz v
h y
q u
Ġp tÃ¡
Ġz p
pp ed
Ġw hen
Ġh ou
ov i
c ÃŃ
Ġg et
ĠÅ¡Å¥ast nÃ¡
ĠN a
ra v
Ġa b
Ġplay ing
ud e
Å¾ d
Ġp e
Ġk am
Ġspe ci
Ġne j
h la
in y
Ġs w
Ġ ÅĻÃŃ
Ġnad Å¡en
By l
Ġm Å¯Å¾e
Ġk e
Ġvelk Ã½
Ġth ings
Ġ Ãº
v Ã¡
Ġexcit ed
m a
ĠR Ã¡d
Ġr u
Ġu n
no w
Ġli ked
Ġg ot
Ġu Å¾
Ã½ mi
Ġby lo
Ġo ne
ĠÅ¡Å¥ast nÃ½
Å¡ la
c t
Ġdec id
Ġu dÄĽla
Ġdecid ed
u c
ĠmÃ¡m a
ĠM om
Ġc ame
ĠC ht
Ġe very
Ġto ho
Ġyou r
Äį ÃŃ
Ġv en
Ġp ÅĻe
Ġa ut
ar n
n it
ĠM ia
Ġsc ared
Ġdo g
Ġdo wn
Ġdom Å¯
Ġp r
al o
y t
Ġf ind
ĠP o
a Å¾d
Ġby li
Ġc are
Ġbe c
e j
ou ght
Ġc lo
Ġth an
Ġm il
ch Ã¡
Ġfe el
Ġst rom
oh n
Ġle t
Ġchla pec
Ġd ad
Ġjm Ã©
ĠÅĺek la
Å¾ dy
The y
er s
il o
Ġb u
ne m
ud d
Ġw ill
r at
Ġm i
t s
it e
T om
v a
Å Ī
o st
way s
Ã¡ te
k la
z y
Ġdid n
Ġmu s
Ġza h
r ad
Ġal ways
Ġjs ou
Ġpod ÃŃv
Ġto ok
Ġab out
st u
in a
is e
uc y
st e
Ġmom my
Ġd ÃŃv
Ã¡ h
Ġk ne
Ġto ys
g e
Å¡t ÄĽ
le s
Ġmal Ã½
Ġt ÄĽ
Äį nÄĽ
an e
Ġdo st
a u
p o
lÃŃ b
g ed
le p
Ġout side
Ġtre e
nd er
Ġth ought
ov at
Ġle arn
Ġjs em
ĠvÅ¡ ech
Ġm ore
b u
en ed
c hed
ou r
Ġo ld
ĠjmÃ© nem
ĠO d
Ġp re
ÅĻ Ã¡d
Ġm Ã¡
ĠJ s
in k
Å¯ Å¾
Ġk now
Ġb ÄĽ
vÄĽ t
a Äį
Ġm ÄĽ
Ġroz hod
ĠV id
Ġjak o
Ġla ug
Ġt a
Ġtak e
ĠV y
ou p
Ġspeci al
Ġs or
ich ni
m ÄĽ
Ġz e
Ġ l
u e
Ġc at
z d
udd en
h u
Å¡ e
ĠL ucy
Ġkne w
f e
ĠrÃ¡d a
li Å¡
Ġw h
Ġf i
ĠusmÃ¡ la
Ġko lem
Äį ek
Ġz n
le t
ĠpÅĻÃ¡tel Ã©
in u
Ġsho w
Ġkam ar
udden ly
ĠpÅĻÃŃ liÅ¡
Ġto y
as e
ĠÅĺ ÃŃ
Ġz ept
Ġj ÃŃt
Äį il
v nit
aÅ¾d Ã½
f ter
Ġho w
Ġp ak
k Ã½
o od
Ġb ot
Ġuvid ÄĽl
i st
vnit ÅĻ
la d
Ġb ro
Ġex p
Ġtak Ã©
ĠpÅĻ ed
Ġ ra
Ġ en
Ġo te
b o
Ġn ik
Ġt w
Ġsv Ã½mi
Ġsor ry
p at
ĠB ob
B ut
Ġmu ch
Ġkter Ã©
Ġr un
Ġv rÃ¡t
Ġh and
i ve
Ġhla s
t y
n u
Ġcare ful
r d
Ġhou se
na Å¾
Ġpro to
ov u
Ġv Å¾dy
Ġry ch
Ġne ch
Ġmamin ka
Ġb all
Ġvy s
Ġvelk ou
Ġuvid ÄĽla
ĠS p
Äį ila
ch u
Ġwal k
re at
Ġs u
ĠmÃŃ st
Ġs un
Ġli st
Ġp rou
Ġin to
Ġt ried
ĠÅĻÃŃ kÃ¡
Ġt v
Ġin side
ĠsvÃ© ho
Ġprou d
b av
ĠO b
Ġj im
ĠP ak
Ġspo lu
ar k
Ġto ld
d ÄĽl
ĠkrÃ¡ s
Ġth is
ĠvÄĽ ci
Ġwat er
Ġ if
Ġ qu
Ġo ver
Ġcould n
Ġcht ÄĽl
Ġvelk Ã©
ĠJe jÃŃ
Ġkamar Ã¡d
Ġg ave
g h
Ġhe ard
Ġsp ou
Ġsv Å¯j
ĠV Å¡
i on
Ġb ude
Ġne ver
n out
jÃŃ t
Ġe ach
el l
i le
Ġs il
Ġd r
Ġf a
t ÄĽ
Ġproto Å¾e
Ġro om
amin ka
at e
ĠE very
k at
Ġb r
Ġe at
Äį e
N e
ĠW e
ĠR oz
is h
Ġbe z
in e
Ġp ick
au se
ĠJ ohn
Ġjmen ovala
lÃŃ Å¾
Ġm ed
Ġd ÄĽla
Ġplay ed
M om
ĠhrÃ¡ li
Ġp an
kÃ¡ z
lou d
ĠhrÃ¡ la
Ġ lÃ©
ys le
ĠpÅĻ Ã¡te
Ġj ust
Ġhug ged
Ġro d
Ġpo z
ĠÅĺek l
st at
he re
Ã½ ch
Ġof f
ro v
Ġbo x
d u
Ġa d
Ġc om
Ġob j
Ġjs i
Ġk rab
Ġpo s
' m
ĠÅ¡Å¥ast nÃŃ
Ġbec ause
Ġne ed
r Ã½
Ġsv Ã½m
ĠM aminka
ov ali
Ġc u
k ami
Ġman y
ĠS ue
en Ã¡
um p
t il
o e
at r
Ġb av
ĠÄį er
Ġa Å¾
ĠzÃ¡ bav
Ġpo t
Ġbe ar
Ġd al
ad y
ho v
Ġt u
T o
ar m
Ġp u
Ġlo ng
Ġt ry
ar y
g ry
one c
Ġpom oc
im al
Ġnem oh
b ÃŃ
Ġan imal
od ÃŃv
Ġn ice
Ġcht ÄĽla
ĠSp ot
k Ã©
Ġm ÄĽl
Ġzah rad
b er
j Å¡ÃŃ
Ġse be
rab b
Ġm o
Ġt am
Ġb et
ĠnÄĽj ak
ji ch
B en
Ġho d
Ġnik dy
Ġv o
e st
ĠA nd
Ġt i
Ġ im
Ġun til
Ġan y
Ġzn ovu
s el
Ġm no
Ġsm all
le ÄįnÄĽ
Ġk ind
Ġlearn ed
ku d
i ci
ĠhrÃ¡ l
v o
T im
Ġdo n
ĠJe ho
il d
ur t
Ġpo dÄĽ
ĠN e
Ġbet ter
ov ÄĽ
Äį ka
Ġv ÃŃ
Ġt ru
Äį it
Ġod p
r t
Ġf low
Ġrych le
Ġop atr
or t
ĠZ ept
Ġz vÃŃ
Ġ end
Å¡ li
k em
Ġd ÄĽ
Ġbe st
v ent
ur p
ĠzaÄį al
Ġne by
Ġpo ÅĻÃ¡d
m b
Ġo r
re am
Y es
Ġc le
b ou
Ġs li
Ġn ÃŃ
Ġsa y
Ġexp lo
Ġle g
a ut
Ġk vÄĽt
Å¾ ÃŃ
A no
Ġj en
o y
âĢ Ŀ
Ġpo ko
âĢ ľ
ĠÅĺÃŃ kÃ¡
Ġt en
ĠC h
s a
ard en
Ġ -
Ġg arden
f f
Ġspou stu
ck s
Ġst o
Ġvy dÄĽ
Å¯Å¾ u
edn ou
Ġbe aut
Å¡t nÃŃ
ĠJ ane
ĠÅ¡ la
Ġt ro
en Ã½
Ġe ven
Ġb ra
Ġd Å¯
ur n
Ġw a
ĠS o
ĠSara h
Ġc he
Ġthan ked
l un
an k
H e
Ġlaug hed
T h
Ġs ky
li e
ĠH er
ru h
I t
Ġs mi
Ġs te
Ġj ump
z ed
Ã¡ le
Ġm ÄĽla
il ly
Ġd ra
Ġm ot
Ġc al
k al
Ġk u
y Å¡
st ÃŃ
ĠJ oe
Ġ loud
ĠusmÃ¡ l
Å¾ it
Ġb lo
nÃ© ho
ol ly
Ġlo ve
Ġf le
Ġzv lÃ¡
Ġnej lep
Ġw ay
el y
Ġbez pe
Ġp ap
ĠBy lo
i ful
Ġc ome
Ġbeaut iful
ĠnadÅ¡en Ã¡
u je
ro ng
chÃ¡ z
d o
Ġh ard
Ġlo ts
sel f
ka la
Ġmus ÃŃ
is y
ĠT o
j em
ĠzvlÃ¡ Å¡tnÃŃ
Ġst ill
Ġf am
ab le
Ġanimal s
Ġvy pad
as s
Ġk ni
Ġje jich
ÅĻ at
Ġwa it
ro w
Ġnejlep Å¡ÃŃ
t ing
Ġ G
Ġu nder
Ġna jÃŃt
ĠRÃ¡d a
Ġch yt
ĠThe n
Ġu kÃ¡z
Ġp rÃ¡
Ġp ÃŃ
Ġst ay
Ġn od
i p
Ã¡ s
oj Äı
a ir
Ġm ou
ĠÄį as
Ġbot h
Ġv la
ĠH is
Ġm oc
he s
ĠN em
n ing
ov Ã¡
Ġp ÅĻek
Ġne z
ÅĻ iÄį
Å¾ el
Ġclo s
Ġote v
Ġs naÅ¾
Ġsa fe
Ġa r
ĠF rom
j ednou
Ġc el
Ġv od
Ġp ra
st vÃŃ
ro d
vÃŃ li
ĠzaÄį ala
l Ã½
ĠVÅ¡ ichni
Ġtw o
lu e
Ġv Ã½
Ġm ami
ĠmÃŃ Äį
ĠC ÃŃt
v ap
Ġb ad
Ġ âĢľ
Ġmoh l
ÄĽ k
Ġsmut nÃ¡
Ġhlas it
ĠnÄĽ k
Ġbo ok
ĠÅ¡ el
ou Å¾
op le
rÃ¡ v
Ġspo leÄįnÄĽ
ĠudÄĽla t
Ġli ved
Ġhe z
ĠS t
ka y
e et
Ġven ku
Ġm od
Ġus ly
ĠpÅĻÃ¡te li
ĠpÅĻek vap
Ġwal ked
ku s
ar s
Ġh urt
ra z
lÃ© d
urp r
Ġsv ÄĽt
Ġsh ould
re e
Ġna u
Ġit s
d ed
ra ce
ĠÅ ł
Ġmu Å¾
Ġsmut nÃ½
Ġjmen oval
ĠzvÃŃ ÅĻat
Ġh led
ÃŃ n
ĠcÃŃt il
Ġn ÃŃm
Ġob lo
Ġt Ã¡t
Å¾e la
Ġs urpr
Ġan gry
N o
Ġfam ily
ig h
s o
k l
Ġt at
Ġpe ople
Ġfle w
Ġcal led
Ġmno ho
Ġzv u
A nna
Ġr ed
ĠnÄĽjak Ã©
Ġst or
W hen
Ġbra ve
r Ã©
Ġim p
Ġtro chu
ko li
ĠnadÅ¡en Ã½
ĠjÃŃ d
Ġ i
Ġso on
L et
Ġf in
Ġby ly
es s
is hed
Ġt al
ra Äį
b a
a isy
u ck
ĠpoÅĻÃ¡d ku
h l
Ġk ept
Ġvy d
Ġf ore
f ore
m ÃŃv
Ġvys ok
Ġd an
Ġna Å¡el
ĠM Å¯Å¾e
Ġne Å¾
Ġf ly
Ġh as
Ġsh are
Ġli d
Ġpre tt
W ow
ĠpÅĻi p
Ġaut o
lo Å¾
Ġpom oh
ĠÄįer ven
Ġs lun
i z
ĠdÄĽla t
ru Å¾
Ġch vÃŃli
ĠcÃŃt ila
h lÃ©d
Ġh lu
Ġp ic
Ġvid ÄĽla
k li
Ġgo ing
Ġdo or
Ġz d
Ġn enÃŃ
Ġp yÅ¡
Ġp er
ĠhraÄį ky
i es
Ġna v
in ce
ĠptÃ¡ k
ĠvydÄĽ Å¡en
Ã¡m a
Ġ ide
Ġj in
Ġprett y
ĠvÅ¡ech ny
Ġke ep
ĠCht ÄĽl
ĠP ÅĻ
kÃ½ v
Ġno w
Ġcle an
Ġodp ovÄĽ
S ara
Ġz Å¯
Ġad vent
ĠB ÄĽ
ĠJs ou
ra nd
ÃŃ ky
stat nÃŃ
Ġdob rod
Ġno ise
Ġlo t
Ġop ened
Ġsh iny
Ġs n
Ġt ou
s h
Ġw ind
Ġdobrod ruÅ¾
Ġc ry
t ÃŃ
a le
Ġbe fore
Ġc li
ĠS ally
Ġm ak
Äį ili
ĠkrÃ¡ lÃŃ
Ġt ed
Ġc on
ĠT ak
W hat
Ġto m
Ġre m
Äį nÃ½
re ss
Ġz av
Ġm ov
Ġdo ll
Ġpo st
lou ch
Ġz am
Ġw o
ĠP tÃ¡
Ġg round
ka li
Ġexplo re
ĠK aÅ¾dÃ½
Ġna p
Ġal so
Ġje Å¡tÄĽ
Ġt urn
ĠÅ¡ tÄĽ
Ġdal Å¡ÃŃ
ĠA n
Ġf ast
ol ÄįiÄįka
âĢ Ļ
um my
st li
Ġre p
Ġe y
c hod
Ġna Å¡la
lo r
Ġob je
Ġzept ala
ĠmÃŃst o
Äį ku
is s
T hat
Ġd ve
Ġk aÅ¾dÃ½
Ġide a
Ġpan en
ĠD aisy
er ed
Ġb al
ĠW hen
ÃŃm e
Ġm ag
Å¾ nÃ¡
ĠTom my
ar t
c ho
s i
u jÃŃ
Ġop rav
Ġth ink
Ġdo l
Ġnod ded
is ed
Ġco lor
ĠBen ny
Ġz ap
Ġdo vnitÅĻ
Ġdo kud
v Ã½
Ġfeel ing
Ġbr zy
Ġb ud
ĠJ en
ĠÅ¡ pat
Ġpick ed
Ġje stli
g er
Ġzahrad ÄĽ
ĠBy li
Ġwalk ing
Ġne xt
ĠNa jednou
li t
ĠH olÄįiÄįka
ĠhraÄį kami
ojÄı me
Å¾ Ã¡d
ka jÃŃ
ĠE m
ĠD ad
Ġcli mb
S o
Ġmal Ã©
ĠnÃ¡ pad
Ġwh ile
Ġb ed
z l
Å¯ m
Ġwor k
b le
Ġo k
Ġh or
ji st
Ġpla ce
v y
Ġsmi le
Ġr ad
Ġle sk
Ġo statnÃŃ
S am
Ġd ÄĽt
lu v
Ġadvent ure
Ġst Ã¡le
Ġd lou
ĠpÅĻi kÃ½v
ĠN ech
li ci
nÃŃ k
Ã¡ k
ĠpodÄĽ k
Ã¡l nÃŃ
g an
s y
Ġfa ce
z kou
Ġas k
ay be
Th ank
if f
ĠRÃ¡d i
Ġh ot
ic ed
ĠrÃ¡d i
Ġd is
ĠvÅ¡ im
Ġb ar
ĠdÃŃv ka
Ġbe ing
C o
t ure
Ġt r
Ġd iff
ry Äį
b lÃŃÅ¾
Ġf ood
Ġp ryÄį
ou gh
Ġf ro
Ġg ive
j oy
ĠÅ¡ p
le Å¾it
Ġpic ture
Å¯ z
Ġk it
ĠvÅ¡ ichni
Ġz as
ĠlÃ© pe
Ġ lÃŃb
Ġmoh la
ĠU s
Ġt y
Ġobje v
D ob
ch y
Ġlook ing
ĠCht ÄĽla
ÄĽl Ã¡
Ġf o
Ġc e
Ġnov Ã©
Ġey es
a c
Ġto w
st i
Ġf ar
nÄĽ jÅ¡ÃŃ
n t
o ci
Ġsto pped
Ġb ri
Ġd ruh
Ġlist en
st er
Ġpom oci
en Ã©
Ġa fter
Ġp lÃ¡
Ġo wn
Ġt Ã©
em ber
Äį i
Ġo h
Ġp rom
Ġco ok
ĠS uddenly
Ġp es
Ġvid ÄĽl
Ġg reat
Ġst ate
Ã¡ li
Ġs kÃ¡
ĠL ila
Ġm a
o ok
ĠB illy
ĠÃº s
Ġhand s
Ġn ed
S uddenly
ĠP ÅĻi
Ġsh out
re s
al y
Ġhe ad
Ġimp ort
ĠV z
Ġe ver
Ġp at
Ġk oup
Ġp l
ov Ã©
Ġflow ers
Ã ³
Ġen joy
Ġdol Å¯
Ġfore st
Ġnot iced
Ã¡ la
om n
Ġb lue
ent s
ov Ã½
odÃŃv ej
ĠÅ¡ li
ĠV ÄĽ
vÄĽd av
Ġne ar
Ġne po
S he
Ġp ouÅ¾
Ġobj ala
ĠdÅ¯ leÅ¾it
Ġzept al
Ġhra jÃŃ
Ġqu ick
Ġa c
ir st
ri ous
Ġt ra
un ny
Ġwo nder
m Ã½
en a
ĠM ÄĽl
Ġimport ant
Ġrem ember
ĠA my
li ed
Ġs ou
Ġbezpe ÄįÃŃ
Ġpro b
Ġz vÄĽdav
Ġkrab ici
vÄĽd om
ÅĻ it
v iÄį
t en
Ġt ri
Ġs ound
Ġsli de
Ġf ish
Ġrozhod l
Ġg r
Ġrep lied
Äį enÃŃ
Ġs qu
Ġmed vÄĽd
r ed
Ġa ma
Ġb rou
ol low
ĠD ÃŃv
le ase
Ġwat ch
ĠZept ala
ĠpÅĻÃŃ bÄĽ
ÅĻe la
Ġshow ed
ĠN Ã¡h
rabb it
Ġ rabbit
Ġro ck
Ġdo k
ĠN ak
ysle l
Ġo kay
Ġvo ice
by e
ĠNÃ¡h le
Ġd Ã¡l
Ġl ÃŃt
ne k
Ġra in
am a
Ġpo k
Ġs nÄĽ
Ġg re
Ġdiff er
Ġslun ce
Ġo s
Ġne bo
Ġme an
ĠpÅĻi Å¡la
ĠJ im
Ġr ight
Ġn i
Å¡t v
ne s
" .
Ġy e
Ġd Ã¡v
ĠM il
Ġwat ched
nÃ½ ch
Ġdom u
Ġk ou
Ġt ep
Ġvid ÃŃ
Ġm or
ĠK onec
Ġm on
Ġf ollow
W e
Ġtru ck
ÅĻ el
Ġre ali
Ġna Å¡tv
s ÃŃm
Ġch ce
Ġevery one
J e
Ġst rong
Å¡e la
ĠRoz hod
Ġst ran
ĠL et
Ġst ick
Ġbe en
Ġu se
Ġs ed
lo v
an Ã¡
Ġry b
Ġvel kÃ¡
av ing
Ġquick ly
ĠD o
t h
h le
Ġw here
Ġb it
Ġ our
ĠMom my
Ġb a
k ÅĻi
Ġspeci Ã¡lnÃŃ
Ġd ala
lÃŃ z
Ġdiffer ent
ĠdobrodruÅ¾ stvÃŃ
ast av
Ġch ild
ĠlÃŃt o
P odÃŃvej
ĠsvÃ© m
Ġbo at
Ġs ure
Ġla s
Ġne p
li la
Ġrozhod la
Ġb at
ĠU Å¾
Ġbec ame
ÃŃt ÄĽ
Ġgood bye
Ġmu m
Ġh igh
Ġru ce
ho j
ov a
L ook
Ġa m
Ġst ore
Ã¡t ky
Ġclos er
Ġjs me
Ġf il
ĠP ro
Ġc la
Ġdob ÅĻe
Ġvid ÄĽt
Ġdo es
Ġd ress
Ġpr ince
Ġz m
Ġzp ÄĽt
Ġn Ã¡d
o Å¾nÃ¡
ab iÄį
mÃ½ Å¡
Ġw arm
Ġf av
Ġsk v
en ou
Ġp us
ĠVid ÃŃ
ĠC hla
em e
ĠvÄĽ t
ĠpÅĻi Å¡el
Ġcu rious
Ġt ÃŃm
in ed
ĠvÄĽ cÃŃ
ĠÅ¡ at
ĠM ÄĽla
v u
Ġfor g
ĠM olly
ys lÃŃ
Ġus mÃŃv
ĠNak onec
Ġnech t
Ġt ell
Ġpro chÃ¡z
ÅĻÃŃ d
Ġm r
Äį nÃ¡
Ġw av
Ġst op
rand ma
en ÄĽ
Ġnemoh l
ĠS Ã¡
Ġd ro
Ġth ree
Ġbri ght
s em
Ġhou p
Ġn im
le ep
ck y
ĠT h
Ġhe re
Ġn ight
J ohn
Ġf lo
Ġop en
Ġc ake
Ġvy t
d ÃŃ
m ore
Ġh ru
Ġdve ÅĻe
Ġze mi
Ġany more
Ġh rd
A hoj
Ġroz b
Ġy ummy
Ġp ie
Ġb us
Äį nÃ©
Ġv Ã¡m
Ġf irst
d ay
Ġpu ll
a ched
c hen
h a
Ġg rabb
H er
ra ven
al u
Ġb are
Ġc ra
Ġc ou
Ġbut ter
ĠhraÄį ku
Dob ÅĻe
Ġleg race
Ġmamin ce
Ġs of
Ġoblo ze
Ã¡ r
k et
ĠdÄĽt i
ag e
Ġt vÃ¡
ÅĻ il
Ġpo li
v al
el ÃŃ
Ġco ol
Ġp ain
Ġrad ost
Ġgrabb ed
Ġk id
Ġzvu k
chÃ¡ ze
Ġk dy
C an
Ġz el
st ra
ĠM Ã¡ma
Ġzp Ã¡tky
ir ed
kla Äı
Ġy el
st a
im es
lo b
Ġo t
Ġon ly
z el
Ġsw eet
Ġote c
f t
w l
Ġfel l
M ami
Ġob chod
Ġpro zkou
d ou
Ġb re
ĠpÃŃ s
ĠÃºs mÄĽ
Ġs lad
Ġb la
Ã¡ nÃŃ
Ġbird s
st al
Ġjump ed
re l
Ġsa nd
v ou
Ġpot ÅĻe
Ġg lad
ĠTimmy ho
Ġkit chen
Ġse t
ĠM u
Tim my
Ġbare v
ok oj
Ġku chy
p la
Ġp sa
he m
Ġvz ÃŃt
Ġstrom u
Ġhelp ed
Ġne b
Ġd in
Ġse es
jÃŃ m
Ġc hod
ĠP odÃŃv
Ġa lo
ĠjÃŃd lo
ysle la
Ġd u
on g
Ġfi re
Ġdlou h
Ġlas ka
ĠnÃ¡ klaÄı
vÃŃ d
Ġcon t
Ġs it
J ednoho
Ġhapp ened
ÃŃ Å¡
Ġ ou
Ġu vnitÅĻ
D ÃŃky
Ġne v
ĠtÄĽ Å¾
ĠpÅĻÃŃ te
Ġs ing
ne c
ĠJ ill
Ġgr ass
ĠnÃ¡ s
P ojÄıme
Ġst alo
pp y
Ġpo Å¾Ã¡d
an g
Ã¡m e
ĠzvÃŃÅĻat a
Ġted y
Ġb unny
Ġt ÅĻi
Å¯ l
or n
Ġshout ed
Ġstor y
ĠM us
on s
p ce
Ġc ho
Ġk ous
ck ed
A fter
ĠJs i
ĠLily ina
in s
Ġzp ÃŃv
Ġfav or
ug ht
Ġo Äįi
ff y
Ġre ached
Ġreali zed
Ġbro ther
i ke
Ġdok on
Ġbe h
Äį ko
Ġvelk Ã©ho
Ġj o
Ġm ÄĽli
Ġla dy
Ġmat ku
Ġk ÅĻiÄį
ĠL e
Ġh aving
o s
Ġbav ili
rou gh
ĠZ aÄį
' re
Ġv a
Ġk de
H el
Ġcel Ã½
Ġj ste
Ġa pp
Ġm ess
ĠOb a
Ġfavor ite
m p
Ġn ic
Ġuvid ÄĽli
Ġa te
Å¾ as
Ġth rough
Ġdra w
Ġre st
Ġg ame
Ġh at
Ġsu Å¡en
Ġle ss
Ġunder st
ĠEvery one
ĠnÄĽ koli
lu ffy
l ut
ot her
ĠmÅ¯Å¾e me
ĠA s
st ÄĽ
Ġroz lou
Ġob lÃŃb
Ġ el
te nd
Ġfi x
s ob
Ġsof t
ĠPtÃ¡ k
Ġs lu
Ġm ÃŃt
at her
Ġth ing
Ġre ally
Ġd Ã¡t
ĠS naÅ¾
Ġhla d
ĠP od
Ġle p
Ġre ady
ĠvÄĽ dÄĽl
hla s
er a
Mom my
Ġbe gan
o la
w here
ĠÅ¾ Ã¡d
Ġskv ÄĽl
Ġf u
Ġpre tend
Ġpie ce
Ġz ved
Ġpo p
ĠC an
Ġwor ld
mÃ½Å¡ le
Ġdo ne
ĠT hat
Ġb rat
lu z
ĠM ÄĽli
Ġlook s
Ġhim self
Å¾e li
Ġd ÄĽlÃ¡
u p
Ġneby l
b b
ĠudÄĽla l
Ġbutter f
r en
Ġmak ing
Ġdo t
ĠÅ ½
Ġcom ing
Ġrod iÄį
Ġpo nd
v es
ck et
Ġnov Ã©ho
ĠÃºsmÄĽ v
Ġkid s
vid ÄĽl
Ġkter ou
Ġwav ed
Ġdo by
Ġpoko je
Ġno s
Ġm Å¯j
Ġw hy
Ġle se
Ġmag ic
Ġh un
Ġt ired
Å¡ et
Ġd va
Ġdost al
z Ã¡
ĠM al
Ġna ho
Ġdost at
Ġto p
ĠCh ce
ĠM ary
Ġwor ry
m lou
Ġmou se
ĠÃº Å¾as
Ġcar s
Ġna me
Ġdo raz
Ġflow er
ÃŃ te
Ġs ly
Ġobchod u
ĠpodÃŃv ala
and y
Ġv es
Ġsc hov
Ġb abiÄį
Ġmoh li
Ġc est
Ġhlu k
ĠBy ly
Ġs lo
Ġtou ch
rÃ¡ z
ĠBen e
Ġfun ny
ĠvÅ¡ech no
ĠbÄĽ h
Ġcat ch
Ġus ed
ĠÅ¡at y
Ġh air
ĠChla pec
Ġv Ã¡
Ġz em
Ġpap ÃŃ
Ġse en
ro om
Ġru ku
Ġst ra
mÃ¡ l
Ġpok raÄį
Ġce stu
Ġun av
Ġob rÃ¡z
Ġpar ents
Ġf ru
Ġc reat
Ġd v
Ġz astav
Ġk on
Ġan other
Å¯ sob
Ġtal k
z z
ĠvÄĽ dÄĽla
ou f
ĠZept al
Ġdob rÃ½
Ġho pped
mÃ¡ la
Ġc ried
Ġho ld
Ġjedn oho
Ġdo ing
Ġf arm
Ġblo cks
Ġch ut
te v
Ġsp okoj
Ġthan k
li l
ĠkrÃ¡s nÃ©
ĠptÃ¡ ka
Ġsurpr ise
Ġod e
Ġnemoh la
k es
Ġk lo
Ġp ast
Ġz jist
Ã¡v al
Ġz at
Äį ÃŃt
an Ã½
Ġj as
luz av
ĠdÅ¯leÅ¾it Ã©
Ġgre en
Ġob a
A s
ov ou
Ġlaug h
Å¡ Å¥
A le
Ġpro Äį
g g
ĠÅĻek li
Ġvy p
Ġz o
Ġpra c
ĠvÄĽ c
en ce
Ġho p
Ġhlasit Ã½
Ġhe ar
bÄĽ hl
ÄĽ jÃŃ
te ÅĻÃŃ
Ġre ad
Ġsp ot
Ġoprav du
ĠH rÃ¡
Ġflo or
Ġd ri
Ġ lu
k Å¯
Ġre s
Ġvysok o
D on
Ġw ood
Ġtat ÃŃn
Äį nÃŃ
ard s
Ġsv Ã½ch
Ġne s
Ġsk luzav
Ġtre es
Ġro ky
Ġrun ning
Ġt la
Ġwor ked
Ġfu ll
Ġless on
Ġwind ow
Ġnov ou
ĠMu Å¾
Ġye ars
Ġli ght
Ġpos louch
kli d
let ÄĽl
ok e
Ġho le
ĠvÃŃ c
Ġd ark
Ġbeh ind
Ġli kes
Ġw ished
P ro
Ġz kus
Ġpap er
ni ce
li k
r ing
Ġyel low
Ġsw ing
t ÃŃm
Ġvo dy
Ġb ag
Ġb lÃŃÅ¾
Ġsw im
Ġhapp ily
st oup
Ġs at
Ġd ÃŃ
Ġaut ÃŃ
Ġu vÄĽdom
re w
ĠI n
v ing
te m
Ġmat ce
le ch
ĠOb j
Ġs leep
ĠP om
Ġte Äı
Ġan yt
J ack
Ġsurpr ised
ĠnÄĽ mu
Ġhoup aÄį
ĠJ ak
et er
u j
Ġbutterf ly
Ġse bou
Ġfro g
Ġmot Ã½
j de
Ġwe ar
Äį ky
Ġcareful ly
ĠÅ¾ lut
Ġs low
M Å¯Å¾e
Ġremember ed
Ġlo st
ĠpyÅ¡ nÃ¡
ĠpÅĻed tÃŃm
Ġco ld
Ġhe ld
Ġpla kat
Ã© m
mlou v
ko Äįil
ĠkvÄĽt iny
ÃŃt el
ĠpÅĻÃ¡te le
Hel lo
Ġ ice
ÅĻ ila
Ġv r
r dÄĽ
ĠpodÃŃv al
ĠVid ÄĽli
ĠpodÃŃv at
Ġusly Å¡el
c ed
lou p
Ġna Å¡li
Ġch y
st av
dÄĽ li
Ġneed ed
ĠÅ¡Å¥ast nÄĽ
e Äı
Ġu te
Ġhod nÄĽ
Ġmoh ou
Ġv Ã¡s
Ġo c
Ġbu y
ĠV e
Ġpoz or
Äį kat
b or
Ġmo je
Ġn oh
Ġt an
Ġne be
Ġko st
ÃŃ nek
Ġle ft
ĠtÃ¡t a
Å¡ ka
ĠpÅĻekvap enÃŃ
ÅĻ ÃŃm
re ed
Ġpoko ji
la r
Ġnaho ru
Ġn er
Ġla hod
Ġanyt hing
Ġenjoy ed
ch ut
Ġw rong
Ġd ream
Ġklo bou
v Ã©
Ġmu Å¾e
Å¯ v
ku ji
Ġmamin ku
Ã¡m en
Ġar ri
Ġz t
Ġm in
ĠpÅĻ ÃŃtel
Ġfa ir
in es
in ally
Ġa ir
a x
Ġfollow ed
ro ss
Ġmal ou
Ġbook s
Ġz ase
Ġv is
Ġmov e
Ġvz ala
Ġd Ã¡
m en
Ġzp Å¯sob
lici ous
Ġchild ren
Ġpod la
Ġmat ky
ka z
hlÃ©d l
Ġde licious
sk ak
Ġvy kÅĻi
Ġaut a
ĠVid ÄĽla
Ġsou hlas
Ġfin ished
Ġfriend ly
Ġd ir
Ġk res
Ġs now
Ġher self
ĠodpovÄĽ dÄĽla
l f
ĠM Ã¡
Ġlo Äı
Ġz Ã¡v
! âĢĿ
le v
la t
Ġa no
v nÄĽ
ĠlÃ© t
Ġpo h
Ġh vÄĽ
ĠA fter
Ġr Å¯Å¾
Ġh ill
bÄĽ hla
ĠF luffy
Ġz ak
ĠEm ma
r al
Ġunderst and
dÄĽ ji
Ġclo se
Ġp lease
un g
ĠpÅĻe s
ĠDÃŃv ka
ne y
Ġby ch
ad lo
Ġk Ã¡men
Ġb ug
Ġv dÄĽ
k en
n il
Ġdr ak
Ġh id
Ġf as
Ġpro sÃŃm
Ġar m
Ġhol ÄįiÄį
Ġarri ved
Ġc ast
Ġan i
Ġhez kÃ©
Ġel se
Ġwonder ful
l en
Ġba by
Ġg ent
ĠNech t
Ġm ight
Ġj Ã¡
Ġvz ru
ĠJim my
C h
Ġforg ot
Ġt able
at ion
b oj
Ġprozkou m
Ġpom Ã¡h
n er
Ġje m
Ġsi g
Ġk teÅĻÃŃ
Ġvz p
ĠMÅ¯Å¾e me
Ġm ost
ĠprÃ¡ ci
ĠVy pad
Ġcolor s
ĠvydÄĽÅ¡en Ã¡
Å¾ i
M ax
Ġs nÃŃ
Ġbu ild
Ġh loup
ĠP ot
ĠsnaÅ¾ il
Ġbro ken
ĠP es
el d
at a
Ġt ight
rÃ¡ vÄĽ
Ġab le
t hing
Å¾e t
ĠTom e
Ġgo ne
Ġn Ã¡m
Ġnov Ã½
ĠN ow
w eet
Ġp Å¯j
Ġpomoh l
Ġmal Ã©ho
ĠudÄĽla la
Ġoh rom
. âĢĿ
Ġb ou
z ing
Ġsc ho
Ġs ong
The n
ĠvrÃ¡t il
Ġcont inu
ir rel
Ġfil led
Ġd ÃŃtÄĽ
Ġto mu
Ġh rad
Ġste j
o rov
ĠukÃ¡z ala
Ġdo rt
Ġag reed
Ġbre ak
Ġo ran
Ġdom ÄĽ
Ġf ur
Ġsome one
Ã© mu
ĠnÃ¡d her
ĠBen a
Ġbud ou
st ala
ĠbÄĽ Å¾el
Ġm et
Ġpomoc t
Ġcontinu ed
c ÃŃt
Ġd iv
Ġkrab ice
as ure
ra la
Ġr i
ĠSam my
ĠzÅ¯ stat
' ll
av es
omn ÄĽla
Ġt all
Ġ ÅĻ
Ġr Å¯z
ĠTom a
Ġf la
Ġmat kou
Ġwant s
ĠvÅ¡im la
Ġn ich
ĠmÅ¯Å¾e Å¡
Ġotev ÅĻ
Ġsqu irrel
ĠCht ÄĽli
ĠsvÃ© mu
Ġdost ala
Ġb or
Ġle aves
Ġp ink
Ġy es
it ten
M Å¯Å¾u
Ġsm Ã¡li
m an
ĠpÅĻe mÃ½Å¡le
Ġp ly
Ġt rou
Ġon a
Ġg u
Ġen ough
ĠThe re
re k
Ġsil nÃ½
ĠE l
a ce
F rom
Ġp ÄĽk
Ġli on
ch rÃ¡
Ġpla n
vÄĽd ÄĽl
re t
Ġ ÅĻe
Ġsu ch
Ġnepo ÅĻÃ¡d
loÅ¾ ila
Ġo st
k nout
Ġmor ning
lou z
Ġs led
d r
Ġte be
ĠzaÄį ali
l Ã¡d
Ġvis it
Ġfin ally
Ġget ting
Ġnim i
Ġsp ad
Ġrod ina
ĠÄį ist
Ġtak y
Ġk ach
Ġdob rÃ©
ĠmÃ¡m u
Ġt ÅĻ
Ġstay ed
Ġcook ies
Ġkam en
O h
Ġvz al
Ne boj
te k
ĠmÄĽ k
ĠnÄĽk dy
Ġn as
Ġpost av
v at
Ġk ap
Ġd Å¾
ĠbÄĽ Å¾ela
Ġvy stra
Ġs ku
ĠpyÅ¡ nÃ½
Ġpo kus
o se
ĠK rÃ¡
Ġpo in
Ġh ran
Ã¡v Ã¡
Ġbe ach
Ġz ran
Ġsmut nÃŃ
ni ci
Ġfe w
ĠvÃŃ ce
ĠNa u
Ġsc ary
ĠM aybe
fe ct
Ġsomet imes
z ÃŃ
ĠCÃŃt ila
Ġmed vÃŃd
rat e
Ġf ight
Ġp en
Ġdin ner
Ġturn ed
Ġhun gry
Ġf all
Ġk la
Ġw et
Ġpomoh la
ĠpÅĻed stÃŃ
in ÄĽ
Ġso bÄĽ
Ġroz t
r zl
ĠZ ved
Ġkni hu
ĠÅ¾ Ã¡
Ġm iss
ri es
Ġwor d
Ġmot her
w er
Ġg randma
ĠT weet
ĠpÅĻip raven
ĠW hat
Ġaby ch
ĠP ou
Ġw he
ic y
ĠT ed
Ġtak Å¾e
Ġama zing
t le
ĠzÃ¡bav nÃ©
Ġtry ing
Ġc ream
H is
Ġdad dy
Ġper fect
Ã¡v ala
ek t
Ġmak es
Ä Į
no sti
ĠR y
Ġcom p
ĠrodiÄį e
Ġle k
Ġother s
ĠpodÄĽk oval
Ġcast le
Ġb el
Ġclimb ed
Ġslu ne
A t
Ġper f
Ġd ale
p s
ĠTh is
Th is
ĠzvlÃ¡Å¡tnÃŃ ho
Ġpicture s
Ġvla st
h li
ĠpÅĻÃŃte le
Ġob ÄĽ
Ġryb nÃŃ
jem e
p l
Ġt rÃ¡v
z u
ĠD ouf
ĠÃºsmÄĽv em
Ġm ajÃŃ
ĠvrÃ¡t it
ĠpÅĻikÃ½v la
Ġmom ent
nÃŃ m
Ġd uck
Ġwh ite
Ġlist ened
ĠvÅ¡im l
ĠdÅ¯ m
ĠÅ¾ iv
Ġsmi les
Ġve Äįe
ĠpÅĻÃ¡tel Å¯m
Ġf ot
Ġbal lo
ĠM ed
Ġnem Å¯Å¾e
L ila
Ġw all
ĠM oÅ¾nÃ¡
ĠodpovÄĽ dÄĽl
sk Ã½
Ġt ent
z pe
ĠsnÄĽ d
Ġneby la
ĠB av
t hes
Ġna ko
Ġalo ne
Ġclo thes
hlÃ©d la
Ġpoz orov
zÃ¡ jem
Ġu k
Ġk r
vid ÄĽla
ĠvrÃ¡t ila
ĠM yslÃŃ
ĠjÃŃ st
ct or
omn ÄĽl
Ġzm rzl
Ġm ar
Ġpanen ku
Ġta il
Å¡e li
Ġvod u
Ġnako nec
ĠJs em
ĠÅ¡pat nÄĽ
k ovi
Ġpu ppy
am es
Ġj oy
bu je
ĠkrÃ¡s nÃ½
ĠnÄĽkoli k
d i
Ġu klid
Ġwas n
ĠdÄĽ je
Ġbrou ght
Ġde ep
Ġply Å¡
Ġdo Äįkat
Ġevery thing
Ġopatr nÃ½
ĠMal Ã½
ch le
Ġt ast
el c
ĠM i
ĠnÃ¡klaÄı Ã¡k
luv it
Ġp et
ĠMa jÃŃ
ĠnepoÅĻÃ¡d ek
Ġstran ge
Ġne st
Ġse ar
ĠC o
Ã¡ n
ĠP e
ĠÅ¾ il
ĠP ÅĻe
Ġzvu ky
ĠNem oh
Ġu ni
ĠEm ily
ĠÅĺÃŃ kajÃŃ
i ent
le z
Ġsp ark
ov Ã©ho
ra y
ĠCÃŃt il
ĠO tev
Ġtre at
Ġjedn o
Ġk li
Ġg row
Ġwood s
ĠukÃ¡z al
Ġ lÃ¡
Ġko Äįka
Ġchla pce
Ġtv rd
Ġpull ed
Ġnebe zpe
ĠsuÅ¡en ky
Ġj ab
Ġnav zÃ¡jem
Ġc a
ĠS po
Ġv ÃŃt
n ila
J si
Ġw on
K dy
b ot
Ġod po
ĠTak Å¾e
Ġst u
Ġr ide
Ġhla vou
Ġv l
Ġvypad Ã¡
at er
ĠmÅ¯Å¾e te
Ġnepo s
Å¡ ku
Ġask s
Ġst ud
s ky
Ġt ÅĻÃŃ
cÃŃ ho
Ġpo skak
Ġfo x
Ġoc as
ĠpodÄĽk ovala
Ġdan ger
i ro
Ġ ÄĮ
Ġb ÃŃ
Ġkou zel
ĠÅ¡p in
Ġlep Å¡ÃŃ
no st
Ġvy b
M ia
Ġchyt it
ĠJen ny
st o
Ġp rav
ĠÅĺek li
p er
ĠV Å¾dy
itten s
Ġko lÃ¡
Ġs la
as ed
Ġro ll
Ġle ave
Ġk ÅĻÃŃd
Ġde li
ak y
Ġs dÃŃ
Ġp am
ĠN ik
Ġb as
is k
ĠvydÄĽÅ¡en Ã½
Ġmil Ã½
Ġstate ÄįnÃ½
Ġdra g
Ġc ut
Ġ ig
ĠÅ¡pin av
Ġvelk Ã½m
Ġk aÅ¾d
Ġvystra Å¡en
ĠmÃŃÄį em
Ġama zed
one y
nÄĽ d
j te
Ġwait ed
Ġp a
ĠP oz
Ġted dy
Ġz kou
pp ing
ĠpÅĻÃŃbÄĽ hu
Ġp lo
v ala
Ġh ide
Ġrozhod li
Ġusly Å¡ela
Ġmu se
ĠVid ÄĽl
Ġtow ards
Ġpo ste
ap e
ĠL ÃŃ
Kdy si
ra c
Äį in
Ġjab l
n ut
Ġklobou k
ig g
ĠPod ÄĽk
ĠprÃ¡ ce
ÄĽ kuji
Ġd es
ĠvÅ¡ ude
Ġfi eld
or m
Ġla nd
ĠvÅ¡ e
v i
Ġdale ko
ĠdÃ¡v no
Ġs lÃŃb
Ġnez ap
Ġo m
Ġsh ar
Ġne vÄĽ
an ÃŃ
en i
Ġfly ing
av y
Ġk n
Ġprozkoum at
r zy
ĠR e
ĠvelkÃ© m
ĠkvÄĽt in
Ġnau Äįila
Ġo ce
Ġmamin ky
Ġnecht ÄĽl
s p
Ġtat ÃŃnek
Ġsil ly
Ġsh ared
Ġra ce
Ġown er
Ġvy h
Ġrun s
ĠzÃ¡v od
Ġnau Äįil
ĠJ ste
Ġob le
O K
s ou
ĠptÃ¡ Äįek
ĠsnaÅ¾ ila
ĠMed vÄĽd
ĠD ruh
n at
Ġqu i
Ġvr cho
Ġm nou
Ġcht ÄĽli
Ġkuchy nÄĽ
Ġb ran
d er
Ġli ving
Ġj ob
u ji
Ġpo j
ĠnÃ¡s led
Ġsk on
Ġprom ised
Ġvz du
m ÃŃ
Ġbe lie
Ġvid ÄĽli
ovÃ¡ nÃŃ
Ġk do
Ġm ok
ĠT eÄı
Ġmor al
ok Ã¡
Ġs ide
Ġj u
ĠmÃŃ Äįek
Ġpo hy
Ġob rov
Ġla ke
Ġdoraz ili
z lob
Ġbas ket
Ġpar ty
Ġotev ÅĻela
iv Ã½
Ġthink s
Ġdan ce
al t
Ġstate ÄįnÃ¡
nÃ½ m
M aybe
Ġdo p
ĠnÄĽ m
Ġopatr nÃŃ
an ou
M oÅ¾nÃ¡
Ġpla ne
ĠtÄĽÅ¾ kÃ©
Ġve ver
Ġp il
Ġc loud
Ġp i
Ġd ÄĽli
Ġm Å¯Å¾u
Ġk ab
ĠK ÅĻiÄį
ĠskvÄĽl Ã½
u ally
c le
re m
Ġmno hem
Ġqui et
ĠhraÄį ek
Ġpe vnÄĽ
is es
Äį ata
Ġmu st
O kay
Ġle sa
Ġmot or
Ġbal Ã³
z er
Ġm oney
ĠzaÄį alo
Ġwor ried
Ġstar t
ĠÅ¡ iro
ke y
ĠukÃ¡z at
Ġprob lÃ©
Ġd i
rate ful
Ġan s
Ġb lÃŃz
p al
Ġpo pad
Ġexp la
Ġroz zlob
ĠK o
Ġslow ly
ĠÄį e
Ġcolor ful
ĠPou ÄįenÃŃ
Ġw elc
Ġfas ter
Ġse em
ni e
Ġg rateful
ĠB rzy
Ġpiece s
ĠdÄĽ s
Ġmi x
ÅĻ ilo
t u
ÅĻ ÃŃv
Ġmil ovala
Ġvyt vo
ĠU dÄĽla
ĠJ ake
Ġmy Å¡
Ġop ÄĽt
Ġvlast nÃŃ
Ġbro ke
ra jÃŃ
e e
lÃŃ k
Ġpo kla
Ġtoho to
n iÄį
d eme
Ġpro chÃ¡ze
ĠM ittens
Ġs ko
Ġrozb it
ĠvÅ¡ em
Ġz b
Ġg if
v nÃŃ
Ġjin Ã©ho
Ġst r
Ġbig ger
Ã¡ Å¡
ĠÅ¾ ila
Ġleg raÄį
mÃ¡ li
Ġro st
Ġsn ack
MÅ¯Å¾e me
Ġtra in
loÅ¾ il
ĠM r
Ġs Ã¡m
Ġbla n
Ġre ach
Ġbu b
Ġh on
l ing
Ġk iss
Ġmon ster
Ġlid Ã©
ĠDruh Ã½
ĠMÅ¯Å¾e te
u b
Ġsp la
Ġjo in
ĠÅ¡tÄĽ nÄĽ
ĠveÄįe ÅĻi
Ġri ver
a j
ĠkrÃ¡lÃŃ Äįek
vÄĽ ÅĻit
ĠU vnitÅĻ
Ġot ce
le ss
Ġc andy
Ġt ady
Ġt rÃ¡vÄĽ
ĠpapÃŃ r
Ġnech at
Ġma j
Ġblan ket
Ġbla ck
Ġsc ream
Ã¡h l
ĠtvÃ¡ ÅĻi
Ġmagic al
Ġtre asure
us ed
ĠA ll
Ġprince ss
Ġpo kud
Ġc all
is a
ĠpouÅ¾ ÃŃv
Ġw in
Ġb ike
Ġdanger ous
ĠvÃ½ Å¡
ĠN ÄĽk
Ġmus ic
Ġtv rdÄĽ
J Ã¡
Ġdrag on
li ce
Ġsig n
Ġac ross
Ġh r
S ure
ĠDad dy
r ve
Ġevery where
Ġmamin kou
ĠdÃŃv ala
Ġhelp ing
il ing
Ġsi ster
Ġlek ci
Ġp t
Ġp s
out h
ĠVÄĽ dÄĽl
Ġfarm er
Ġk no
le r
ĠmÃ¡m ÄĽ
ĠlegraÄį nÃŃ
Ġm outh
Ġbrat r
Ġsm art
Ġkoup it
ĠpÅĻ ines
Ġsm el
s et
W hy
Pro Äį
Ġa p
Ġz la
Ġm as
x i
ĠkamarÃ¡d ka
Ġdis app
ĠB ud
ĠH led
Ġhapp en
Ġdv oj
te s
ĠkamarÃ¡d a
Ġv ed
Ġword s
Ġpain t
Ġm is
Ġstar Ã½
in ou
J sem
Ġzo o
Tom my
un ch
Ġh Å¯l
H i
ĠO n
om il
ĠVÄĽ dÄĽla
p ÄĽli
li li
Ġg i
ĠzvÄĽdav Ã¡
Ġste pped
Ã¡ ch
Ġth rew
Ġhe avy
ĠSÃ¡ ra
Ġtow er
Ġdoll s
Ġkni hy
ĠM oh
Ġp ass
Ġbo wl
ĠuÅ¾ ÃŃv
Ġb ite
ĠvydÄĽ s
Ġsa me
ĠTom ovi
Ġdir ty
Ġne t
Ġvy tÃ¡
Ġzkus it
ĠB e
Ġtw ins
ĠzvÄĽdav Ã½
Ġcry ing
y nÃŃ
Ġzt rat
Ġpu zz
Ġpr st
ĠpÅĻikÃ½v l
Ġj a
Ġstrom y
ĠÅ¾Ã¡d nÃ©
Ġbe e
Ġdo ctor
Ġg iv
Å¡ it
Ġs bÃŃ
Ġac c
Ġz ÃŃ
Ġbelie ve
Ġu t
Ġse m
ĠcÃŃt it
ĠÅ¡ ko
ÅĻe j
Ġpom alu
Ġn at
Ġwould n
Ġvod ÄĽ
ĠhraÄį ka
f ort
ra li
as h
i ÅĪ
Ġje zd
Ġbat h
ĠP ojÄıme
ÅĻ ed
Ġh ig
Ġnecht ÄĽla
Ġclos ed
Ġcar ro
Ã¡ dy
Ġchla d
ĠTed dy
ĠD r
b al
Ġw ag
Ġby ste
ĠpodÄĽ lit
ro wn
ĠNik dy
Ġhled al
Å¡ ÃŃm
Äį ej
Ġd vÄĽ
am p
Ġst uck
Ġp ou
Ġc our
Ġballo on
Ġnik do
Ġfru it
ĠdÃŃv al
Ġna k
Ġna j
Ġzn am
ĠhvÄĽ zd
Ġpoj Äı
Ġm yslel
ĠmusÃŃ te
Ġte ac
Ġstrom ÄĽ
c y
Ġhran ÃŃ
Ġod vÃ¡
Ġlesk lÃ©
Ġscho ol
ro z
ÄĽ lo
ĠdÄĽlÃ¡ Å¡
Ġvys vÄĽt
Ġu Äįit
Ġhop ed
ĠpouÅ¾ ÃŃt
Ġdvoj Äįata
Ġj el
ĠdÃ¡ rek
b ilo
Ġbro wn
Ġs uddenly
Ġto lik
ĠprochÃ¡z ku
ĠvÃŃt r
Ġvla sy
Ġfeel s
Ġne u
Ġch air
Ġh it
ro st
Ġeat ing
Ġto wn
Ã¡ hla
Ġh ud
Ġp ers
ĠrÃ¡ no
ĠM yslel
il la
Ġdo h
Ġcla pped
Ġcour se
Ġcra y
ĠnaÅ¡tv anÃ¡
Ġdokon ce
Ġu dr
Ġb en
Ġnap l
? âĢĿ
c hes
Ġ lou
Ġvz d
ĠZ a
Ġh rom
Ġco l
ĠPo Å¾Ã¡d
Ġsm ÄĽ
o li
ĠblÃŃz ko
ĠBen ovi
ĠÅ¡Å¥ast nÃ©
Ġh Ã¡d
Ã¡ lo
Ġbych om
Ġob Ã½
v ol
Ġp le
ru m
Ġfair y
ara z
ĠnÄĽk do
Ġs rd
vent ually
ĠF red
ro j
Ġbut t
oz ÅĻej
Ġpo cit
Ġgent le
im a
Ġcu p
Ġst and
ĠVÅ¡ ech
Ġbot y
Ġsp rÃ¡v
ter Ã©
uck y
ĠÄį ek
ĠuÅ¾ ili
Ġj ar
Ġa tt
Ġh ÅĻe
Ġwelc ome
Ġsp Ã¡t
ĠpÃŃs ku
Ġdro ve
ĠpoÅ¾Ã¡d ala
z a
Ġu tÃŃ
ĠSpo leÄįnÄĽ
Ġpus hed
Ġyou ng
ozÅĻej mÄĽ
ĠostatnÃŃ m
Ġotev ÅĻel
Ġneby lo
ĠU kÃ¡z
Ġdr ink
alt hy
ĠS us
or d
ho ne
Ġch ci
mlouv Ã¡m
Ġhig her
Ġsw ings
Ġwith out
ĠU vidÄĽl
h lÃŃ
Ġse c
Ġner v
Ġne igh
Ġpo blÃŃÅ¾
Ġto day
Ġpan ÃŃ
ĠkrÃ¡lÃŃ k
to p
z na
Ġz lÃ½
Ġp Ã¡r
Ġpo cket
Ã¡ ku
Ġspo le
B ob
v ÃŃm
Ġro bot
Ġsv ÃŃt
ad la
ĠlÃ©t at
Ġs oup
Ġradost ÃŃ
Ġprob ud
ĠHrÃ¡ li
n al
Ġteac her
Ġne vÄĽdÄĽl
ĠpÅĻ id
Ġv Å¯
id ent
Ġd a
Ġno ci
ĠM Å¯Å¾u
ĠÄįerven Ã©
ĠudÄĽla li
li g
ĠUs mÃ¡la
Å¡ i
ost i
at o
ĠtÃ¡t ou
Ġst one
Ġos am
Ġobj al
Ġg ames
Ġche ered
ĠpotÅĻe b
ĠVz ala
Ġpoko j
Ġdis c
ĠZ av
Ġw ings
Ġfor get
Ġvzdu chu
Ġy ard
Ġexpla ined
Ġlong er
Ġj our
Ġcest ÄĽ
Ġf ree
Ġjedn u
ĠptÃ¡ ky
ĠpÅĻed stav
Äį el
Ġobj ali
F inally
ĠvrÃ¡t ÃŃ
ĠMus ÃŃte
Ġor gan
ĠmusÃŃ Å¡
By lo
Ġch an
Ġfru st
Ġu blÃŃÅ¾
Ġv an
Ġc orn
Ġse nd
Ġst ali
ĠRy chle
Ġdlou ho
Ġko ne
Ġno se
Ġd ry
Ġw r
Ġalo ng
Ġm el
Ġhra je
o ot
ĠÅł li
ov e
Ġpokla d
lu b
Ġla te
k ama
Ġno ises
Ġhug s
v it
Ġs ang
Ġp iz
z me
Ġob lÃ©
ĠUs mÃŃv
Ġ lÃŃ
red i
lu pat
a f
Ġth row
ÃŃ ch
Ġb le
h ant
uj u
nÃ© m
ĠkolÃ¡ Äį
Ġhlasit ÄĽ
s kÃ¡
Ġoblo hu
st ou
Ġst re
Ġk lÃŃ
Ġko lo
ste ad
it el
cÃŃ ch
Ġturn s
lep hant
ĠL isa
lou r
ĠmÃŃst nosti
ĠautÃŃ Äįko
Ġstor ies
z t
Ġdob r
ĠÄįerven Ã½
Ġsho es
Ġhrd Ã¡
Ġlo n
Ġn elÃŃ
t ip
Ġadventure s
Ġprav du
Ġsing ing
Ġpast el
Ġne ck
Ġto hle
Ġrozt omil
ĠÅł el
Ġp urp
Ġslun ci
ion s
Ġup set
Ġw ell
Ġkone ÄįnÄĽ
Ġl unch
Ġapp le
Ġf ence
Ġstra ch
Ġopatr nÄĽ
Ġko Äįku
Ġskluzav ce
Ġlon ely
Ġperf ekt
Ġne vidÄĽl
Ġn ar
Ġf it
vÃ¡ z
Ġsv aÄį
Ġkamar Ã¡dy
D o
Ġz mi
rav it
Ġ 3
ĠPo pad
ĠtatÃŃn kem
p ci
Ġno c
Ġse a
Ġpl nÃ¡
Ġm ine
Ġdruh Ã©ho
Ġe lephant
Ġd ist
Ġstre et
ĠJohn ny
Ġc ir
Ġpr vnÃŃ
Ġnepos louch
Ġhe art
Ġdom ov
Ġsk ÅĻÃŃ
Ġt em
nt ain
Ġw ish
Ġzav rt
p a
ĠlÃŃb ÃŃ
rom iÅĪ
Ġbar vy
Ġok na
ĠRozhod l
ĠzÃ¡ ÅĻi
ĠobÃ½ va
bo ard
Ġmil oval
ĠZ ajÃŃ
b ow
c hov
Ġru kama
p ÄĽ
ĠÄį ÃŃ
Ġk us
Ġnem oc
mÃ¡ ÅĻ
ĠvykÅĻi kla
ĠmuÅ¾ i
Ġsh ap
Ã¡t ko
Ġmon key
Ġsho ok
Ġexplo ring
iv Ã©
dÄĽ t
v ely
Äį er
Ġmov ed
ught y
Ġkuchy ni
Ġpam at
Ġch lupat
g u
Ġye ar
sk at
Ġst av
Ġna ughty
Ġnear by
Ġw ise
Ġdr Å¾ela
u by
h nout
Ġt as
Ġv ol
ĠCht ÄĽjÃŃ
Ġ led
Ã¡v ajÃŃ
Ġob li
Ġstej nÄĽ
Ġpuzz le
Ġle v
k rÃ¡
Ġbr ing
ĠObj ala
Ġstar s
Ġkon ci
ĠG randma
Ġo wl
w ard
f used
o je
Ġo vo
vÄĽ le
ĠvrÃ¡t ili
Ġkli d
Ġp ik
Ġh ous
Ġzved la
Ġslad ko
Ġpo ÄįÃŃt
Ġv tip
ÃŃ ÅĻ
A nd
Ġn ast
p il
Ġrost l
Ġpodla ze
J im
ĠobrÃ¡z ek
Ġca ught
Ġrozlou Äį
ĠpodÃŃv ej
ĠuvÄĽdom il
et h
Ġmil Ã¡
Ġmou d
Ġod letÄĽl
Ġm yslela
ĠCh ci
ĠRozhod li
y ard
Ġvzru Å¡en
ug h
Ġzran ÄĽ
Ġn ud
Ġseem ed
Ġback yard
Ġ es
it y
Ġbu Äı
ne ver
ĠTak Ã©
ĠP ouÅ¾
ugh ter
Ġre lie
Ġdro pped
Ġh nÄĽd
Ġro cks
ĠP r
or y
ĠN ej
Ġpr in
ad ow
Ġp ad
f on
Ġt les
a ÅĻe
Ġbu cket
ĠodvÃ¡ Å¾
Ġh nÃŃ
ĠRe x
M olly
Ġz lob
z i
Ġli t
Ġacc ident
Ġsw am
ov ÃŃ
Ġpurp le
Ġod nes
Ġrychle ji
es e
Ġvrcho l
oh le
oh a
in ing
a ÅĻilo
Ġovo ce
Ġtak ing
N em
Ġte bou
ĠU vÄĽdom
ĠzÅ¯ st
ĠvÄĽt Å¡ÃŃ
Ġzo om
lÃ© v
ĠÅł la
p yt
Ġoran ge
Ġpoz dÄĽ
Ġth ough
ĠproblÃ© m
ĠN enÃŃ
Ġa f
ĠmotÃ½ la
ĠPoz dÄĽji
Ġlid ÃŃ
Ġoble ÄįenÃŃ
Ġshap es
ke v
Ġdot knout
Ġpo le
Ġlesk lÃ½
Ġzmrzl inu
Ġza chrÃ¡
Ġhled at
Ġz ip
Ġko pce
it ty
Ġute kl
ĠkvÄĽt inu
ous ed
Ġm ad
ĠPÅĻ ed
Ġsho p
Ġco w
Ġopatr nÃ¡
Ġspou stou
ĠmÃ¡ Å¡
Ġw oke
ĠTh ank
Ġmus ÃŃme
ĠnaÅ¡tv anÃ½
Ġsk vÄĽle
Ġben ch
ĠD ok
ust il
Ġpo lÃ©v
um b
Ġsound s
By li
Ġwonder ed
Ġbus y
ĠpÅĻÃŃbÄĽ h
em ent
ĠusmÃ¡ li
Ġsa m
Ġt iny
th day
b ali
m er
nÃ¡ m
D ÄĽkuji
ĠJ ed
jÃŃm ajÃŃ
Ġre al
m ing
Ġmus el
Ġh ur
Ġocas em
ic ho
ĠplÃ¡ Å¾
Ġda ughter
Ġrain bow
Ġsit ting
ĠprochÃ¡z el
Ġm ark
Ġhlasit Ã©
ĠV el
ĠÅ¾iv ot
Äįe la
ĠcÃŃt ili
ĠmÃ¡m ou
Äįe ho
ro s
Ġvypad al
Ġk ite
ĠnÄĽ Äįeho
Ġtak es
v ali
i er
re ad
ĠZaÄį al
b il
kÃ¡ Å¾e
Ġju ice
Ġjas nÄĽ
e la
ĠzÃ¡bav a
Ġnot hing
ĠzvÃŃ ÅĻe
Ġm n
Ġhold ing
ĠSnaÅ¾ il
Ġke y
Å¡t i
Ġna jednou
c er
Ġla viÄį
Ġcom es
Ġsa ma
c ing
el la
Ġpro stÄĽ
Ġarm s
Ġn araz
n ul
ĠotevÅĻ ÃŃt
ĠrozlouÄį enou
Ġk louz
Ġnem ÄĽl
Ġp ig
Ġs ug
ĠvÄĽ Å¾
Ġh ry
P romiÅĪ
ĠmedvÃŃd ka
Ġco at
Ġs y
ĠnÄĽkoli ka
L ucy
jÃŃ cÃŃ
Ġob ej
Ch ci
Ġnau Äįit
Ġsm ell
Ġma il
Ġmn oha
Ġin ter
Ġposlouch at
ÅĻe li
ĠPot Ã©
Ġb l
edn out
Ġcu te
ĠIn side
Ġsec ret
Ã¡ Ã¡
ĠnadÅ¡en ÃŃ
Ġbran ch
Ġmod rÃ©
h al
Ġpo v
Ġves el
ra id
Ġrelie ved
id iÄį
ĠÄį Ã¡
Ġpohy b
Ġk ro
Ġza jÃŃm
id ge
Ġzahrad u
us u
Ġaf raid
b all
ĠtÅĻ pyt
ĠPodÃŃv ala
Ġpom Å¯Å¾e
Ã¡v ali
Ġo to
Ġce le
Ġz an
Ġzel en
ĠV rÃ¡t
Å¡t ÃŃv
Ġdri ver
Ġzahrad y
ĠS tÃ¡
ĠÅ¡tÄĽ stÃŃ
Ġbo w
ĠpotÅĻe buje
Ġposte le
Ġfore ver
ĠobrÃ¡z ky
Äį nÃ©ho
ĠÅ¾ ili
Ġhlu b
Ġs ur
e li
aÅĻe c
Ġte lev
ov ered
Ġdo s
Ġcar ry
Ġsa il
ĠpÅĻe st
ĠSus ie
ĠLe o
Ġgif t
Ġji st
Ġm lad
Ġsi ck
ĠhrÃ¡ ly
Ġo Äį
ĠJe jich
Ġcou n
Ġmi st
Ġzved l
Sam ozÅĻejmÄĽ
Ġvy lÃ©
ĠBÄĽ Å¾ela
Ġpe ace
O f
ĠuvÄĽdom ila
ĠkrÃ¡s nÃ¡
ĠAn no
Å¡ lo
oz en
Ã½ d
Ġprom ise
ĠF inally
ĠhoupaÄį ce
Ġfi al
ĠLily in
Ġo tÃ¡
Ġhug e
Ġm luvit
Ġneb ude
Ġre t
j me
Ġva Å¡e
Ġtou ched
Ġs uc
Ġk ing
Ġr ound
Ġhel lo
Å¡ ujÃŃ
Ġn ena
ĠPodÃŃv al
Ġzah rÃ¡t
Ã© ct
sta ÅĪ
ĠC ome
Ġbir thday
ĠKo Äįka
Ġf ing
Ġnar ozen
ĠkrÃ¡s nou
Ġkamen y
ut o
Ġlet ter
Ġzav ola
Ġche ese
ĠAn n
Ġim ag
Ġbav it
Ġg rab
ĠÅ¾ id
Ġcou nt
h lu
Ġsun ny
Ġinter est
ĠklÃŃ Äį
Ġexcit ing
sh ine
Ġlaska vÃ½
Ġz mÄĽ
Ġna Å¡e
ĠNe by
Ġnav Å¡tÃŃv
Ġpat ient
ĠM ama
Ġu dÄĽl
ĠnevÄĽ dÄĽla
Ġsa f
Ġnej d
Ġb and
Ġon to
Ġu kaz
Ġk ÅĻe
Ġnej sou
Ġn ut
Ġpl nÃ½
Ġvod ou
ad u
Ġlaug hing
ĠS ly
Ġap pe
Ġw and
Ġday s
av ou
Ġsmut nÄĽ
ÃŃm co
Ġon i
ĠH od
ĠM yslela
Ġpo l
Ġmu d
Ġs Ã½
Ġg igg
Ġcreat ure
ĠM ar
Ġdr Å¾el
Ġtr pÄĽli
Ġtv Å¯j
ĠsnÃŃ st
ak es
Ġpro d
Ġsku te
a z
ĠholÄįiÄį ku
Ġsp in
ĠZ ap
Ġm lÃ©
ĠvÃ½ j
ĠM ark
ĠC hy
d le
Ġbre ad
Ġbo le
ĠdÄĽli t
ĠK itty
Ġblo ky
He y
ÅĻ enÃŃ
Ġk ick
Ġpo vÃŃd
Ġdne s
Ġbus h
er ry
Ġli fe
ch a
ĠvÃ½j ime
ĠpÅĻip oj
Å¡ ky
ĠBob by
ust ila
Ġp ack
Ġko le
Ġp yt
Ġj de
ĠO na
Ã¡t a
Ġlet ÄĽl
nut ÃŃ
Ġpo wer
ok rÃ¡t
ĠRozhod la
Ġho pe
Ġin c
Ġshe ll
Ġunav enÃ½
Ġh lÃŃ
ne ss
ĠChce Å¡
it ch
Ġco zy
ĠnÃ¡ p
Ġjour ney
Ġswim ming
Ġu jist
Ġhled ala
ĠB u
Ġu vÄĽÅĻit
ĠpojÄı me
el s
ar Ã¡
Ġst ÄĽ
el o
s u
ĠÅĻÃŃ ct
enÃŃ ze
Ġa u
Ġte le
Ġbot tle
chÃ¡z ÃŃ
Ġs oused
Ġbav il
Ġw ra
ÄĽt i
l om
ĠplyÅ¡ ovÃ©ho
Ġsuc ce
ĠVz al
ĠbÄĽ Å¾eli
h rd
Ġin stead
Ġmil k
Ġwh ist
oval o
Ġslo va
ĠpodÃŃv ali
Ġshar p
Ġta jem
Ġwatch ing
Ġm ap
as nÄĽ
Ġbav ila
Ġpodla hu
Ġe ar
Ġret urn
Ġd ali
Ġved le
Ġc en
n ed
Ġu cÃŃt
ĠprochÃ¡ze la
Ġaccident ally
ĠublÃŃÅ¾ it
Ġe as
Ġvy ro
Ġsun shine
n ot
Å¡ ek
ĠSo on
Ġprozkou mÃ¡
ĠÃº t
Ġhez kÃ¡
Ġc ave
Ġsrd ce
d a
Ġse st
Å¡ tÃ¡
Ġt un
ĠNe vÄĽ
Ġchut nÃ©
ko Äįila
Ġvyd al
Ġzas mÃ¡la
ĠÃºt ul
koli v
Ġlu cky
Ġp enÃŃze
Ġpar t
Ġf ou
ĠpÅĻip rav
Ġtal ked
Ġput s
Ġla mp
Ġpers on
Ġkab Ã¡t
he ÅĪ
Ġvzru Å¡ujÃŃ
Ġp udd
Ġcol le
d iv
p ÃŃv
H ej
Ġpoin ted
Ġho ney
en s
Ġnov Ã½m
Ġst Å¯l
Ġbezpe ÄįnÃ©
h ul
Ġm yslÃŃ
Ġb reat
Ġg ather
Ġgiv es
c ÃŃm
Ġe gg
ko ho
nÃ½ mi
ĠpÅĻi blÃŃÅ¾
Ġje t
Ġro ad
Ġneigh bor
Ġf an
L ater
Ġm inu
Ġcel ou
Ġb ought
se ÅĪ
ĠD an
Ġk b
Ġsm iling
Ġchod ila
s ÃŃ
ĠpÅĻÃŃbÄĽ hy
Ġany one
he l
ĠÅ¡ ÃŃ
Ġsear ched
Äį et
Ġzla tÃŃ
ĠskÃ¡ kal
sk Ã©
Ġb oh
Ġla ter
Ã¡v at
Ġdob rÃ¡
ĠZaÄį ala
Ġh roz
Ġdrak a
Ġsand w
ĠÄįerven ou
Ġne h
or s
Ġapp les
Ġd ÅĻe
ir t
Ġst ÅĻÃŃ
iÄį ku
ĠbalÃ³ n
Ġzd rav
ÅĻ ili
Ġje sky
Ġte st
Ġs ÃŃ
J asnÄĽ
Ġprob lem
Ġpoli ce
ĠUs mÃ¡l
Ġa ct
Ġme et
ĠspeciÃ¡lnÃŃ ho
Ġpol Å¡tÃ¡
ov er
Ġrod inou
ĠzajÃŃm av
Ġsend viÄį
ĠEl lie
s led
Ġb ru
Ġzem ÄĽ
pec t
my lem
la ce
Ġb ala
Ġm ach
Ġbo j
ce Å¡
ka Å¾d
kÃ¡ nÃŃ
kaÅ¾d Ã©
ĠpÅĻemÃ½Å¡le la
om an
ĠÅĻÃŃ kala
h ali
Ġsil nÄĽ
ĠB lue
Ġsly Å¡ela
ĠnÄĽk terÃ©
Ġoh led
ĠpÅĻi Å¡li
h ala
Ġry by
Ġlo ves
ad il
B e
Ġw oman
ĠrÅ¯z nÃ½ch
G ood
Ġzd ÅĻÃŃm
Ġinterest ing
stoup il
Ġpre s
ĠhnÃŃ zd
u li
Ġspo on
ĠD al
Ġzm at
Ġhe althy
n ala
Ġhez ky
Ġu m
l enÃŃ
rÃ¡ l
Ġp ile
Ġo rd
Ġoprav it
V y
Ġtast y
ĠS ed
ĠW h
Ġroz pla
Ġhla vu
Ġpro te
Ġv illa
Ġw ide
ĠMÅ¯Å¾e Å¡
Ġdu cks
Ġmuse la
Ġk le
ĠVÅ¾dy cky
Ġvy zkou
Ġt ÅĻe
Ã¡ ÅĻ
ĠcÃŃt ÃŃ
Ġcle ver
Ġko Å¡ÃŃ
ĠpokraÄį oval
Ġsp id
Ġfro nt
ĠÃºÅ¾as nÃ©
Ġpoz dÄĽji
Ġstor m
Ġe ag
Ġlid i
Ġpos lech
Ġmat ter
ĠKrÃ¡ lÃŃk
Ġk or
Ġchyt rÃ½
Ġcray ons
rom ady
Ġnebezpe ÄįnÃ©
rand pa
Ġvypad ala
Ġdoh romady
my s
ĠÅ¡pat nÃ©
Ġk lu
ĠW ith
Ġcloud s
ĠpÅĻekvap enÃ¡
Ġpat h
Ġznam enÃ¡
ĠBav ili
lÃ© t
ĠsvÄĽt ÄĽ
Ġro pe
Ġsv Ã¡
Ġuklid it
nd y
Ġnav Å¾dy
Ġchla pci
fort able
ĠN ynÃŃ
z dy
ung le
Ġpod aÅĻilo
Ġsh ining
le zl
Ġfe ather
Ġla d
Ġpom Ã¡
pl nÄĽ
Ġsmel led
ĠptÃ¡ ci
am ed
Ġdo ko
ĠP la
Ġo mylem
ĠNa Å¡el
Ġo chut
Ġco lour
Ġtat i
ĠPe te
a ÄįÃŃ
Ġn Å¯Å¾
ĠD ÄĽla
ĠjmÃ© no
ra Å¥
ĠdÃŃv ali
om ÃŃn
s ek
lo vÄĽ
Ġbutt on
Ġperfekt nÃŃ
ĠpÅĻÃ¡tel skÃ½
Å¡ il
Ġpra ct
Ġspot ted
Ġlesk lÃ¡
ĠbÄĽh al
Ġzastav il
ran k
r ge
Ġscream ed
ĠrybnÃŃ ka
ĠCÃŃt ÃŃ
Ġh ÅĻi
Ġos la
iv nÃŃ
rat ed
ĠpoÅ¾Ã¡d al
in ky
ni c
ĠA lice
C ome
an ce
Ġtele fon
b Ã½
mÄĽ je
Ġopatr nÄĽjÅ¡ÃŃ
Ġdan ced
ĠAn nu
Ġse at
Ġpod iv
ĠvdÄĽ ÄįnÃ½
ĠÅĻÃŃ kajÃŃ
Ġstar Ã¡
ov o
op h
Ġpo lici
ĠbÄĽ Å¾ÃŃ
ĠtvÃ¡ ÅĻ
ĠpomÃ¡ hat
ĠM Ã¡m
Ġjabl ko
Ġkb elÃŃ
Ã½ l
en ny
Ġcal m
ĠostatnÃŃ mi
ĠvykÅĻi kl
ĠJ men
ĠTweet y
ĠzlatÃŃ Äįko
ĠP eter
la ss
Ġdost ali
Ġqu est
Ġtrou ble
Ġu lici
Ġappe ared
lun ce
ĠMax e
ĠmalÃ© m
k Ã½m
Ġkap sy
Ġhud bu
be c
Ġwh ich
Ġche er
ĠR ose
ĠBÄĽ Å¾eli
s hed
ĠT en
ĠdÄĽ k
J ust
Ġte ach
p y
ĠvylÃ© zt
b r
Ġsnow man
Ã¡ p
ÄĽ ly
ĠÅĻek ne
Ġobli Äįej
Ã¡ ka
ĠD ala
Ġpost el
k od
e or
Ġmaj itel
Ġsn ake
Ġh Ã¡
ĠO p
ĠVy kÅĻi
ge st
ĠmÄĽ stÄĽ
ĠoblÃŃb enou
Ġl Å¾ÃŃ
Ġas leep
ĠSam a
Ġs ne
Ġlid em
Ġspokoj enÃ½
ĠsnÄĽ hul
ĠjÃŃd lu
ĠsdÃŃ let
Ġusly Å¡eli
ep end
Ġlo vely
bb les
ĠD ÃŃtÄĽ
Ġvysok Ã½
er t
Ġans wer
M Ã¡ma
Ġzas mÃ¡l
Ġv oz
Ġkous ek
Ġwear ing
ysle li
Ġw ild
ĠP at
Ġp enÄĽ
Ġgent ly
ĠDok on
Ġp our
k Ã©ho
M um
ĠS u
an Ã©
Ġsouhlas il
Ġgi ant
Ġb ark
Ġplace s
Ġhrd ÃŃ
Ġroz ru
Ġsp at
ak ing
Ġhor se
ĠP ok
Ġgo es
Ġwho le
rÃ¡ zd
pe Äįek
Ġse stra
Ġcht ÄĽjÃŃ
ĠoblÃŃb enÃ©
Ġstrom em
ĠD ÃŃky
ĠN o
Ġry ba
Ġdoko la
omet imes
at ed
e en
ĠMil ovala
ĠBÄĽ Å¾el
Ġnejd ÅĻÃŃv
Ġsear ch
ĠNecht ÄĽl
ĠK aÅ¾d
Ġpr Å¡et
lev ilo
ĠMa ndy
Ġmil uje
o o
ĠM ÃŃ
ĠbabiÄį ka
ĠÅ¾ vÃ½
Ġdom a
Ġhlub ok
Äį kem
ĠlÃŃb ilo
Ġj Ã¡s
el nÃŃk
E very
va z
Ġpo zd
loÅ¾ ili
Ġimp ress
Ġt ich
Ġnoh y
ak et
Ġcorn er
Ġdir t
Ġpe Äį
ĠCÃŃt ili
it tle
ĠT y
Ġru ka
ĠBob o
Ġtri es
Ġlet adlo
ĠObj ali
rt i
om u
ĠzÅ¯ stal
ĠU vidÄĽla
ĠÃº plnÄĽ
Ġcon fused
luv il
Ġsu pp
c orn
o g
Ġjo g
u jeme
Ġvod a
Ġm ind
okÃ¡ z
ĠsvÄĽt lo
ĠpÅĻemÃ½Å¡le l
I n
Ġroll ed
ÃŃ ÃŃ
Ġtast ed
ĠÃº st
ĠV ys
Ġsm rti
Ġtv ar
s lo
ĠÅĺÃŃ kali
Ġnov Ã¡
Ġc ard
Ġsli d
Ġta Å¡ku
Ġmr kev
ĠnÄĽjak ou
Ġk v
Ġoce an
Ġstar Ã©
Ġza Å¾
Ġpic nic
Ġse s
Ġd ÃŃky
Ġkni h
ĠnÃ¡d ob
Ġne vidÄĽla
li es
Ġforg ive
Ġcel Ã©
Ġres pect
lou ho
t or
i zed
ĠdÃŃ ru
Ġschov Ã¡v
Ġsto le
Ġas h
om en
ar ry
Ġpik ni
Ġpo Å¡t
rÃ¡zd nÄĽ
Ġg um
ep rÃ¡zdnÄĽ
ĠÄį lovÄĽ
Ġr ude
Ġzjist il
Ġoran Å¾
Ġmach ine
Ġzan eprÃ¡zdnÄĽ
ĠP ÅĻÃŃ
Ġsp ent
en ÃŃm
Ġdo z
Ġdri ve
Ġte eth
Ġna jde
Ġp hone
ĠnÃ¡dher nÃ½
ĠPÅĻ Ã¡li
Ġposkak oval
ĠptÃ¡ Äįka
Ġj dou
r s
Ġfil m
Ġstar Å¡ÃŃ
Ġchyt rÃ¡
ĠH ow
Ġtep lÃ©
Ã¡h nout
po ÅĻÃ¡d
Ġla st
Ġdlouh Ã©
kÃ¡ ch
ĠsvÃŃt ilo
ke j
Ġo ven
Ġd ÄĽl
ĠvÅ¡ech na
ĠvÅ¾dy cky
Ġodpo Äįin
ĠpÅĻÃŃ Å¡tÄĽ
Ġcook ie
ĠmÃŃst a
b ÅĻÃŃ
M y
Ġpretend ed
Ġdeli ght
ĠSnaÅ¾ ila
n or
ĠVy tÃ¡
Ġr ing
Ġmo Å¾nÃ¡
Ġko pec
vid ÄĽli
Ġspid er
Ġfur ry
or row
an a
vÃ¡ nÃŃ
Ġfe et
ĠuÄįit el
ĠkÅĻiÄį ÃŃ
ĠmedvÄĽd a
ĠhvÄĽ zdy
Ġob div
rÃ½ v
Ġsc ar
li Å¾
eor ge
Ġb an
ĠnejlepÅ¡ÃŃ mi
Ġroz bÄĽhl
Ġpanen ky
ĠZved la
Ġface s
ir d
Ġwor m
ok ol
Ġst oup
ov Ã½m
Ġbud u
Ġo heÅĪ
Ġhelp ful
ĠÅ¾Ã¡ ba
Ġb Ã¡l
e ar
Ġjed l
ĠD ave
Ġsk len
ĠU tÃŃ
Ġs l
Ġla y
ĠdÃŃv at
r n
ĠD on
ÃŃ na
Ġhled ali
Ġje zer
ĠÄįerven Ã¡
M us
ĠdÃŃ ry
Ġne od
Ġe ventually
Ġw ave
ĠuÅ¾ ite
Ġch ick
ul t
ĠNau Äįili
P om
ĠvydÄĽÅ¡en ÃŃ
Ġme zi
Ġvla k
co la
v ice
t i
Ġob cho
Ġprote ct
ĠmotÃ½ l
Ġmou ntain
by tek
s kou
ĠmÃŃst ÄĽ
p t
ĠÅ¡ ed
Ġlo di
Ġe mb
Ġ '
Ġpeace ful
Ġtalk ing
Ġdlouh Ã½
ĠpÅĻi k
Ġboh at
en o
d it
ĠSam e
luv ili
Ġpo ch
Ġsh y
ĠBÄĽ Å¾ÃŃ
Ġpo loÅ¾ila
Ġfo ld
ĠptÃ¡k ovi
ĠvdÄĽ ÄįnÃ¡
ĠrÅ¯z nÃ©
Ġlist ÃŃ
ĠplÃ¡ n
Ġsm oot
Ġob raz
st ro
Ġbude Å¡
ĠpÅĻi j
Ġtom orrow
Ġt id
ĠskÃ¡ kat
ĠtÃ¡t u
Ġbezpe ÄįnÄĽ
stoup ila
el Ã©
Ġtent o
ĠtÅĻÃŃ let
ĠR od
Ġpr as
Ġse lf
ĠM ike
ĠÅ¾ i
nu la
Ġcho cola
ry t
Ġmil ÃŃ
Ġch rÃ¡
Ġsp read
Ġne vy
ĠÄį okol
Ġvilla ge
Ġlist y
ĠTim e
ĠÅ¾e bÅĻÃŃ
Ã¡ c
Ġdiv ok
ac ka
st vÃŃm
Ġre mi
ky v
ĠD ucky
i ous
ĠkrÃ¡ lov
ĠpÅĻi jde
Ġpo hod
Jim my
Ġsmoot h
ĠNecht ÄĽla
Ġz uby
Ġfo ot
ĠRoz hlÃ©dl
p ed
Ġeag er
g in
Ġb rÃ¡
Ġvyd ala
Ġco in
Ġrych lÃ½
an o
Ġwr ite
Ġcou ch
m on
Ġo v
ĠB ella
Ġunav enÃ¡
Ġzel enÃ©
Ġbuild ing
Ġlad der
ĠNem o
Ġpus h
Ġnemoh li
Ġpo hla
Ġjem nÄĽ
Ġsu per
Ġmod er
Ġo li
ĠzÃ¡ p
ar r
Ġfight ing
Ġst ru
Ġchod il
Ġtreat s
Ġto ol
Ġji ch
Ġble w
Ġch ased
Ġprince zna
ĠC la
ĠS mÃ¡li
Ġw ore
Ġtri p
Å¯ Å¯
ra f
Sara h
Ġhez kÃ½
i re
T aky
Ġb Ã¡la
Ġst ret
Ġf ig
Ġjin Ã©
v r
Ġr aket
t ro
ĠnÃ¡ hrd
Ġosam ÄĽl
Ġdra h
So on
Ġvyd ali
ĠpÃŃs niÄį
ĠPot ÅĻe
ĠNÄĽk dy
arr ass
Ġmil uju
o ld
Ġbug s
k on
Ġst an
Å¾ ku
ĠzpÃŃv at
ĠS oph
m it
Ġdi am
Å¡ im
Ġru kou
Ġhid ing
n am
Ã¡t ku
ĠStÃ¡ le
un k
ĠschovÃ¡v anou
lÃŃz ka
Ġemb arrass
Ġdv or
ĠVy d
Ġkne e
ĠEl la
Ã³ z
Ġp avou
Ġc ross
p ovÄĽ
Ġwait ing
ĠpÃŃ seÅĪ
Ġpo ol
Å¯z i
Ġzb lÃŃzka
or u
ĠnÃ¡ Å¡
Ġpro jÃŃt
Ġbel ong
ĠzÃŃ skat
at or
Ġpudd le
ĠNemoh l
ÃŃt ra
Ġbude te
om nÄĽ
ĠvÅ¡e mi
ĠM yÅ¡
Ġcolle ct
Ġshe lf
Ġneck lace
ĠTimmy mu
Ġrozru Å¡en
Ġfin ish
Ġsouhlas ila
ot ÅĻe
an ed
ĠÅ¡ko ly
J oe
Ġf r
Ġst ir
o sa
Ġwhe never
Ġsong s
ro n
Ġig nor
et r
S p
Ġzjist ila
ad ila
Ġst rÃ¡
ĠF in
Ġm raven
Ġch Å¯zi
Ġself ish
r ku
ĠprÃ¡ zd
o le
Ġkdy by
ĠL i
ĠJ ust
Ġo z
ĠT Ã¡ta
Ġm aybe
Ġst y
Ġcan not
ĠzÃ¡bav nÃ½
ĠJ o
ĠdÄĽla l
Ġu levilo
Ġ ing
k lo
p h
Äį ist
Ġst ring
ĠMil uji
ĠplÃ¡ Å¾i
Ġve ÄįÃŃ
ĠvysvÄĽt lila
Ġzat ÃŃmco
Ġchocola te
ru mp
Ġla rge
Ġtas te
ĠNem Å¯Å¾e
i i
Ġh um
ĠS e
s la
Ġod let
Ġbub l
at i
Ġnem ÄĽla
ust it
Ġg en
ov y
ĠÃºs pÄĽ
ĠpÅĻi st
J ane
M ama
Ġko len
Ġpla vat
bo x
ĠpotÅĻe bu
Ġb ell
Ġmin ut
Ġpa w
Ġdop is
Ġtid y
Ġtla ÄįÃŃt
Ġle af
Ġsa ck
Ġso be
Ġfix ed
ĠdalÅ¡ÃŃ ch
T eÄı
ĠEvery where
Ġans w
Ġre c
Ġvzp omnÄĽla
Ġwas h
Ġbar ked
Ġspokoj enÃ¡
en ku
Ġve Äįer
ĠpomÃ¡h ala
Ġspole hli
ĠUÅ¾ ili
ĠS ometimes
av aÄį
Ġin vit
Ġpopad l
Ġcele b
Å¡ kli
Ġve zme
Ġmr ak
P lease
Ġsto lu
p ala
s ed
Ġc rab
ĠpÅĻekvap enÃ½
ĠpÅĻi kyv
Ġclo th
ĠsnÄĽd l
ĠZ am
ĠvÃ¡ Å¾
Ġan t
Ġcarro t
ĠlÃŃb il
ĠSam ovi
ĠpÅĻÃŃte lem
Ġnak res
Ġobj et
Ġroz hlÃ©dl
Ġres p
Ġd Ã½
Ġvy Å¡la
D ad
ĠDokon ce
Ġpla nt
Ġslad kÃ©
Ġabych om
Ġing redi
rov i
PodÃŃvej te
Ġtelev iz
ĠobÄĽ d
ĠTo by
r nÄĽ
Ġdlouh ou
Ġute kla
Ġb anÃ¡
al s
ĠsvaÄį inu
Ġry bu
Ġhod nÃ½
Ġsn ad
iv Ã¡
abiÄį ka
Ġmod rou
Ġdob ÅĻÃŃ
ĠS lunce
Ġzjist it
ĠpolÃ©v ku
Ġna bÃŃ
Ġuvid ÃŃ
Ġhrd Ã½
Ġdobr Ã½mi
ĠR ob
ĠP lease
ĠD nes
ĠjÃŃd la
ĠzÅ¯ stala
Ġzv ednout
Ã© Å¡Å¥
Ġp sem
ĠZved l
Ġlahod nÃ©
ce m
b liÅ¾
Ġne chÃ¡
Ġj ungle
Ġmiss ed
Ġstar osti
Ġd eter
o in
Ġba z
i pp
ĠdÄĽla la
Ġjed la
f low
m ost
oval y
ĠOb jÃŃmajÃŃ
N ow
Ġdo kÃ¡z
Ġz ima
lez la
ĠvystraÅ¡en Ã½
Ġz Ã¡m
Ġn en
Ġzam Ã¡val
ne st
Ġkni hov
Ġpiz za
P o
Ġroz p
Ġland ed
iz zy
Ġdeter m
Å¡ ili
Ġfor ward
Ġembarrass ed
Ġrod inu
Ġle sem
ĠhraÄį kou
Ġpikni k
Ġv room
ĠT ent
Ġjump ing
Ġp ist
Ġdvor ku
Ġdob rou
ĠSt aÅĻec
Ġk reat
Ġbaz Ã©
J ak
ĠsmÄĽ rem
ĠdobrodruÅ¾ stvÃŃm
Ġdec or
Ġho nest
Ġpe ek
ĠVypad alo
air s
ĠPÅĻ Ã¡la
Ġsp ray
ĠL id
b ila
ĠThe ir
on y
ĠJ Ã¡
Ġp ane
Ġko nec
Ġza z
ĠusmÃŃv ali
ĠpÅĻe stat
Ġtru st
Ġz nÃŃ
Ġhe ars
Å¡ ila
Ġnap s
Ġchce Å¡
Ġz kla
cho p
Ġo Å¡kli
B illy
Ġtep rve
sk al
Pro sÃŃm
or ry
luv ila
ĠkamarÃ¡d ky
Ġkit ten
i pped
t rat
Ġp Ã¡s
Ġmo on
ÄĽ j
Ġpomoc ÃŃ
Ġsh irt
Ġtal ÃŃÅĻ
Ġstick s
chÃ¡z el
M Ã¡m
Ġn Ã¡v
Ġbav ÃŃ
Ġzd vo
Ġshar ing
ĠT V
ĠK im
Ġe mp
Ġneposlouch al
ĠÄį aj
Ġobjev il
Ġb Ã¡
Ġcreat ive
Ġsil nÃ¡
Ġpla ch
ol f
ĠPÅĻ Ã¡l
Ġus mÄĽje
ĠL ola
ic ÃŃ
Ġlet ÃŃ
Ġsucce ss
Ġcarro ts
Ġkno cked
Ġdisapp oin
Ġte a
m ou
Ġut Ã©ct
ĠvÅ¯ bec
Ġpokus il
ĠZ at
Ġgen er
Ġme adow
or k
Ġst ood
Ġpro vÃ¡z
Ġcu k
Ġve get
ĠÅ¡pat nÃ½
Ġmod rÃ½
ĠM um
Ġbud eme
Ġli Å¡ka
Ġdob u
Ġspad l
ÄĽ Å¾
ar i
li ko
el f
Ġto ast
Ġdr Å¾et
ĠsnaÅ¾ ÃŃ
Ġskluzav ku
Ġtight ly
Ġsm Ã¡la
ug g
Ġme ant
ĠC est
Ġkn of
li vÄĽ
Ġnerv Ã³z
Ġok am
ĠPodÃŃv ali
h ne
Ġash amed
ĠPro sÃŃm
Ġs our
Ġkoup ila
ĠsÃ½ r
Ġm Ã©
ĠpokraÄį ovala
Ġjin Ã½
ĠlÃŃ st
Ġtv oje
Ġvypad alo
Ġleg s
ĠPÅĻed stÃŃ
Ġode Å¡el
Ġpla te
Ġspad la
Ġdo kÃ¡Å¾e
Ġal most
Ġspla sh
Ġbreat h
Ġpo lÃŃb
ĠnÃ¡klaÄı Ã¡ku
d en
Ġg low
Ġc hov
Ġg ray
J ill
Ġgre w
Ġjabl ka
Ġpres ent
ĠPro Äį
ĠS ome
Ġpil low
ĠLid Ã©
g round
Ġzn iÄį
Ġkous ky
Ġtell s
Ġemp ty
ĠPodÄĽk oval
Ġnaj dou
T ome
Ġv rt
Å¯ st
ĠpÅĻe stal
Ġma z
Ġdin osa
ar ing
Ġpop corn
ĠP olly
ĠP ojÄı
Ġg as
Ġwhist le
Ġtv ary
Ġpanen kami
Ġpt aÄįÃŃ
Ġch le
Ġpro v
Ġohled u
Ġnech al
Ġobcho dÄĽ
ÅĻ ily
Ġop ice
ĠTim a
Ġpus u
ĠmlÃ© ko
ĠNemoh la
Ġmoh lo
Ġunderst ood
Å¯ li
vy k
omnÄĽ li
Ġteleviz i
ĠpodÃŃv Ã¡
Ġst ro
Ġpohod l
ĠpÅĻik rÃ½v
Ġhod iny
Ġshe ep
Ġcar ried
Ġs r
Äį ÃŃm
ou Å¡t
Ġhod nÃ¡
ĠW hy
ĠÅĻ idiÄį
Ġko Äį
Ġvever ka
ĠusmÃŃv ala
ĠnavÅ¡tÃŃv it
Ġnos it
Ġno te
Ġyel led
ĠÄįokol Ã¡d
Ġp al
Ġfar mÃ¡ÅĻ
Ġho sp
nÃŃ ku
ĠG eorge
it al
ĠB abiÄįka
Ġaby ste
n ili
Ġwh is
ĠusmÃŃv Ã¡
ĠLÃŃ bÃŃ
Ġle s
O mlouvÃ¡m
ĠnaÅ¡tv anÃŃ
Äį as
Ġnos ila
Ġvyt vÃ¡
Ġg au
Ġmag ne
Ġhas iÄį
Ġvzp omnÄĽl
Ġhou rs
Ġplo t
Ġdisappoin ted
ĠbÄĽh ali
ĠnÃ¡hrd elnÃŃk
Ġstrom Å¯
Ġsa ve
Ġsnack s
Ġo ri
ĠA b
n ku
Ġnod s
Ġnav r
it u
Ġmy ster
Ġc ere
Ġz lom
Ġje w
M il
ĠZ n
Ġpostav it
mi le
Ch ceÅ¡
Ġthe se
W here
ĠOtev ÅĻela
Ġohrom eni
Ġl ine
ĠdÄĽs ivÃ©
Ġne ud
qu e
od ay
ĠMax ovi
ĠkÅĻÃŃd la
ĠpokraÄį ovali
Ġspark ly
Ġblo ck
Ġw arn
Ġgo ld
en y
Ġau tem
Ġdruh Ã©
Ġst rÃ¡v
Ġen er
Ġdruh Ã½
Ġmag ick
Ġzam yslel
Ġbou n
ĠB row
Ġr am
ĠE ven
Ġsh ip
Ġkolen o
Ġlaska v
ĠlaviÄį ce
Ġchyt il
ĠB ill
Ġru b
a ul
Ġp ay
ĠNa Å¡li
Ġhosp ital
ĠpÅĻÃŃ Å¡
Ġaut ob
ĠTo gether
r am
ur se
Ġpozorov al
Å¡ nÃ½
Ġbor ed
en ry
jÃŃ Å¾
ĠpÅĻi jÃŃt
ĠMi o
Ġl edn
Ġgener ous
rump y
Ġned ale
Ġposte li
Ġori gin
ĠpÅ¯j de
Ġta ught
Ġse ek
Ġhid den
Ġvyzkou Å¡et
Äį ou
Ġus poÅĻÃ¡d
Ġroz zÃ¡
Ġz r
oh la
h led
Ġodpo Äį
rÃ¡ li
ĠautÃŃ Äįky
Ġroz hlÃ©dla
Ġstand ing
Ġg rou
al Ã©
ĠSt ar
S top
v ÃŃt
Ġoblo ha
eter in
MÅ¯Å¾e Å¡
Ġremi nd
ist ÄĽ
Ġscar f
Ġpozorov ala
Ġminu tes
Ġche w
ĠJoe y
Ġreturn ed
ĠÄį ep
Ġb low
P ojÄı
Ġnov Ã½ch
Ġsh i
Ġknow ing
Ã¡ nu
Ġpokus ila
ĠJ edn
lu vÃŃ
Ġeas y
Ġprac ovali
Ġt rav
ĠZajÃŃ Äįek
Ġbed room
Ġrock et
ĠAle x
ĠB ude
Ġplan ts
en ka
Ġpoli te
z enÃŃ
Ġnev zd
w ork
Ġb er
Ġg lass
Ġmyster ious
Ġwav es
Ġobjev ovat
Ġne mÃ¡
Ġbat er
ab les
Ġd ouf
Ġzas lech
Ġthank ful
ĠvÄĽc mi
ĠÅ¡iro kÃ½m
Ġsig hed
Ġtles kali
Ġp ri
ĠotÃ¡ z
k in
Ġnem ÄĽli
ĠvÄĽ dÄĽt
Ġse ed
Ġko p
Ġw olf
Ġpopad la
ĠN as
ĠPo s
Ġfing er
ar od
Ġvys koÄįil
Ġslune ÄįnÃŃ
T ohle
lig ent
Ġpyt el
jÃŃ mÃ¡
ÃŃ k
Ã¡ st
ra je
Ġnep ÅĻi
lÃ© ho
Ġg lo
Ġb ÅĻe
Ġhot ovÃ¡
Ġener g
Ġner oz
Ġdinosa ur
Ġdeterm ined
Ġpo no
Ġpower ful
ĠÅ¾id li
Ġby s
ĠN ep
ĠTim ovi
Ġvy chut
Ġve j
ze la
Ġcla ss
ĠCh ar
Ġp ir
ĠzÃ¡bav y
Ġmaj ite
ĠvydÄĽs il
lÃ¡ z
u ch
Ġv ide
li ght
Ġsleep y
h lÃŃÅ¾
Ġpass ed
Ġfrust rov
Ġbo bu
ĠO K
Ġsandw ich
ĠRoz lou
Ġvy raz
Ġsho re
t a
S ally
Ġu my
Ġk om
ĠV ÃŃ
ĠÄįe kala
ĠpÅĻikÃ½v li
Ġsp icy
ĠmÃŃ ch
mlouv Ã¡me
' d
Ġd rew
ĠMax i
Ġc r
Ġod hod
Ġmr aky
Ġnerv ous
Ġjel ly
Ġo ko
ĠPodÄĽk ovala
Ġfan cy
Ġclos et
ĠVÅ¡ ude
Ġmod rÃ¡
Ġfrust rated
ĠM at
m et
ĠMus ÃŃme
ĠtatÃŃn kovi
Ġko c
ĠrÅ¯Å¾ ovÃ©
Ġmess y
Ġstar Ã©ho
Ġpomoh li
Ġmat ch
Ġb urn
Ã© r
Ġk ÅĻ
O n
ter ed
Ġbarev nÃ©
Ġmr k
Ġg un
Äį kovi
Ġp in
ĠAnd y
Ġmu ff
ĠmÄĽk kÃ©
pil lar
Ġbr idge
oh u
ĠVy p
ĠnervÃ³z nÃŃ
ĠOtev ÅĻel
icho t
Ġt lu
Ġvz ali
Ġz ÃŃtra
Ġlo ck
Ġt ick
Ġfe ar
Ġgrou p
k Ã¡m
Ġg rumpy
ĠRod ina
Ġkiss ed
ĠZn ovu
Ġdr Å¾ÃŃ
Ġso ld
Ġg ate
Ġfe ed
e y
Ġnarozen in
ĠnÄĽ koho
Ġtak ovÃ¡
Ġso l
ĠnÄĽjak Ã½
ĠsnÄĽd la
Ġsladko sti
ĠzpÃŃv ali
Ġv ar
Ġpo or
Ġe xt
Ġrod inÄĽ
Ġc viÄį
Ġtajem stvÃŃ
Ġgather ed
Ġh ang
Ġvy ÅĻe
ov aÄį
Ġcir c
The re
ad ÃŃ
ĠkbelÃŃ k
Ġu vol
k no
Ġli f
ĠvzruÅ¡ujÃŃ cÃŃ
Å¯z ku
Ġkv Å¯li
he v
Ġkreat ivnÃŃ
Ġm ÅĪ
ĠhÅĻi Å¡tÄĽ
ĠC el
Ġze b
Ġes c
Ġpanen ka
Ġcat er
Ġcater pillar
ĠUkÃ¡z ala
Ġm en
ĠsuÅ¡en ku
Ġfla g
M aminka
ĠÅ¾ ena
ĠÅ¾lut Ã©
id dle
ĠbÄĽ hat
Ġjist Ã½
Ġtep le
Ġw is
Ġdot Ã½
Ġpo chod
Ġyour self
ĠÄį et
ĠkvÄĽt ina
Ġnes ly
iss ors
ĠzaÄįal y
A my
Å¡ nÄĽ
ĠnÃ¡klaÄı Ã¡
ĠdÅ¾ us
an ÄĽ
Ġansw ered
Ġnast al
rost ÅĻed
ĠNa Å¡la
ĠÅ½ Ã¡
Ġvy Å¡
i ze
Ġc ries
m m
ĠPoÅ¾Ã¡d ala
A re
Ġof ten
ĠBrow nie
ĠZ astav
Ġsm Ã¡l
Ġwe ek
ĠtrÃ¡v y
ĠSoph ie
Äį em
Ġr us
p rve
Ġvyp rÃ¡v
Ġzdvo ÅĻil
Ġz lep
k ne
Ġlaska vÃŃ
Ġtra p
Ġu g
ĠSnaÅ¾ ÃŃ
ĠOb lÃ©
Ġche st
Ġup ÅĻÃŃm
Ġsku p
lo Å¾ÃŃ
ĠNecht ÄĽli
Ġv st
pat rnÄĽ
sel ves
Ġprac oval
Ġk ot
ĠNau Äįila
p ack
ĠH o
Ġho pping
Ġstar at
Ġs en
flow er
Ġsc issors
Ġad m
ĠU p
Ġobjev ovala
Ġte ars
A n
ĠLe e
Ġf ill
Ġhloup Ã½
Ġobjev oval
ĠobÃ½va cÃŃm
Ġspou sta
S orry
V id
Ġs al
vid ÃŃ
Ġkter Ã½m
S ue
ĠD ost
nÃ¡ sled
Ã¡ ni
Ġjezd it
Ġtla p
ĠslÃŃb ila
Ġug ly
Ġv on
Ġmum my
Ġnau Äįili
ĠÅ¡pat nÃ©ho
Ġz vÄĽt
. .
Ġk ru
Ġsly Å¡ÃŃ
ĠnabÃŃ d
Ġmo ÅĻe
Ġc and
T ady
ĠM y
ens ive
ro t
ĠÅ¾lut Ã½
ĠpÅĻid at
ĠkÅĻiÄį el
ĠpÅĻ Ã¡nÃŃ
ĠrybnÃŃ ku
ci ent
Ġvo la
Ġta j
Å¡Å¥ ast
Ġde er
il led
ĠjejÃŃ ho
Ġps ovi
Sp ot
Ġexcit ement
Ġsled ovala
um ber
il li
ĠD ÄĽti
Ġscho p
ĠG o
Ġexp ensive
Ġwork ing
la x
Ġmon st
Ġm iddle
Ġc i
im i
ĠD ÄĽkuji
Ġsa ved
Ġbo ss
Ġzap ad
Ġtak en
Ġobjev ila
W ho
ĠdÄĽt ÃŃ
Ġom luvit
Ġdve ÅĻÃŃ
ĠosamÄĽl Ã½
ly ing
Ġkach na
Ġkoup el
Ġv al
Ġne ob
Ġvy Äįist
ĠhoupaÄį ku
ĠdÄĽla jÃŃ
Ġzam Ã¡vala
Ġt ane
enÄĽ jÅ¡ÃŃ
ast o
Ġze Äı
ĠÄįlovÄĽ k
Ġtru e
j et
ĠbabiÄį ku
ĠpouÅ¾ÃŃv at
pe ci
Ġro hu
Ġsp ace
Ġext ra
ĠtatÃŃn ka
Ã¡ ly
Ġwag ged
Ġst Ã¡t
ÄĽl ÃŃ
Ġmin ci
Ġple ased
j el
ĠBav ÃŃ
ĠZ as
Ġlo Å¾
Ġc rown
Ġsly Å¡el
Ġobjet ÃŃ
Ġone s
and a
Ġs koÄįil
Ġbot t
ĠsnaÅ¾ ili
ĠZ ak
Ġdruh ou
Ġsp end
Ġre lax
ĠRoz hlÃ©dla
ĠE nd
Ġztrat il
e ared
ĠTweet ie
ĠNe vÄĽdÄĽl
r ink
Ã© st
Ġh a
Ġbor ing
?" .
Ġza ch
Ġpick s
ĠlÃ¡ hev
j u
Ġm l
Ġv ase
Ġkor un
Ġrozbit Ã©
ĠudÄĽl Ã¡
ĠvytÃ¡ hla
Ġd Ã¡ma
Ġzavrt ÄĽl
ĠN elÃŃ
Ġask ing
Ġdes ig
zd ob
ĠN ed
ĠobÃ½va cÃŃho
bo dy
Ġryb nÃŃk
ak t
Ġdo vo
h Ã¡
Ġin t
ĠJ erry
ĠPÅĻe mÃ½Å¡le
ĠF ar
Ġos pal
Ġt ie
ĠsnÄĽ hu
ad ili
S t
Ġst ÅĻÃŃd
ĠzvÄĽdav ÃŃ
Ġslune ÄįnÃ©ho
ĠzpÃŃv ala
Ġbru sh
Ġsobe ck
ÅĻ Ã¡te
ĠdÄĽ de
ĠN ap
Ġveget ables
Ġcel Ã©m
Ġgigg led
ĠN at
Ġmed ic
Ġpo bÃŃ
ĠjejÃŃ m
peci ally
Ġzkla m
ĠB et
ĠZaÄį ali
Ġvla j
Ġta Å¡ky
ĠPok raÄį
Ġnej ob
The ir
ĠÅ¡pinav Ã©
Ġmist ake
ĠtlaÄįÃŃt ko
un t
Ġkach ny
ĠT v
Ġslu nÃŃ
ÅĻiÄį el
Ġzavola la
ĠpÅĻines la
uje Å¡
Ġc age
ra vÃŃ
ĠÅł tÄĽ
Ġt ig
Ġnejob lÃŃb
Ġc ap
Ġchle ba
Ġsug ar
Ġget s
chÃ¡z et
ÅĻ ÃŃt
ĠVÅ¡ im
Ġstu ff
ĠPoÅ¾Ã¡d al
Ġp as
Ġcom fortable
ĠdÄĽ kuji
c era
ĠChla peÄįek
ĠVykÅĻi kla
Ġpack ed
Ġzmi zel
ud u
Ġbou ÅĻe
ĠpÄĽk nÃ½
ĠS kÃ¡
ĠTak y
Ġes pecially
ĠCest ou
ĠvÄĽ dÄĽli
Ġdan cing
ĠA uto
Ġsklen ici
op la
k am
Ġclo wn
ĠO patrnÄĽ
Ġn umber
Ġlesk lou
ĠhÃ¡d at
ĠkÅĻiÄį ela
Ġdoraz il
N a
sÃŃ c
Ġsi ght
Ġf is
Ġk ry
Ġpre ss
Ġzastav ila
lo g
ĠhnÃŃzd o
Ġkn ight
Ġw ip
ov nÃŃ
Å¾ ovat
ĠT at
Ġfruit s
ĠT a
Ġfun g
Ġsur f
in ess
ĠAn nÄĽ
ĠvÃ½ let
Ġd rum
Ġf ake
ĠpÄĽk nÃ©
Ġnech ce
Ġbo dy
ro c
Ġegg s
ĠpolÅ¡tÃ¡ ÅĻ
ĠVz ali
Ġp ru
Ġh am
n ali
hlu bo
hlubo ka
ĠpÅĻe stala
ĠVÅ¡ech ny
Ġ lying
ob od
ĠÄįek al
Ben e
Ġvz nÃ¡
Ġla b
ĠÅ½ il
ĠkrÃ¡lÃŃ ka
Ġm ince
Ġdo d
ĠLe v
ĠZ vÃŃ
ĠlÃ¡ s
Ġunav enÃŃ
os au
bÄĽ hli
Ġdist ance
Ġst ÅĻe
Ġpo Äįkat
ro r
Ġprac ovat
Ġru ky
ĠudÄĽla lo
Ġg lue
ĠJ u
Ġwalk s
ĠS te
Ġkres lit
Ġmedic ine
Ġvy kou
Ġku lat
Ġsla v
Ġstar ou
Ġj isk
R e
Ġspla shed
ech la
J istÄĽ
Ġroz es
Ġjedn om
ĠÅ½Ã¡ ba
Ġb ake
Ġv alu
ĠG race
Ġmy Å¡ka
ĠÅĻÃŃ kali
Ġ ent
Ġsweet ie
ĠjÃ¡s ali
Ġbo ne
Ġtw ist
ĠzpÃŃv al
Ġg or
Ġprobud il
ĠmÄĽk kÃ½
Ġmov ing
Ġdraw ing
ĠÄįist Ã½
ra g
ĠnelÃŃ bilo
Ġhrom adu
Ġdisapp eared
ag ed
Ġmis ku
ĠslÃŃb il
av nat
ĠSÃ¡ ro
ĠMal Ã¡
op ard
ĠUdÄĽla li
Ġsmel ly
Ġaby s
Ġode Å¡la
ĠbazÃ© nu
M e
Ġel der
ĠL ittle
Ġchan ge
ĠskÃ¡ kali
Ġle ad
ĠpÅĻ im
Ġbec ome
Ġle mon
ĠkÅĻÃŃd ly
Ġbar vu
Ġpi rÃ¡t
Ġfeather s
Ġp ep
ĠoÄį ima
ĠUkÃ¡z al
Ġu vÃŃ
ĠvÃŃ la
Ġve Å¡la
Ġrozlou Äįili
Ġstran u
ĠlesklÃ© ho
ĠB unny
Ġlo se
ĠLi Å¡ka
ĠpapÃŃ ru
Ġz bytek
v et
Ġpra y
Ġu kli
Ġjas nÃ©
ĠnÃ¡p is
Ġli cked
Ġmom s
ĠnÃ¡ ram
ad a
ĠnÃ¡v Å¡tÄĽ
Ġcall ing
ĠKaÅ¾d Ã©
Ġje z
h ou
ĠmÃ¡m e
Ġdog s
Ġk ys
ĠI f
Ġsv ÃŃ
an i
Ġjak Ã©
rou s
ĠprochÃ¡ze li
Ġbath room
Ġpo kaÅ¾dÃ©
Ġplay ground
one k
stu p
ĠmÃ¡ my
Ã¡Ã¡ Ã¡Ã¡
y al
Ġt Ã½d
Ġla zy
Ġobrov skÃ½
Ġhla vÄĽ
Ġsc hod
Ġnaraz il
Ġro ar
Ġposlouch ala
Ġinc redi
d om
ĠpenÄĽ z
ĠLÃŃ bilo
isk ers
Ġelder ly
Ġk yt
Ġwe ak
Ġv ÃŃm
Ġm ir
Ġoce Ã¡nu
ro te
Ġfle xi
ĠD Ã¡vÃ¡
Ġc ity
ĠusmÃŃv al
Ġlo g
arod ÄĽj
Ġc ri
Ġhor n
Ġtent okrÃ¡t
i je
Ġfa le
ĠtÃ¡t ovi
ĠL illy
Ġcra wl
ĠFar mÃ¡ÅĻ
ĠP aul
Ġp ale
Ġk ar
v ami
Ġpr Å¯zku
K do
Ġsho ot
ĠBud dy
Ġroz bÄĽhla
Ġquest ions
Ġw rote
iv o
Ġal low
ĠlÅ¾ÃŃ ci
bb ed
Ġre f
ĠkamarÃ¡d ku
mys le
Ġd Ã©Å¡Å¥
ĠvÄĽt ru
Ġyour s
Ġy og
Ġkost kami
Ġcle ar
ĠCh vÃŃli
Ġvypad ajÃŃ
Ġno isy
Ġmir ror
Ġm ic
Ġoz val
la nd
ÄĽ jÅ¡ÃŃ
ĠJed en
om ed
Ġzap omnÄĽla
le j
Ġf ather
ĠT ohle
ĠP rac
ĠO to
Ġsug gest
Ġvysok Ã¡
Ġto rn
ĠÅĻek y
ĠvelkÃ© mu
Ġohrom en
Ġfig ure
ĠÅ¡Å¥ avnat
ĠHrÃ¡ ly
Ġdos Ã¡hnout
st ar
ce k
Ġsk ipped
Ġfar mÄĽ
Ġ ed
Ġf luffy
Ġv eterin
Ġbrou ka
ant nÃŃ
m oc
Ġzd Ã¡lo
Ġn ynÃŃ
l lie
ĠKÅĻiÄį ÃŃ
ĠPopad l
Ġz lo
ĠrÃ¡ na
ĠtÄĽÅ¾ kÃ¡
ĠVypad Ã¡
Ġjez era
ĠsvÄĽt a
ĠtÄĽÅ¾ kÃ½
ĠTat ÃŃnek
ĠNem ÄĽl
, âĢĿ
Ġig no
ĠM imi
ĠÃº ko
Ġmuse li
Ġa v
ĠD ÄĽ
Ġode jÃŃt
Ġkab el
Ġwhe el
Ġh ned
Ġho li
ĠA t
Ġra re
Ġprobud ila
Ġlo yal
Ġd ig
Ġfam ous
Ġstone s
Ġc it
ĠZ jist
Ġvz Ã¡c
Ġrozlou Äįila
ĠpÅĻi chÃ¡ze
ĠvÅ¡ ak
Ġru ined
Ġpra vid
z la
Ġpat ÅĻÃŃ
Ġsw ord
ĠusmÃŃv ajÃŃ
e c
Ġ ind
al Ã½
Ġr ich
ĠpoÅ¾Ã¡d at
Ġd vo
ĠskÃ¡ kala
Ġt ape
Ġt er
ĠÅĻek lo
Ġd rank
e ver
Ġmar ch
Å¾it ÄĽ
app y
ĠlÃŃb ila
Ġincredi ble
Ġposlouch al
Ġpo tÄĽ
ĠAn nie
Ġr id
Ġqu een
Ġchy bu
in ation
B u
Ġzr c
Ġche ck
ĠN es
Ġshow s
bu ji
Ġm ik
ĠS now
ho se
Ġad d
ĠS andy
Ġschov at
Ġju icy
Ġc ed
Ġso ap
ĠskvÄĽl ou
Ġt ag
Ġpos bÃŃ
krÃ¡ s
Ġne cÃŃt
Ġudr Å¾et
Ġu mÃŃ
Ġjed li
Ġc overed
Ġplo tu
ĠpodÄĽk ovali
ĠkrÃ¡lÃŃ Äįka
vÄĽÅĻit el
b at
ĠVz p
Ġrozlou Äįil
ĠbÄĽh ala
ĠÅ¡p er
Ġsa iled
ĠmalÃ© mu
Ġvysok Ã©
Ġd ish
Ġk lad
Ġde ku
Ġa w
Ġball s
ĠdÅ¾ ung
Ġpot kal
iÄį ky
p es
Ġani Å¾
Ġte am
Ġsk lÃ¡d
ĠH enry
Ġd Ã¡m
Ġli ve
ĠbabiÄį ce
Ġste ak
ĠnejoblÃŃb enÄĽjÅ¡ÃŃ
os ie
ĠChar lie
Ġp Å¯v
Ġdisc overed
ĠpÅĻedstÃŃ rali
Ġdec ide
Ġo by
Ġsed ÃŃ
Ġme asure
Ġreali sed
Ġvyt r
ĠpovÃŃd ali
ĠUdÄĽla l
ĠVÄĽ dÄĽli
m out
Ġpil ot
Ġs lov
Ġd enÃŃ
Ġvyb rat
ĠJ ess
Ġzap omnÄĽl
ĠU kaz
Ġsw an
Ġneed s
s it
ĠpÅĻe mÃ½Å¡
ĠkrÃ¡s nÃ©ho
ĠNech ce
Ġpla v
Ġsil nÃ©
Ġbor row
Ġprince z
Ġco ins
Ġpozor nÄĽ
ĠVel kÃ½
ĠÅĻe ce
Ġkdy koliv
ĠhnÄĽd Ã½
ĠkÅĻiÄį et
ust ÃŃ
Ġpo loÅ¾il
ÅĻat a
Ġdo vol
Ġstra w
Ġcont ent
Ġchod it
i o
Ġnoh u
Ġuk lÃŃz
ĠzvÃŃÅĻat y
Ġvrcho lu
ĠpÅĻipraven Ã¡
ĠpÅĻines l
Ġbran ches
ĠmÃŃ Äįe
Ġk art
Ġmo ÅĻi
Ġclean ed
ĠSÃ¡ ru
ĠoblÃ© kla
Ġnep ÅĻe
Hel p
Ġpozd rav
Ġf ine
Ġdve ÅĻÃŃm
as ing
Ġsp ÅĻÃ¡te
ĠB o
at ely
Ġtow el
ĠL iz
Ġned ot
ĠMus ÃŃÅ¡
ĠkÅĻe h
Ġned ost
Ġdvo ÅĻe
Ġbo ys
Ġzam yslela
Ġu b
P ÅĻe
lou chÃ¡
Ġbo ard
tro lov
ĠvystraÅ¡en Ã¡
Ġdob ÄĽ
Ġsm ÄĽjÃŃ
li v
ĠbalÃ³ nek
Ã¡d o
Å¡ ly
Ġp it
ÄĽ nÃŃ
W ell
mÃ¡ Äį
ĠJ ednou
ĠdÄĽla li
Ġbala nce
Ġtig er
a h
Ġvyro b
Ġvytvo ÅĻit
u rous
o ÅĻ
ĠL u
Ġchick en
Ġb arn
Ġh al
Ġadvent urous
Ġpe v
Ġdiff ic
ÄĽ nou
ĠK ate
N ech
Ġey e
ĠMil lie
Ġuni ver
Ġj oke
Ġoff ered
ry chle
Ġzas mÃ¡li
Ġvy Å¡el
Ġmaz lÃŃ
Ġbu bbles
Ġkla cek
Ġko lik
ve st
Ġm Ã½d
Ġsed ÄĽla
ĠNevÄĽ dÄĽli
ĠK am
ĠVe ver
Ġod ved
Ġnej rychle
Ġlif ted
Ġtlu st
N enÃŃ
ut Ã¡le
Ġcolour ful
ĠpÅĻÃŃ jem
ĠT ony
Ġb ase
Ġm ys
Ġnech ala
ĠP t
Ġn or
uj te
Ġzavrt ÄĽla
Ġnemoc nice
Ġth ick
ĠJak mile
ĠS m
Ġtan Äįit
Ġzkou m
mÄĽ jÃŃ
ĠDÃŃv ajÃŃ
m ent
Ã¡ Äį
ĠvydÄĽs ila
Ġorgan iz
n ov
Ġfro wn
Ġdiffic ult
Å¾ nÃ©
ad ÄĽ
Ġt urt
ĠO mlouvÃ¡m
M ummy
Y ay
ĠNau Äįil
Ġdin osau
Ġsv ÄĽ
Ġcheer ful
Ġp ump
Å¡ le
Ġdol ph
Ġorgan ized
ĠskvÄĽl Ã©
Ġst roj
Ġbott om
Ġzept at
ĠDouf ali
ach t
Ġpo bav
ĠKÅĻiÄį el
Ġhappen ing
al ous
Ġneu vÄĽÅĻitel
ĠWh iskers
ĠK ach
Ġuni que
a il
Ġth in
ĠnÃ¡sled oval
Ġt ank
Ġto Äįila
Ġs out
iÄį ka
Ġho se
ere c
Ġstr ome
Å¾ ky
ĠtÅĻ Ã¡st
u lar
Ġfot ku
Ġsl zy
Ġkni fe
Ġje alous
ĠpÅĻes nÄĽ
ĠHled al
ĠtrÃ¡v u
Ġs chrÃ¡
ĠBud u
Ġis land
Ġzp ÄĽ
Ġc iz
Ġhor ko
Ġhe al
Ġlep id
Ġtrav el
ĠPom alu
ech l
ĠF lo
Ġt et
ĠÅ¡pinav Ã½
Ġd Ã¡r
Ġv Äįel
Ġobej me
ara ge
ĠÅ¡Å¥ast nou
Ġj am
ĠZ pÃŃv
c il
Ġfri ght
Ġhran ÃŃm
ĠdÃ¡v ala
Ġcra w
Ġwe ird
Ġle opard
ra ci
Ġg arage
Ġman aged
rÃ¡ la
Ġzd i
Äı te
Ġtru b
bo hem
ĠDan ny
Ġhur ts
Ġh arm
ĠÅ¾lut ou
Ġgo lf
Ġve z
im ed
Ġpen cil
ĠO statnÃŃ
ĠMi u
o nd
Ġo ÅĻe
ĠpÅĻ in
Ġsk louz
Ġz Ã¡d
Ġp Ã¡
Å¡en ÃŃ
u ce
Ġtrou by
ĠÅ¡Å¥astnÃ½ m
Ġon ce
ĠvÄĽ Å¾e
Ã¡s led
Ġpo chop
kl Ã¡d
v Ã©ho
hlÃ©d li
Ġmagne t
ep er
Ġstran ÄĽ
p ort
ĠMu se
Ġlearn ing
Ġcraw led
Ġresp ekt
Ġoby Äįej
Ġzel enÃ½
Ġcir cle
Ġpla kala
Ġse ll
ĠB un
Ġm im
ĠtÄĽ lo
Ġzav ÅĻela
Ġber ries
Ġsay ing
Ġzt rac
Ġpla val
ĠzÃ¡bav nÃ½ch
re ady
Ġvej ce
ĠdÅ¯leÅ¾it ou
Ġkind ness
ĠskÅĻÃŃ ÅĪ
ĠJs me
od a
ĠMar ia
ĠPouÅ¾ ÃŃv
ut h
Ġhlad ovÃ½
Ġballo ons
Ġtou gh
ur ed
Ġotce m
ech an
Ġpl nÃ©
Ġg arÃ¡
ĠDÄĽla jÃŃ
dÄĽ le
Ġhru bÃ½
Ġch ase
Ġan g
ĠzÃ¡ pad
Ġmight y
Ġsh ake
Ġbal d
Ġpoin ting
Ġsqu ee
umb led
Ġz ne
Ġfav our
Ġjew el
Ġod mÄĽ
ĠkÅĻiÄį eli
Ġbrat ra
Ġpro vaz
ĠK oc
ĠÄįist Ã©
Ġa po
Ġna b
Ġdost ane
ĠnÄĽk omu
Ġbo ot
Ã¡le k
E m
g es
Ġloud er
ĠPopad la
Ġjesky nÄĽ
ĠutÃŃ kat
Ġod m
Ġst ane
ĠpÃŃ sk
er i
Ġad ded
ĠTent okrÃ¡t
un a
Ġsp un
Ġno sy
Ġf our
Ġbat ter
Ġblo k
Ġpen ny
ĠholÄįiÄį ce
Ġgu it
ĠVÅ¡ech no
ĠSt rom
Ġgu ess
im p
Ġhard er
Ġst od
ĠH arry
Ġal ready
Ġapo log
he ad
ĠÃºÅ¾as nÃ©ho
Ġed ge
hlÃŃÅ¾ el
ĠbÃ¡ je
Ġzlob ivÃ½
tÄĽ jÃŃ
al k
ĠUvÄĽdom il
c la
Ġc lu
Ġbrou k
ĠpÅĻ Ã¡la
Ġmil ujÃŃ
ĠR ed
Ġvyh rÃ¡t
le y
usu al
Ġn orm
Ġpoh led
Ġwh ale
er u
ĠzÃ¡bav nÄĽ
Ġd izzy
Ġli br
Ġli ft
Ġb ump
Ġblo kÅ¯
H ow
ĠNem ÄĽli
Ġfavour ite
Ġun usual
Ġr Ã½
Ġhot el
ĠÅ¡tÄĽ kal
Ġsuccess ful
Ġenjoy ing
Å¡t ÃŃ
Ġsk rom
Ġod pad
Ġpe ÅĻÃŃ
ĠsnÄĽhul Ã¡ka
ĠÄį ty
Ġzel enou
j dou
Ġb Ã¡t
il t
g ged
Ġsm oke
ĠtvÃ¡ ÅĻe
Ġhat s
Ġslo n
ÅĻ Ã¡s
on ged
Ġbel onged
Ġza b
Ġc ÃŃ
Ġchce te
Ġg race
ĠzvÄĽt Å¡
vo ÅĻenÃŃ
ĠTim ova
je li
Ġwra pped
Ġstraw ber
ĠT u
Ġac ce
Ġdu hu
Ġimpress ed
Ġd ar
ĠÅ¡iro kÃ½
Ġy ell
Ġmark et
ĠT ru
Ġtru cks
Ġzastav it
Ġgiv ing
li p
Ġg rown
Ġnev rÃ¡t
Ġre ce
ĠsÃŃ Å¥
ĠlÃŃb it
Ġko ÅĻ
Ġkou le
Ġdoz vÄĽ
Ġbrou ky
Ġk nÃŃ
Ġtep lo
Ġtr unk
Ġlaugh s
Ġnorm al
Ġbou nce
ĠpÅĻÃŃte li
ĠK one
Ġkres lila
Ġhon ÄĽnou
omen e
ĠUsmÃŃv Ã¡
Ġsm Ã¡t
ĠptÃ¡k Å¯
Ġg rand
chÃ¡ze li
ĠodpoÄįin out
em u
Ġlet ÄĽt
!" .
Ġu Äį
Ġe ars
er an
Ġprod avaÄį
illi ant
Ġguit ar
ĠM ot
Ġloud ly
Ġusly Å¡ÃŃ
Ġhe ro
ĠpyÅ¡ nÃŃ
Ġrozzlob enÃ½
ĠD ali
Ġsm al
aned louho
ĠzÃ¡ h
ĠZ anedlouho
Ġve liko
Ġban ana
Ġignor ant
H ere
Ġu va
Ġpot rav
Ġbox es
Ġok no
ĠKoc our
Ġproud ly
Ġturt le
Ġboss y
n ilo
Ġjesky ni
Ġsu nd
ĠdÃ¡l ce
Ġg ra
ĠmÃŃst nost
Ġc ab
Ġbr illiant
ok oli
ĠvÄĽ tev
Ġsc are
ĠPtÃ¡ Äįek
Ġvy lezl
Ġdom Ã¡
Ġcirc les
Ġter ri
Ġves nici
ĠuÅ¾ÃŃv ali
Ġcho ose
Ġob jÃŃm
ĠkoÅ¡ÃŃ k
ĠpeÄį livÄĽ
Ġbrother s
ĠmedvÃŃd ek
Ġpro nÃ¡sled
Ġwhis p
ĠdÅ¾ung li
ĠVever ka
Ġdream ed
Ġagain st
T en
aÄį ku
Ġesc ape
Ġpov z
ĠM ysleli
Ġpos lu
Å¾ u
ĠPom Ã¡h
Ġtep lÃ½
al ho
Ne vÃŃm
Ġinvit ed
Ġgo at
ĠK at
Ġsk in
A ch
Ġb on
Ġkon ÄĽ
ĠnÃ¡sled ovala
ĠÅ¡ko le
Ġbird ie
Ġhelp s
p okoj
ĠK dy
Ġhr nec
Ġcomp et
Ġj ack
Ġzel enÃ¡
ĠL o
ĠpotÅĻeb oval
ĠpomÃ¡h al
Ġodnes l
Ġlas er
Ġskon Äįila
Ġuni f
ku jÃŃ
Ġs lep
m alo
Ġsu it
Ġut r
Ġfright ened
Ġsil nici
Ġklu k
Ġpain ting
Ġmean s
ĠN Ã¡sled
Ġbala n
Ġt ma
Ġste p
Ġz lÃ¡
ĠTo lik
Ġoko lÃŃ
Ġkoc our
oz a
ĠvytÃ¡ hl
Ġjem nÃ½
Ġfla sh
Ġst ream
ĠS h
Ġod va
ĠJack ovi
Ġv Ã½t
ĠdÃ¡v al
f ast
Ġd epend
Ġsaf ely
Ġsli pped
Ġhol ka
ĠP ap
bb orn
Ġbutt ons
Ġpo hov
Ġvzd Ã¡t
ĠÄį asto
Ġot ci
u la
ĠÄį t
Ġhou pat
Ġstu bborn
Ġp Å¯
h ajÃŃ
ĠV oda
ĠB a
mlouv ajÃŃ
Ġsne e
oli sh
d rav
Ġneb Ã¡la
s es
Ġcray on
ĠbÃŃ lÃ½
Ġcar t
Ġkus y
Ġsed ÄĽl
Ġdoraz ila
Vy pad
Ġs ova
Ġvy nd
Ġwall s
Ġan cient
Ġcab in
Ġw ake
Ġvalu able
Ġbreak fast
Ġhapp iness
Ġstu dy
Ġohrom ena
ed ient
r Äįil
Ġpom eran
ĠNevÄĽ dÄĽla
Ġzeb ra
ĠpÅ¯j deme
Ġs ni
Ġtan Äįila
Ġbon b
Ġcla y
ar u
Ġvide o
tt ing
Ġfo olish
Ġknow s
M ary
Ġnot ice
ĠkrÃ¡s nÃ½ch
Ġvzp omÃŃn
ak ed
ĠucÃŃt il
Ġdeli c
Ġgrace ful
Ġfall s
Ġtan c
Ġvy bÄĽhla
ovÃŃ d
Ġst ri
Ġfr idge
ĠsbÃŃ rat
sk Ã©ho
Ġ lÃŃz
okoli v
Ġtvrd ohla
Ġlet ad
Ġbar vami
Ġjedn Ã©
Ġh rdÄĽ
ĠPo loÅ¾ila
at ing
ĠÅ¡ Ã¡lek
Ġm op
Ġv Äįela
Ġnic ely
A u
ĠÅ¾Ã¡d nÃ½
Ġm em
Ġk alho
Ġskon Äįil
Ġrozb ÃŃt
Ġf at
Ġnech ci
Ġsh ape
Ġdesig n
n ky
Ġfi er
ĠbanÃ¡ n
Ġmov ie
ĠrodiÄį Å¯m
f ou
Ġsv obod
Ġc udd
Ġup ad
k s
Ġna h
ĠpÃŃsniÄį ku
Ġst al
Ġr ough
Ġsmut nÃ©
Ġc re
dÄĽle jme
Ġbarev nÃ½ch
s il
Ġdream s
Ġpohla dit
Ġt Ã½m
ĠNeby la
Ġpov zd
ĠveÄįÃŃ rek
il ov
ĠdÅ¾ b
ÃŃm o
ad o
Ġhous es
Ġcla p
ĠucÃŃt ila
ĠnÃ¡ lep
Ġsp l
Ġpo chut
Ġry tÃŃ
Ġztrat ila
ĠHod nÄĽ
Ġoff ice
Ġob edient
Ġdelic ate
Ġodnes la
Ġmok rÃ½
Ġnarozen iny
Ġg randpa
Ġjack et
ĠkrÃ¡s nÄĽ
c ou
Ġp lu
ĠS nÄĽd
ĠbÃŃ lÃ©
p rav
Ġzla to
Ġex cla
ĠkolÃ¡ Äįe
ĠUdÄĽla la
Ġtom ato
Ġves mÃŃ
Ġsuggest ed
Ġ icy
ĠT oday
ĠPo ÅĻÃ¡d
ĠnÃ¡ mi
Ġsal Ã¡t
Äį nÃŃk
Ġcompet it
Ġhrad u
Ġukli z
s ila
ot h
Ġwag on
Ġspin ning
Ġnor mÃ¡l
Ġzv on
Ġdo sp
ĠkterÃ½ mi
Ġsh ark
Ġneob vyk
Ġprst y
ra ÅĪ
Ġspat ÅĻil
Ġl va
ĠpÃŃs nÄĽ
ĠkrÃ¡ l
Ġde ad
Ġexcla imed
ÃŃ nÃ¡
ĠbuÄı te
ĠM ÄĽ
ĠKone ÄįnÄĽ
Ġkind s
Ġvys koÄįila
Ġwip ed
Ġmix ed
ra ge
ko p
Ġshell s
ĠrÅ¯Å¾ ovou
Ġcra ck
Ġode Å¡li
Ġc her
Ġuse ful
ag es
li ve
Ġpour ed
Ġmin er
Ġlight s
Ġz ob
Ġthought ful
Ġz nÃ¡m
Ġbole st
Ġc Ã¡
Ġlo cked
ÄįÃŃ st
Ġhod il
Ġz lat
Ġtool s
gg ie
Ġsound ed
Ã¡te k
je la
ĠJ ames
ĠÅ¡ ly
Ġosam ÄĽlÃ¡
re en
Ġmok rÃ©
Ġa unt
ĠzvÃŃÅĻat Å¯m
Ġrozzlob enÃ¡
Ġt uto
Ġk re
PÅĻe staÅĪ
Ġst ove
ĠodpoÄį ÃŃv
nÃŃ ho
Ġexplo red
ĠdÃŃv ku
Ġsn ugg
ĠCel Ã½
Ġexcited ly
w ards
Ġku f
Ġf rag
c he
y ch
Ġsqu ash
he never
ĠpÅĻ ÃŃmo
Ġjist Ã¡
Ġt le
Ġplay ful
ĠR osie
Ġzv lÃ¡d
ĠodvÃ¡Å¾ nÃ½
Ġs on
Ġk alu
Ġse b
Ġnoh ama
Ġfier ce
ĠrozruÅ¡en Ã¡
ov Ã½ch
Ġt imes
Ġhlas em
Ġkouzel nÃ½
Ġjin ak
Ġsh adow
Ġpiz zu
ĠpÅĻe ÄįÃŃst
Ġro se
Ġbag s
Ġneby li
Ġpam l
ĠprovÃ¡z ek
ĠsnÃŃ d
Ġfou ntain
Ġku li
ent ion
ĠnemÅ¯Å¾e Å¡
v or
Ġjed ine
Ġc am
Ġslune Äį
ust ili
Ġrozb il
h ile
Å¡ kod
Ġho lub
Ġun lo
on tÃ¡
ĠvdÄĽ ÄįnÃŃ
Ġpohyb ovat
Ġbo jÃŃ
Å¾ il
Ġmod r
ĠkÅĻ ovÃŃ
Ġlo w
ÅĻ Ã¡
Ġthem selves
Ġpan ovaÄį
ĠnÅ¯Å¾ ky
z v
Ġst umbled
Ġrozb ila
Ġp ed
Ġbus hes
Å¯ ru
led ne
Ġne Å¡Å¥ast
z zy
ĠC ar
Ġok ra
Ġf Ã©r
Ġm ali
an ut
Ġshow ing
Ġc over
Ġvever ku
Ġrychle jÅ¡ÃŃ
Ġspo iled
ĠBÄĽ Å¾
J en
Ġup rostÅĻed
Ġab ove
ĠpÅĻe v
Ġst up
Ġsmal ler
ars h
Ġfing ers
Ġzne pokoj
Ġost rÃ©
Ġboj ovat
Ġres c
ĠM e
j ed
Ġind epend
Ġdot kla
ĠmÅĪ am
ĠÅĻÃŃ kal
ep tÃ¡
ĠUvÄĽdom ila
ĠpÅ¯j Äįit
Ġzap la
M yslÃŃ
Ġw itch
Ġch ir
ĠprÅ¯zku m
ĠPr ince
ĠzachrÃ¡ nit
Ġperf orm
ĠObj al
Ġnaho ÅĻe
Ã¡h u
Ġfrag ile
Ġd ough
ĠPÅĻ Ã¡tel
Ġdra ho
ÄĽ ch
ĠsnÄĽd li
Ġdepend able
Ġpi ano
ĠRoz um
ĠMÃŃ sto
art h
Ġpe j
Ġra ced
Ġne vidÄĽli
o op
g en
Ġjezer o
Ġra j
Ġen g
Ġslo vo
Ġpost ar
ĠÅ¾Ã¡ bu
Dob rÃ¡
ĠkaÅ¾d Ã©
Ġro de
Å¯ ÅĪ
Ġhel met
ĠpouÅ¾ il
orm ous
Ġro of
Äį ilo
Ã¡l ku
Ġnev r
Ġnez Ã¡v
Ġprin t
Ġsc rat
ĠJmen oval
Ġbright ly
Ġcest y
z lo
Ġpract ice
ĠÄįÃŃ st
Ġrozpla kal
Ġzav ÅĻel
Ġzelen inu
Ġclo ck
Ġhor kÃ©
Ġneb Ã¡l
Ġlo l
Ġt m
Ġt ur
Ġdelight ed
Ġadm ired
ĠnÃ¡ hle
b led
Ġobjev ovÃ¡nÃŃ
Ġen ormous
Ġbu ilt
Ġla w
Ġho op
Ġde chu
Ġnet r
Ġcoun ted
Ġkick ed
Ġty g
Ġja zy
Ġsw e
let ÄĽla
Ġchan ged
ĠV yt
Ġch am
ĠPo kaÅ¾dÃ©
Ġway s
Ġsho ne
Ġkou li
Ġza bali
ĠvÄĽt ve
Pom oc
Ġr at
Ġs ink
edn ÃŃ
ĠrÅ¯Å¾ ovÃ½
Ġtw ig
Ġst ala
Ġlaskav ost
Ġp ala
ĠH la
Ġremind ed
ĠJ acka
Ġac orn
se ch
Ġham mer
Ġindepend ent
rÃ¡ b
Ġbit ter
ĠM ay
Ġpoh Ã¡d
Ġsni ff
ĠHled ala
Ġtru mp
Ġjak Ã½
Ã¡h ne
Ġzm en
mb ol
Ġbl Ã¡t
ĠP etr
Ġtrump et
Ġen cou
ĠÅ¾ el
ĠnezÃ¡v is
Ġjak ou
Ġm rt
Ġus ing
Ġhand ed
ĠÅ¡p l
rel la
Ġrozpla kala
Ġrych lÃ¡
Ġvzd Ã¡l
Ġwhisp ered
Ġfot bal
mb rella
ĠoblÃŃb enÃ¡
Ġced uli
te st
Ġsa uce
Ġcho se
om y
Ġm echan
ĠÅ¡ t
Ġdruh Ã©mu
Ġnev ÃŃm
Ġu mbrella
Ġco ne
z ko
ĠMr s
Ġz ad
Ġsol ve
ĠpÅĻipoj it
Ġstrong er
Ġjin ou
Ġdr Å¾eli
lip op
Ġste al
Ġj olly
ĠYou r
ĠzÅ¯st ali
ĠPo skak
Ġtun n
ĠH rajÃŃ
Ġse rious
kon trolov
Ġbe es
d Ã¡lo
c en
Ġbe ak
Ġprov in
Ġc vr
ch ou
ĠVe zme
Ġpar rot
Ġstret ch
Ġo w
ĠVypad al
Ġt ummy
Ġorigin al
Ġbra ce
kno wn
ĠZ oe
Ġsp or
Ġterri ble
O mlouvÃ¡me
Ġautob us
Ġst Ã¡l
ĠÅĺ idiÄį
Ġlol lipop
Ġlou ce
Ġsm ÃŃch
Ġboat s
Ġskon Äįili
Ġpain ted
Ġpro st
te c
Ġallow ed
Ġsled ovat
A lice
ce t
z or
Ġen v
b ud
Ġd rÃ¡
c el
ĠMa ggie
Ġhair y
ĠnÃ¡pis em
Ġvy bÄĽhl
Ġz ast
Ġc okoliv
Ġdo ve
kajÃŃ cÃŃ
elo pe
Ġsled oval
Ġclean ing
Ġp anda
Ġf ontÃ¡
ĠsvÄĽt la
Ġtvar Å¯
li able
ĠzÃ¡bav u
Ġod st
ĠÅ¾Ã¡d nou
ur ing
ĠskÅĻÃŃ nÄĽ
Ġun known
ĠvÄĽt viÄį
Ġpoch out
ĠPÅĻ ines
ĠsdÃŃ lenÃŃ
z ie
Ġk oh
ĠFred dy
Ġhloup Ã©
Ġfind ing
ĠDal Å¡ÃŃ
Ġjo ined
Ġbonb Ã³
Ġgas ped
Ġgu ard
Ġle aving
n alo
Ġst a
Ġwra p
k ro
hlÃŃ Å¾ela
Ġaut u
Ġstru gg
Ġd ust
Ġpot ato
Ġbobu le
Ã¡nÃŃ m
Ġpo vÄĽ
Ġlaska vÃ¡
Ġdok tor
Ġmet al
v Ã¡d
ĠW ill
ĠzÃ¡bav nÃ©ho
Ġsa lad
ĠhvÄĽzd a
Ġbe an
Ġko b
ie w
Ġpick ing
Ġpump kin
Ġbal ÃŃ
ĠtÅĻÃŃlet Ã½
Ġmuff in
Ġspokoj enÄĽ
Ġf re
ved li
ĠÅ¾ al
S ee
rom Ã¡
in ary
Ġm Ã¡te
Ã¡h li
Ġclu m
Ġy et
Ġti Å¡e
Ġst rÃ½
Ġpla st
Ġsy mbol
Å¡ nÃ¡
Bu Äı
st roj
ĠCla ra
Ġd elf
ĠpolÃŃb ila
ĠM Ã¡te
ĠÄįe kali
ĠD ÄĽlÃ¡
ĠPodÄĽk ovali
ĠJ an
ale nd
ĠMil ujeme
Ġde Å¡tnÃŃ
Ġhal f
ĠnÃ¡dher nÃ©
ĠO m
Ġdolph in
ro be
Ġre liable
Ġg em
Ġv iew
z dÄĽ
Ġv oj
lez li
ter n
Ġoprav d
Ġu r
Ġdoes n
ĠNÄĽk terÃ©
Ġdiam ond
s hing
Ġt hose
gu lar
ĠZvÃŃ ÅĻata
ĠslunÃŃ Äįku
Ġvol Ã¡
Ġfor th
tt i
Ġd ych
ĠoblÃŃb en
Ġmok rÃ¡
he tti
ag hetti
Ġnov Ã½mi
Ġno ÄįnÃŃ
ĠP anÃŃ
Ġhot ovÃ©
ĠzdÅĻÃŃm nout
ĠSt ÅĻÃŃd
Ġad vice
ĠS lÃŃb
st iv
Ġj ok
Å¡el o
g ers
ĠT am
Ġh ay
Äį nou
Ġnem us
Ġf lu
Ġroztomil Ã©
Ġro v
ĠÄįÃ¡ st
Ġmoder n
Ġbar ber
Ġbr am
ĠpotÅĻebu jÃŃ
c om
Ġthink ing
ĠP odÃŃvej
rov at
ĠÅ¾ Ã¡r
ĠsdÃŃ le
Ġpo kÃ½v
Ġrespekt ovat
Ġrec ord
Ġhold s
Ġpir ate
Ġre gular
Ġhod nÃŃ
ĠbÅĻe hu
ĠM oc
Ġy arn
Ġst at
ĠprÃ¡ vÄĽ
Ġzkus ÃŃ
Ġpoh nout
Ġcreat e
ĠDouf ala
Ġpat ch
at Ã½
ĠJ oh
Ġclum sy
Ġsleep ing
Ġsr st
ĠdÃ¡v at
ĠvzruÅ¡en ÄĽ
ĠG randpa
Ġzak op
zÃŃ ch
Ġstup id
Ġnena Å¡el
Ġv Äį
e b
Ġsou Äį
Ġpre p
il ty
Ġnos il
Ġsearch ing
Äį nost
ĠÃº tes
Ġst airs
Ġrus hed
Ġhloup Ã¡
Ġwe althy
ĠproblÃ© my
d ce
Å¯Å¯ Å¯Å¯
ĠW henever
Ġrozbit Ã½
Ġgu ilty
Ġrostl iny
ĠkamarÃ¡d ce
Ġtell ing
Ġpro jÃŃÅ¾
ĠhvÄĽzd u
Ġpe anut
Ġdraho kam
Ġche ap
Ġnej vÄĽt
Ġsp aghetti
Ġnej krÃ¡s
ÃŃt ko
Ġgo ose
gh ter
ĠÅ¡ÃŃ l
Ġd nÃŃ
Ġde Å¡ti
Ġnoh ou
Ġwo of
Ġdom ova
ind y
z et
Ġchlupat Ã½
Ġodhod la
ĠÅ¾ ÃŃ
i ed
O d
Äįit el
Ġlet adla
ĠÅ½ ila
R oz
Ġcomp ass
ĠkvÄĽtin ami
Ġkter Ã©ho
Ġeng ine
Ġbav ilo
Ġk rÃ©
Ġmonst rum
ĠZajÃŃ malo
u nder
ĠvÄĽt vi
Ġopen s
Ġradost i
Ġd ÅĻÃŃv
Ġdo dr
Ġobej mout
Ġar row
Å¡tÄĽ v
ĠLo Äı
Ġvys ko
Ġu star
Å¯Å¾e Å¡
Ġstrome ch
ĠpÅĻÃ¡tel stvÃŃ
Ġnezap omene
Ġmali Äį
Ġfe stiv
le tÃ¡
ĠodvÃ¡Å¾ nÃŃ
ĠkamarÃ¡d ovi
t r
ĠSnow y
Ġsqu are
ĠÅ¾ebÅĻÃŃ ku
D aisy
Ġbrat ÅĻi
Ġpop ular
ĠO ni
ĠblÃŃzko sti
i Å¡tÄĽ
Ġc ur
h ion
Ġminut Ã¡ch
Ġo mlouvajÃŃ
ri c
Ġth under
Ġpom Å¯Å¾u
ĠpÅĻist Ã¡l
ĠZav ola
ĠÄĮ e
Ġnarozenin Ã¡m
lÃ© b
Ġkni ha
ac hel
ĠÅ¡p a
ĠBe ar
J enny
ĠRoz bÄĽhl
ĠÅ¡pa get
Ġodm ÃŃt
m ÄĽt
Ġnech ut
Ġve Å¡el
Ġne op
Ġcam era
Ġbe et
h ip
Ġm ysleli
Ġsnad nÃ©
Ġcra zy
ĠuklÃŃz et
Ġang el
Ġmal Ã½m
hod il
Ġdri ving
roc od
Ġkoup ili
S bohem
ĠpÅĻed mÄĽt
Ġrych lÃ©
ĠnejkrÃ¡s nÄĽjÅ¡ÃŃ
ĠvÃ¡ Å¡
Ġshi ver
Ġwas hed
h as
Ġto Äįit
Ġth irst
Ġcarry ing
Ġst age
ĠÃº sta
ĠÄį ÃŃm
romÃ¡ Å¾d
tÃ¡ nÃŃ
Ġd cer
ĠzpÅ¯sob em
k alo
ĠTru e
Ġkob erec
Ġmiss ing
umb ers
Ġfar mu
ĠzaÄį ne
Ġspark led
Ġvel ry
Ġch ichot
Ġdu ll
Ġvl ny
Ġfriends hip
Ġtr uth
nes l
Ġseed s
ĠÅ¾ebÅĻÃŃ k
Ġvzdu ch
Ġflexi ble
Ġkamen Å¯
Ġkrab iÄįku
us i
Ġcom b
Ġdeli ver
Ġti ed
Ġosla vu
Ġpanen kou
Ġlibr ary
ĠmÄĽk kÃ¡
Ġst voÅĻenÃŃ
Ġimpress ive
Ġwand er
Ġme al
ĠpÅĻichÃ¡ze jÃŃcÃŃ
Ġo ÄįÃŃ
Ġcare less
Ġst ack
ho st
ke eper
ĠÅ¡pinav Ã¡
ĠÄįÃ¡ sti
ÅĻe m
ĠÄįty ÅĻi
f ish
G o
Ġp acka
Ġfre sh
Ġzv onek
Ġs loÅ¾
Ġnik de
ÅĻ ovat
am at
Ġimag ined
Ġshe l
Ġhla va
Ġpodiv nÃ½
Ġklouz aÄįku
Ġnat ure
Ġpers ist
Ġend ing
ĠMoh li
ĠÅĻek nou
Ġre ward
Ġdok to
Ġde stro
is ion
Ġhand le
ĠÅ¾al ud
ĠmÄĽ sta
Ġop era
ĠÅ¾vÃ½ ka
Ġpastel ky
ran e
Ġru bbed
Ġingredi ents
v on
ĠKach na
Ġva Å¡i
Ġdream ing
K de
Ġsouhlas ili
Ġb ill
Ã¡ ÅĻi
Ġh Ã½
ĠPo kud
Ġtm av
Ġdestro y
Ġsho cked
p ar
ĠÄįer nÃ½
Ġlo ad
Ġpri ze
ig ail
ĠkamarÃ¡d kou
Ġs udden
ĠOb jÃŃmÃ¡
a wn
Ġv i
Ġc rocod
ĠB ohu
Ġpat tern
okÃ¡z al
P ÅĻi
Ġt ab
ĠpÅ¯v ab
Ġpl nou
Ġd ru
ĠhoupaÄį ky
Ġch arm
ĠautÃŃ Äįkem
Ġsla bÃ½
ĠChce te
ĠvÄĽ cem
Ġzaslech la
ĠvÄĽ r
Ġpig e
Ġcompass ion
P Ã¡ni
Ġcest ou
Ben ny
ĠZ kou
Ġsem ÃŃn
Ġent h
en u
r ch
Ġu kÃ¡Å¾e
Ġst aÅĻec
Ġv race
ĠtÄĽ s
Ġflash light
Ġcomp le
ĠSÃ¡ ÅĻe
Ġprovin ile
c co
Ġsad ly
ĠkoÄį ce
Ġthirst y
ĠpÅĻi bÄĽhla
ĠpomÃ¡h Ã¡
Ġho ÅĻ
ĠDr ak
Ġ âĢ
Ġnav Å¡tÄĽv
it her
Ġst ÃŃ
Ġv Å¯z
Ġvychut nÃ¡
MyslÃŃ m
I f
Ġo zdob
an na
ĠÄį arodÄĽj
Ġk ov
Ġstran ger
ĠzranÄĽ nÃ½
ĠsmÄĽ je
Ġwhe els
kÃ¡ Å¾u
Ġrep air
ĠHled ali
Ġd cera
ĠMot Ã½l
Ġenth usi
ov Ã½mi
ĠzÃ¡ÅĻi vÃ©
Äį ÅĪ
ĠpÅĻÃŃ ro
ĠmÄĽ lo
Ġchov at
ĠzÃ¡bav nÃ¡
ĠpÅĻedstÃŃ rala
Ġread ing
Ġn umbers
an y
Ġear ly
ĠdenÃŃ k
Ġp ant
p u
Ġb rÃ¡t
Ġch at
Ġsed ÄĽt
Ġdisc over
Ġnaj deme
u nd
ra ct
Ġhun ter
Ġvyb rala
Ġnem Å¯Å¾u
Ġpeek ed
Ġrozt r
ĠkaÅ¾d Ã©mu
c ted
ĠkamarÃ¡d em
ÅĻ Ã¡p
Ġbutterf lies
ĠdÄĽ tem
Ġmail box
Ġch ud
Ġcry stal
ĠtÃ© to
Ġku ÅĻe
ĠÅ¡ tÃŃ
Ġmoh ly
Ġzas ek
Ġnejrychle ji
ĠU Äįitel
Ġknof lÃŃ
Ġp rÃ¡t
ĠL ook
Ġaut ÄĽ
Ġb icy
Ġmo ci
ie f
Ġdot kl
ĠSly Å¡ÃŃ
Ġsp illed
Ġschod ech
Ġku ku
ÃŃtÄĽ z
Ġnecht ÄĽli
Ġzak ÅĻiÄįel
Ġsou cit
Ġbrace let
Ġse Å¾
ĠpÅĻekvap eni
Ġkoup il
gg y
ĠnemÅ¯Å¾e me
lÃ¡d ÄĽ
ÅĻed u
ĠvyÄįist it
ĠoblÃŃb enÃ½
Ġjezer u
ĠDÃŃv al
Ġspokoj enÃŃ
Ġr ug
Ġme Äį
ĠpoÅ¡t ovnÃŃ
K dyÅ¾
ĠNemÅ¯Å¾e te
ĠtÄĽ st
ĠbalÃ³n ky
Ġz na
Ġstop s
Ġupad l
Nem Ã¡Å¡
Ġcho bot
ĠnormÃ¡l nÃŃ
Ġuvid ÃŃme
Ġzak lep
ust Ã¡le
Ġmal ÃŃ
Ġcomp ut
ĠTv rdÄĽ
ÃŃna jÃŃ
ĠPo stav
ĠPro to
Ġmil Ã©
Ġa head
ĠR uby
Ġdiam ant
Ġsp ring
Ġzaz pÃŃv
b ble
Å¡ ept
Ġan xi
Ġmlad Ã¡
Ġsor ts
ĠM ummy
Ġord er
Ġtow ers
Ġwr it
Ġhum ble
Ġnat Ã¡hla
Ġobje ct
ĠSnaÅ¾ ili
Ġb ent
ĠBud eme
Ġw ing
Ġwarn ed
ĠvÃ¡Å¾ nÄĽ
Å¡ nÃ©
Ġpen gu
Ġint el
ĠWh ile
ÃŃÃŃ ÃŃÃŃ
ĠÅ¡tÄĽ d
ast ic
Ġnaraz ila
Ġu Äįila
Ġsp oke
Ġe arth
ĠnejvÄĽt Å¡ÃŃ
Ġfa z
Ġwindow s
Ġpo w
Ġvy st
Ġov ce
Ġzmat enÃ½
Ġun com
ir led
Ġposkak ovala
Ġfas c
Ġzran it
ro p
bu la
ĠnÃ¡m oÅĻ
ĠkterÃ© m
Ġpla ced
ĠuspoÅĻÃ¡d at
ic hes
Ġo chrÃ¡
Ġtich Ã½
Ġuncom fortable
ĠBet sy
Ġnetr pÄĽli
Ġz hluboka
Ġrod iny
Ġbad ly
Ġmu Å¡le
ĠO llie
ĠsnÃŃd ani
pad lo
Ġd ni
Ġnap ravit
ĠnadÅ¡en Ã©
Ġanxi ous
Ġkalho ty
r ko
Ġzah rajÃŃ
Ġpo ran
Ġdokto rovi
Ġos ob
Ġsun flower
Ġvy lezla
ĠT ina
Ġslid es
ĠnÃ¡vÅ¡tÄĽ vu
ie st
Ġold er
chÃ¡ze la
ĠHrÃ¡ la
ĠMoh l
Ġsc ale
Ġbig gest
Ġj deme
ĠS mÄĽjÃŃ
Ġblo om
ĠMil oval
ĠpÅĻ Ã¡l
Ġla h
Ġkous nout
ĠostatnÃŃ ch
Ġpt ala
Ġflu te
Ġf lÃ©t
Ġspo j
ĠM illy
av id
Ġnev Å¡im
ĠvÃ½ chod
Ġzap lat
rad la
ĠtÄĽ sto
ĠvÃ½jime ÄįnÃ½
Ġsc oot
Ġgrow ing
Ġstat ue
Ġpr Å¯
Ġtvrd ou
m ed
la k
Ġko Äįky
O w
ĠpouÅ¾ ila
v alo
p et
Ġcoun ting
Ġcook ing
ik es
ĠÅ¾lut Ã¡
ĠzÃ¡vod it
Ġbeet le
ĠÅ¡ lo
ĠKÅĻiÄį eli
Ġsc at
Ġceleb rate
ic t
u Å¥
Ġtunn el
Ġdro p
f ung
Ġrem ain
Ġli z
ĠnÃ¡ pla
Ġsobeck Ã½
ĠnÃ¡dob u
Ġchyt ila
ĠsendviÄį e
Ġbu ll
Ġcen u
b our
Ġri bb
ĠholÄįiÄį ky
Ġco co
Ġ er
Ġdes k
Ġob jÃŃmajÃŃ
ĠpÅĻikyv ujÃŃ
ome ÅĪ
Ġm nÄĽ
Ġmo le
Ġsof a
Ġp ho
Ġkli du
Ġcup board
Ġtu Å¾ku
Ġsko ÅĻÃ¡p
Ġharm less
ĠP enny
Ġk ÅĻi
Ġfar mÃ¡
ĠVrÃ¡t ili
ĠzÃ¡m ek
Ġtv Ã©
ĠÄįokolÃ¡d u
bu z
ĠnÃ¡ ÅĻ
Ġru ÄįnÃŃk
Ġbeaut y
ĠJack u
ĠdÅ¾b Ã¡n
s me
ĠsprÃ¡v nÄĽ
ind e
ĠDouf ajÃŃ
ĠL il
Ġvid li
ĠpÅĻe Äįet
Ġvy letÄĽl
Ġpozorov ali
Ġpe ar
ce ch
or a
Ġval ue
om oc
ĠvÄĽ cech
ĠH ere
Ġslad kÃ¡
ĠpÅĻipraven i
Ġokam Å¾itÄĽ
Ġn urse
Ġde af
ĠdÃŃv ce
Ġm luvÃŃ
Ġzp oza
Ġpersist ent
ĠUs ly
Ġod ve
at es
Ġt ug
ĠÄįet la
W hile
Ġhun g
Ġne Å¡kod
Ġbe ep
Ġh ist
Ġtak ovÃ©
Ġsh ut
Ġcrocod ile
ĠdÄĽt mi
ĠvyÅĻe Å¡it
Ġke ÅĻ
Ġle h
Ġc rane
pad l
Ġjump s
Ġtra ck
ĠnÃ¡p omoc
Ġg host
Ġneposlouch ala
vÃ© st
Ġgif ted
Ġp Ã©
Ġz ub
Ġpo Å¾
Ġcharm ing
ĠpÅĻe staÅĪ
Vid ÃŃÅ¡
Ġre fused
Ġta xi
ĠG ive
lou zl
ĠdotÃ½ kat
Ġnak r
Ġnam es
Ġprac ovala
Å¾ ce
Ġcou rage
Ġb ul
ĠKdy koli
Ġum Ã½t
okÃ¡ Å¾e
Ġl Å¾
Ġpo ny
ro ve
Ġse r
Ġpik antnÃŃ
Ġy awn
ac hes
Ãº hel
Ġbram bor
Ġnapl nÄĽ
c ream
ĠmÄĽ sÃŃc
Ġf lour
top us
Ġna il
Ġne at
Ġzapad at
Ġra ven
ĠpotÅĻeb ovala
ĠHrÃ¡ l
Ġpamat ovat
su v
ĠpÅĻiblÃŃÅ¾ il
Ġcere al
Ġc urt
bo ok
ĠpodÄĽ lili
Ġsko Äįila
Ġotev ÅĻeli
Ġsandw iches
ĠvyÅ¡ pl
Ġpretend ing
Ġcurt ain
Ġkyt aru
ĠJ oy
Ġvz hlÃ©dl
Ġcol lar
ĠS led
Ġsnugg led
a id
ĠzÃ¡ suv
Ġtick et
Ġd ny
Ġord inary
ĠS dÃŃ
Ġjmen ujeÅ¡
ĠÅłtÄĽ nÄĽ
Ġst ÃŃn
ĠÅ¡Å¥astnÃ½ mi
Ġch asing
ved l
Ġneigh bour
Ġtvrd Ã©
k an
Ġspolu p
ĠVytÃ¡ hla
Ġne pat
Ġv raÅ¥
Q u
Ġvy ni
h room
ĠplÃ¡ Äįe
ĠPo ppy
Ġquest ion
h h
ĠUkaz uje
ĠpotÄĽ Å¡en
Ġtri ang
Ġod em
Ġk Ã½ch
Ġenv elope
ĠsnaÅ¾ it
Ġtr h
Ġdraw er
Ġknof lÃŃk
ĠBu zz
ol in
Ġmod el
Ã¡v u
ĠVÃŃ la
Ġcomput er
ĠlÃ© ky
Ġvyh rÃ¡l
Ġbill board
ĠkoÅ¡ÃŃ ku
Ġli vely
Ġst ation
Ġsto jÃŃ
ĠU te
jem nÄĽ
ĠvÅ¡ech nu
ĠnÃ¡klaÄıÃ¡ ky
ĠK rab
Ġru les
ĠR achel
Ġoc topus
Ġpla kal
bÄĽ h
Å¡ ilo
ub by
Ġroz ma
Ġmus et
Ġa Å¥
z es
Ġkot ÄĽ
j Å¡ÃŃm
ĠpoÄįÃŃt aÄį
ĠPÅĻÃ¡tel Ã©
Ġs hod
ĠdÄĽs ivÃ½
Ġglo omy
Ġcar to
ku p
Ġz kontrolov
ĠzÃ¡p as
Ġkouzel nÃ©
ĠnadÅ¡en ÄĽ
ĠkaÅ¾d Ã©ho
Ġintel ligent
Ġzah an
ar o
Ġm ay
Ġun cle
Ġspe ed
Å¡tÄĽ stÃŃ
ĠodpovÄĽ Äı
ĠVrÃ¡t il
ch la
ĠdÄĽs iv
Å¡ ce
Mus ÃŃme
ct ure
Ġnej prve
Ġdom y
Ġkr ku
Ġs is
ak a
Ġoto Äįil
Ġstar Ã©mu
Ġpacka ge
Ġsh aking
Ġvyd at
Ġw i
Ġex amin
Ġpod ÄĽlÃŃ
Ġn iÄį
Ġch lÃ©b
Ġu tÄĽ
Ġzahan b
ĠSt ali
Ġblue ber
Ġpar ade
ky t
Ġuvol nÄĽ
Ġneed le
ĠNe v
Ġmus hroom
Ġdokon Äįit
Ġmoud rÃ¡
Ġcreature s
Ġhod in
Ġvesel Ã½
ĠE ventually
Ġpho to
ĠP oh
ĠS k
ĠpodÄĽ lil
Ġtw irled
ĠjÃŃ zd
ĠpÅĻi bliÅ¾
Ġhur ry
Ġv lÃ¡
Ġbor Å¯v
ĠpoÄįÃŃt at
Ġprst en
av ran
Ġhor kÃ½
Ġv ajÃŃ
Ġre g
Ġvyd Ã¡val
Ġaut y
Ġsk ip
ĠnevÄĽ dÄĽli
ov anÃ¡
le k
ĠpÃŃsk ovi
er able
Ġob ru
Ġj able
ĠL ilo
Ġliz ard
Ġale rt
ĠMÃŃ Äį
ĠMoh ou
Ġvst Ã¡t
Ġsou sto
um mer
ĠPo loÅ¾il
Ġnast oup
g ust
Ġatt ract
ĠpÃŃ Å¡Å¥
Ġchan ce
Ġja zz
ĠSu nd
o by
ĠpÅĻÃŃ stav
Ġsold ier
Ġth ief
Ġsout ÄĽÅ¾
h ÅĪ
ĠzÃ¡bav nÄĽjÅ¡ÃŃ
ĠÃºtul nÃ©
Ġmis erable
Ġne Å¡lo
ou n
Ġin st
ĠVÅ¡ech na
ĠpÅĻÃŃÅ¡ era
Ġpep per
Ġsly Å¡et
ĠvÃ½ hled
Ġfire man
" ,
Ġoto Äįila
ich a
Ġpot kala
ĠtÅĻÃŃ letÃ¡
Ġk ÅĻÃŃ
Ġany where
Ġdis gust
Ġd ug
Ġob s
c ut
ĠtvÃ¡ ÅĻÃŃ
ĠKat ie
ĠÄĮ er
Ġbase ball
ĠzaneprÃ¡zdnÄĽ nÃ¡
Ġstra Å¡
la l
lÃŃ m
Ġvrt ÄĽl
ĠP an
Ġstav ÄĽt
ch lad
ĠpÃŃs ek
ĠdÃ¡v Ã¡
Ġco o
ĠvysvÄĽt lil
Ġse al
Ġod s
Ġlu x
co nd
ÅĻÃ¡ b
Ġres ist
ĠnÄĽ ÄįÃŃm
Ġnad Ã½ch
Ġs bali
Ġzkou Å¡el
ĠuÅ¾ ila
no stÃŃ
ĠZ Å¯
Ġkn ot
Ġpast a
ĠvÄĽt vÃŃ
Ġco p
ĠÃºÅ¾as nÃ½
ĠtÅĻ Ã¡s
Ġu zd
ĠÄį lun
Ġwis hes
Ġshe et
ĠkrÃ© m
p ÄĽt
Ġje ep
ne ch
Ġlahod nÃ½
at h
Ġband age
Ġtur key
ÅĻÃŃ k
Ġochut nat
Ġstick ers
ĠuÄį ite
Ġhelp less
Ġschov al
Ġboun ced
Ġdru hy
bu jÃŃ
e le
Ġsc reen
Ġin te
Ġre pe
ĠT la
Ġtr ash
ĠÄįÃŃ slo
Ġc amp
Ġrad io
G ive
Ġhloup ÄĽ
ĠÃºko l
v ici
ĠnÃ¡ram ek
ĠSm ith
ĠÄįerven Ã½m
Ġpract iced
Ġh us
Ġst ad
ĠpÅĻi letÄĽl
D ej
Ġb lu
Ġni koho
Ġsh ine
ĠvelkÃ½ ch
Ġse cond
Ġcht ÄĽlo
n ight
ka Å¾
ĠÅ¡ ÅĪ
Ġle ash
ĠD ot
ĠhnÃŃzd a
Ġdr s
Ġjezd il
ad it
ĠU ÄįÃŃ
Ġp un
ĠvÅ¯ ni
ĠvyprÃ¡v ÄĽla
ĠTommy ho
ĠN ut
Ġtan Äįili
ĠAb igail
Ġnote book
Ġmoud rÃ½
ĠnÃ¡pla st
Ġim pat
Ġpobav it
vi ous
Ġop ustit
Ġpr ase
Ġchod ili
Ġlid mi
ke ys
Ġletter s
Ġad or
Ġcu be
Ġdo Å¡el
Ġsled ovali
Ġkoupel ny
Ġch ubby
Ġattract ive
rÃ© n
Ġstret ched
Ġost rov
Ġstir red
Ġus nul
ĠkaÅ¾d ou
ĠuÅ¾ÃŃv al
Ġskv r
Ġno body
Ġmrk ve
Ġpo to
ze li
Ġth read
Ġmap u
Ġu Å¡i
Ġnez mi
Ġcri cket
ur b
he art
ĠdÅ¯ vÄĽ
Ġpap ou
drav ÃŃm
ĠA l
Ġrostl in
Ġpige on
Ġcar pet
Ġcompassion ate
Ġmajite le
ĠzajÃŃmav Ã©
up ÃŃ
Ġzmi zela
Ġfasc in
ĠlaviÄį ku
Ġto oth
ĠZa ÄįÃŃ
Ġpop ros
ĠP rod
Ġhled Ã¡nÃŃ
Ġdecor ate
ĠpÅĻest ali
b Ã¡
ĠÅ¡ Ã¡tek
Ġrespect ful
Ġt ap
Ġbez moc
Ġcoco a
Ġbri ghter
Ġmo ji
Ġc lub
ari an
la la
Ġdist urb
Ġbr Ã½
Ġste ps
Ġcuk r
Ġroz um
Ġsucce ed
ou hlas
ĠS ova
Ġhe d
ĠpÅĻedstav enÃŃ
Ġimpat ient
Ġmil ovali
Ġsc oop
ad ilo
Ġj ug
ĠKrÃ¡ lÃŃ
lig Ã¡t
Ġfur ther
Ġd Ã¡me
Ġko Å¡
Ġd rÃ¡t
Ġot ter
Ġroztomil Ã½
ĠmÃŃ r
ĠT ady
ĠDr Å¾ÃŃ
Ġm Ã¡v
Ġho ok
Ġnat Ã¡hl
Ġtrou bled
Ġspolehli vÃ½
T a
Ġzmat enÃ¡
Ġcompetit ive
Ġit self
ĠsprÃ¡v nou
rÃ¡ va
Ġpress ed
ĠbabiÄį ky
Ġu ÄįÃŃ
ĠpÅĻÃ¡tel skÃ¡
Ġcand le
Ġruka vice
Ġzah lÃ©d
ĠÅĻ ed
Ġafter no
is kÅĻi
P otÅĻe
Ġtal ÃŃ
ĠÄįer va
ĠNej sou
ho dy
Ġatt ic
Ġsko ro
Ġstar ts
ĠV raÅ¥
Ġost ri
Ġmu g
Ġkou ÅĻ
ĠPe vnÄĽ
ĠdÃŃv ajÃŃ
ĠpÅĻedstÃŃ rat
Z dravÃŃm
Ġpos adil
ĠA re
Ġrest less
Ġb led
Ġh ust
Ġom luvil
Ġstod o
Ġk ra
Ġj iskÅĻi
ĠtÃ½d en
ir it
Ġsome where
Ġmas k
Ġperfekt nÄĽ
p ter
Ġskluzav ky
ĠÅ¾id le
ÄĽ st
ved la
ĠpÅĻikyv uje
Ġu Å¡
ur ant
Ġkno ck
Ġdrah Ã©
Ġvytr val
nÃ© st
Ġtun el
ĠzachrÃ¡ nil
Ġdisgust ing
it o
Ġwa ff
ĠvÃ¡ zu
Ġd ess
Å¾ ou
Ġtro j
Ġzastav ili
Ġna Å¡i
Ġnas louch
c Å¯
Ġv ine
Ġhe li
Ġany way
Ġqu ar
Ġador able
ĠptÃ¡ Äįkovi
Ġal lig
Ġsladko stÃŃ
Ġujist il
Ġfear ful
Ġingredi ence
Ġsho e
Ġtak hle
t hy
ĠÄįep ici
Ġnut s
Ġshout s
ĠPrince zna
d ie
ed y
ĠSe b
ĠH el
av u
ĠpokraÄį ovat
ou tek
Ġc ase
Ġmu le
sta urant
d il
Ġgor illa
Ġre staurant
ĠSte ve
ĠzÃ¡ÅĻi vÄĽ
ĠB rown
Å ł
Ġa k
lÃŃ zl
Ġen vious
Ġo mÃ¡
ĠÄįist Ã¡
Ġpant s
Ġsc rew
ĠrÃ¡ dy
co pter
Ġfestiv al
ĠuÅ¾ il
Ġpo cÃŃt
ĠpÅĻikÃ½v ne
Ġchy b
Ġafterno on
Ġdes et
Ġc ards
Ġfil thy
ĠtÄĽst ov
Ġvytvo ÅĻila
ze ÅĪ
Ã¡ Å¾
Ġsweet heart
Ġst is
Ġdist ant
r Äįila
Ġh ipp
Ġhlu ku
ĠdÄĽk oval
Ġgau Äįi
Vypad Ã¡
Ġnapl nila
Ġenthusi astic
Ġcom fort
Ġa lar
Ġvy rÃ¡b
ĠNech tÄĽjÃŃ
Ġgigg le
ĠmalÃ½ ch
Ġtra y
Ġk aka
Ġposlech nout
Ġlesk l
Ġobli Äįe
Ġbro cco
Ġbrocco li
cho pil
Ġhad a
ĠmÃ© nÄĽ
ĠPÅĻÃŃ Å¡tÄĽ
Ġk ruh
Ġne fung
ĠÃº k
Ġrest au
Ġsil nÄĽjÅ¡ÃŃ
Ġtroj Ãºhel
Ġcook ed
Ġin s
m ber
ĠS chov
Ġlo op
ĠÅ¾ elÃ©
Ġj ud
ĠW here
Ġheli copter
Ġmon keys
ĠproblÃ©m Å¯
Ġmoder nÃŃ
L ittle
M mm
ĠlÃ©t al
ĠrÅ¯Å¾ ovÃ¡
Ġup ustil
Ġsest ru
Ġspolup rac
al low
Ġne ÅĻek
ĠN er
ĠdokÃ¡z al
Ġfor k
ĠvÃ½ bor
Ġposlouch ali
Ġpom yslela
Ġup ustila
ajÃŃ cÃŃ
st ali
Ġh arsh
Ġkorun u
rÃ¡ nÃŃ
Ġcom pla
cy cle
ĠlÃ¡s ku
G randma
ĠprÃ¡ d
Ġsand box
Ġso ar
J upÃŃ
Ġko Å¡ili
ĠW ould
ĠdÅĻe vo
Ġme ow
ĠdÄĽl Ã¡te
c ase
Ġje ze
ĠmÄĽ sto
Ġko Å¥
Ġsit u
Ġfor t
ÄĽ lej
ĠNe z
Ġnow here
Ġback pack
Ġs ent
Ġkouzel nÃ¡
Ġtri Äįko
Ġsp ÄĽch
Ġslad kÃ½
Ġko la
Ġme as
ĠtrpÄĽli vÃ½
Dob rÃ½
ĠL Ã©
Ġad mi
ĠSt arÃ¡
Ġfi ve
trat il
Ġbat ht
Ġscoot er
ĠjejÃŃ ch
ĠptÃ¡ Äįku
Ġpi pe
Ġkost ky
Ġbel t
Ġcount ry
B ÄĽÅ¾
ĠVe z
Ġsh r
Ġpostav il
Ġzb raÅĪ
ĠsilnÄĽ ji
er opla
Ġvla sech
Ġbatht ub
Ġob vaz
Ġan ts
ĠM Ã¡me
ĠN av
Ġr Å¯st
Ġbo lÃŃ
Ġprin c
Ġvz hlÃ©dla
Ġzav ÅĻ
Ġbark ing
Ġqu ite
Ġk ang
Ġpovz buz
Ġpo em
Ġz lÃŃ
Ġa eropla
Ġkost ek
ĠS lo
Ġun pack
Ġd ÃŃt
ĠzpÄĽ v
r r
Ġh u
ĠR o
st airs
Ġspe ak
ĠMÃ¡ Å¡
Ġbro koli
jÃŃ Å¾d
Ġcen nou
Ġsaf ari
Ġstej nÃ©
Ġra ft
ral ok
le Äį
Ã¡ lu
Ġcow s
Ġtu ÄįÅĪ
ĠÅĻe v
ĠUtÃŃ kajÃŃ
Ġhapp ier
Ġlet ÄĽla
ĠÅ¾ivot ÄĽ
Ġnesly Å¡el
Ã¡ kem
ĠB rou
Ġnam al
ĠrybnÃŃ ce
Ġvypad at
ĠprochÃ¡z ky
Ġlu k
Ġne oh
Ġlek ce
Äį kej
Ġoh nÄĽ
ĠRy ba
Ġm ama
Ġnezap omnÄĽla
Ġbicy cle
an as
Ġs alt
Ġde zer
Ġobraz ov
ĠlÃŃst ek
Ġse par
Ġva f
Ġc us
Ġkuchy ÅĪ
ĠEvery thing
Äį Ã¡tku
Ġdlouh Ã¡
ne um
Ġs my
Ġs ny
Ġlisten ing
i hÅĪ
Ġhla vy
ĠZved ne
Ġplane t
ĠJ dou
Ġhr nce
Ġpark em
Ġpla men
Ġs ummer
ĠPro stÄĽ
Ġtal ent
ĠbrÃ½ le
Ġfire work
Ġstar ed
Ġh ro
C ht
ĠoÄį ÃŃm
Ġpravid la
Ġtv ou
Ġneod povÄĽ
ĠD avid
g ing
ĠOp ice
Ġmoc nÃ½
Ġdod Ã¡v
stoup ili
o om
Ġinte ligent
ĠSpot a
Ġmess age
ĠdÄĽli li
By e
Ġadmi re
Ġgrab s
Ġro h
Ġneb ud
ĠpÅĻin Ã©st
Ġja hod
Ġgi ven
r z
Ġbubl iny
ÅĻ ice
ĠVy b
Ġc omet
Ġci bu
ÅĻi ci
mlou vÃ¡
Ġostri ch
ce la
ho od
Ġlahod nou
ĠsvÄĽt le
ĠÅ¡paget y
lo e
Ġvyni kajÃŃcÃŃ
ĠÄįer st
ĠzÃ¡h ad
Ġhum an
Ġvyd Ã¡vÃ¡
ĠloÅ¾ nici
Ġnezap omnÄĽl
ouÅ¡t ÃŃm
Ġsor t
Ġsko Äįit
Ġk an
Ġroztomil Ã¡
ĠZ dÃ¡lo
ĠPÅĻÃŃ Å¡
co pe
w s
Sam my
Ġpa id
Ġbarev nÃ½
Ġalar m
ĠZat ÃŃmco
ĠÅ¾ÃŃ zeÅĪ
as er
Ġpost elÃŃ
ĠnÃ¡ ru
y ear
Ġbohat Ã½
ĠhlasitÄĽ ji
ĠpÅĻ it
Ġfrustrov anÃ½
Ġmod est
Ġfind s
ĠdÄĽk ovala
ĠpÅ¯j dou
Ġne klid
Ġpostav ili
Ġb Ã½
ĠnÃ¡dob ÃŃ
T y
Ġje zÃŃ
Ġm Ã©ho
Ġobs er
ĠskÅĻÃŃ ni
ĠV l
Ġme at
Ġdess ert
ĠOd p
ĠdeÅ¡tnÃŃ k
Ġallig ator
Ġsp ell
Ã¡ stÃŃ
Ġtu hle
Ġvy no
Ġdr Å¾
ĠdomÃ¡ cÃŃ
Ġna po
O b
ĠM od
Ġsupp ort
Ġhed ge
ĠBa by
Ġsp irit
T ak
et u
a it
tÃ¡ k
ĠlÃŃ nÃ½
Ġobrov skÃ©
Ġvi olin
Ġmel on
Ġvy le
Ġjelly fish
ĠOblÃ© kla
Ġpist ol
Ġodlet ÄĽla
Ġdcer u
Ġskute ÄįnÃ©
ĠÅ¡ rou
ici an
ĠsnÃŃ h
Ġneud ÄĽla
in o
ĠzaÄį ÃŃn
Ġper o
Every one
ĠsouÄį Ã¡stÃŃ
Ã¡t ka
ĠkrÃ¡ va
v el
ĠRe my
Ġgau Äį
ra ÄįnÄĽ
Ġb od
Ã¡ no
Ġresc ue
Ġpull s
Ġtri pped
Ġneb oj
Å¾ nÃ½
Ġko Å¡e
Ġyog urt
Ġpaw s
pp er
ĠbÃŃ lou
Ġdobr Ã©ho
Ġsi ze
Ġcht ÃŃt
ĠvyprÃ¡v ÄĽl
ĠmÄĽ ly
Ġwhe at
Ġho les
k Ã¡d
co g
Ã¡r nÃŃ
ĠloÅ¾ nice
Ġlahod nÃ©ho
Ġukaz uje
ĠhÅĻi Å¡ti
Ġforg ave
Ġro ared
Ã¡l ky
ĠuÅ¾ite ÄįnÃ½
ĠbÃŃ lÃ¡
Ġkle c
ĠSp ike
Ġjin Ã½m
Ġpomeran Äį
J ste
ĠÅĻe ku
Ġlo pat
s on
Ġtvrd Ã¡
Ġbub ble
Ġmal ovat
ĠpÅĻiprav ila
Ġsi r
Ġcat s
Ġlepid lo
Ġd Å¾ÃŃ
Ġp urse
H a
Ġhipp o
Ġland s
Ġvysok ou
Ġre cog
ĠC at
Ġkach nu
ĠVys koÄįil
Ġpavou ka
Ġk Å¯Å¾
Ġroz ko
Ġh all
ĠdÃ¡r ky
Ġcho ice
ore k
Ġstud enÃ¡
Dad dy
ĠPom oh
Ġca ct
Ġswing ing
Ġpus hing
Ġb ikes
Ġsli b
ĠlÃŃz Ã¡tko
Ġin se
Å¯v od
ĠdÃŃv Ã¡
Ġorgan ize
Å¾e m
Ġsp lit
Ġujist ila
Ġb in
ĠdÅĻe va
Ġcit ron
Ġsc old
Ġde Å¡tÄĽ
ĠsvÃŃt ÃŃ
ĠNeby l
ĠUsmÃŃv ajÃŃ
Ġnepat ÅĻÃŃ
Ġbeh ave
Ġr ice
M oje
Ġneop atr
Ġnez nÃ¡m
ou ch
Ġklouz ali
Ġsh ade
ĠPÅĻÃŃÅ¡ era
Ġrozbit Ã¡
Ġv er
Ġk rav
Ġsam ot
Ġu de
Ġstar ting
Ġhair cut
ĠRozum ÃŃÅ¡
Ġpo let
Ġzjist ili
u Å¾
Ġo at
okÃ¡z ala
ĠnÃ¡ stroj
Ġpr Å¡elo
Ġvytvo ÅĻili
Ġokra ji
b ala
ĠV Äįela
Ġzat les
Ġlight ning
Ġplach Ã½
ĠJ em
ĠotevÅĻ enÃ©
Ġtriang le
so by
ĠD ob
c ano
Ġob oj
ĠzaÄį ÃŃt
Ġodpo ledne
if e
ĠP op
Ġenerg y
Ã¡ ÅĻe
ar oo
ĠhÅĻe bÃŃ
Ġvy mÄĽ
ĠMil ujÃŃ
Ġkla un
Ġtem p
Ġdosp ÄĽl
Ġkouzel nou
Ġute kli
ĠO bÄĽ
ĠpÃŃÅ¡Å¥ al
ĠpÅĻikrÃ½v ku
Ġkost Ã½m
L ÃŃ
ĠhlÃŃ ny
Ġrid ing
ĠÅ¾ enu
ĠZastav il
ujÃŃ cÃŃ
Ġklobou ky
ĠÄįek at
Ġb ur
Ġm Ã½
re ci
Ġpo rch
Ġvyp rÃ¡vÄĽ
Ġfrown ed
Ġbole lo
pad la
Ġtvrd Ã½
Ġe ither
Ġt is
an u
Ġne vÃŃ
ÃŃt r
Ġmat h
or ys
Ġje li
Ġlearn t
Ġti re
ĠnelÃŃ bÃŃ
Ġkro kod
ĠstrÃ¡v ili
Ġjed in
Ġtra ins
Ġend ed
Ġzklam anÃ¡
Ġleg raÄįnÄĽ
Ġwal let
Ġhod inky
Ġcom f
ĠsprÃ¡v nÃ©
J sme
pad alo
om as
Ġnem ajÃŃ
Ġz mÃ¡Äį
Ġkro k
Ġch alk
Ġstud enÃ½
Ġznam enÃŃ
Ġkdy koli
Ġmis ky
Ġzah rÃ¡l
Ġban anas
Ġlu ck
Ġkang aroo
al ed
b ili
Ġle nd
Ġstar ala
ĠOd povÄĽ
Ġcact us
Ġned ÄĽla
Ġeven ing
Ġstick er
ĠÅ¡ÃŃ p
ĠZjist ili
ĠS li
Ġjeze ÅĻe
ĠU n
Ġpo ke
N ed
Ġswe ater
Ġho lÃŃ
ĠPom Å¯Å¾u
Ġpap ers
Ġvol cano
Ġsmut no
ation s
Ġinteligent nÃŃ
Ġmuse um
nÄĽ lo
Ġtw irl
ĠmÃ¡ slo
mÄĽ ÅĻ
Ġhot ov
Äįer st
Ġtem nÃ©
Ġapp reci
Ġst amp
Ġpala ce
la tÃ¡
Ġsm ÃŃ
Ġjedn od
Ġkys el
Ġvypad aly
Ġli ons
Ġch ain
ÅĪ ost
x e
Ġstrawber ry
Ġboot s
J men
Ġjok es
Ġroll ing
ĠpÃ¡s ku
Ġbear s
Ġlo dÄĽ
ĠMax em
ra cÃŃ
ĠP ip
ĠK vÄĽt
ĠÅĻÃŃ dit
Ġve st
ĠNem Ã¡
e z
ĠTom ova
Ġbub en
Ġvtip nÃ©
Ġp neum
Ġpom yslel
Ġfial ovÃ©
fe e
Ġshop keeper
bÄĽ hne
Ġzp rÃ¡v
Ġbar rel
ĠOp rav
Ġmic rop
Ġaut om
ĠmedvÄĽd ovi
Ġhad n
ĠbalÃŃ Äįek
Ġmas o
Ġnen ech
ĠzÃ¡ le
ĠsbÃŃ rala
ĠlÃŃst ky
of fee
ĠN ÄĽ
ĠpenÄĽ Å¾
ĠVytÃ¡ hl
ĠB eth
Ġraket u
Ġsa mi
Ġz ala
Ġar g
ami e
ĠNemoh li
Ġsh akes
e v
Ġzavola l
Ġrecog ni
Ġlou Å¾i
Ġzklam anÃ½
app ed
ĠÅ¡Å¥ast nÄĽjÅ¡ÃŃ
ĠvÅ¡im li
Ġzam ra
Ġok nem
Ġchla p
Ġoh ÅĪost
ĠnaÅ¡tv anÄĽ
Ġsil ver
Ġps Ã¡t
Å¾ ka
ur ch
Ġla und
Ġre inde
U Å¾
Ġzd a
Ġa live
ĠF rank
Ġvlaj ku
Ġg ain
Ġsmell s
ĠPouÅ¾ il
ĠL ou
ĠÅł Å¥
ĠÅ½ ena
Ġlaund ry
Ġso ck
Ġhor y
ĠdÃŃ ÅĻe
Ġnakres lit
Ġpla vala
Ġh my
Ġchyt ÅĻÃŃ
ĠSÃ¡ ÅĻ
id el
Ġexp eri
ĠpÃŃ p
Ġav oc
ĠpodÃŃv ajÃŃ
ĠsnÄĽ hov
ĠNej prve
ĠU m
Ġw ire
Ġob Äįerst
ĠtÄĽ ch
ĠprochÃ¡z ce
ĠÄįas u
Ġpo tÃ¡
ĠkÅ¯Å¾ i
Ġposlech l
Ġsp rink
Ġnedot Ã½
Ġneh Ã½
ĠZap omnÄĽli
Ġput ting
Ġmicrop hone
nut ÃŃm
Ġpoz nÃ¡
Ġsoft ly
ĠSed ÃŃ
Ġp Å¯sob
Ġhez kou
Ġpus hes
r ka
Ġp Å¡en
Ġin k
Ġdort u
Ġmil d
Ġvisit ed
Ġmik ro
Ġpos l
Ġtri cks
ĠpÅĻedstÃŃ ral
Äį ily
Ġsladko st
ĠmlÃ© ka
Ġro ot
Ġcla pping
Ġknih ami
ĠuÅ¾ ÃŃt
Ġb ab
Ġneu blÃŃÅ¾
Ġdraw ings
ĠzÃ¡m ku
Ġup Ã©ct
Ġotev ÅĻe
Ġsp ort
Ġfall ing
Ġtu be
ĠÅ¡at ech
Ġsh ru
Ġcolour s
Ġtu b
ĠDÃŃv ala
Ġc ord
ĠK r
Ġpot Ã©
ĠpÅĻekvap enÄĽ
Ġsail or
Ġhod ila
Ġshi eld
Ġhlubok o
ĠhÃ½ bat
Ġle aned
ri ght
ĠMa j
Ġzoom ed
bula nce
Ġh ive
ill s
ĠBrou k
ĠV ÃŃtr
ĠPap a
h appy
Ġukaz oval
ĠkamarÃ¡d i
so ro
Ġba h
M Ã¡Å¡
Ġv ÃŃtÄĽz
Ġk Å¯ÅĪ
Ġza ÅĻ
ĠkrÃ¡lov na
T ime
ĠpÅĻi bÄĽhl
Ġs nu
ĠS unny
oc ho
Ġam bulance
Ġdv orek
ĠVÅ¡im l
ĠnovÃ© m
Ġt rÃ©n
Ġbelong s
Ġsly Å¡eli
Ġh ar
Ġroz ÄįÃŃ
bu Äı
Ġpengu in
pla y
Ġair port
Ġus nula
Ġklad ivo
Ġub rou
Ġche cked
Ġpastel kami
ĠN Ã¡
Ġins ist
Ġpoli b
ĠDok tor
Ġmu ze
ku je
hl edn
Ġtre mb
ĠsnÄĽhul Ã¡k
Ġza jÃŃ
an it
Ġkr out
z lu
Ġmar ched
Ġquar rel
Ġtri ck
Ġna padlo
Ġpe bble
Ġp ustil
ĠprozkoumÃ¡ vala
Ġmat em
Ġclimb ing
ĠVykÅĻi kl
Ġsn ila
Ġzlo dÄĽ
ĠptÃ¡ kem
Ġjable k
Ġreinde er
Ġshel ter
K am
Ġpod ala
Ġtro p
Å ĺ
ĠvÃ¡ mi
Ġmo Å¾nÃ©
ĠS aro
ĠT an
c ast
ĠpÅĻi chÃ¡zet
Ġo y
Ġa va
am po
en Ã©ho
ĠProd avaÄį
Ġk utÃ¡le
al Ã¡
Ġsa us
ĠM ie
ct ion
ĠnÃŃ zko
Ġdom em
Ġsed ÄĽli
ÅĻ mi
Ã¡Ã¡Ã¡Ã¡ Ã¡Ã¡Ã¡Ã¡
Ġd ive
Ġjud ge
Ġaeropla ne
Ġkys elÃ©
Ġneoh rab
hod ÃŃ
at u
Ġdis hes
Ġmlad Å¡ÃŃ
ĠN os
Ġpozd ravit
Ġfrustrov anÃ¡
ĠveÄįÃŃ rku
ĠpÅĻ itu
Ġpoli sh
ĠpÅĻest alo
ĠtÅĻÃŃ dÄĽ
Ġn it
ree ze
Ġdu ha
ĠZ ach
N ej
Ġnev adilo
ĠmÃŃ rum
Ġgo al
Ġqu it
ĠpÃ¡r ty
Ġgra pes
Ġobj edn
Ġbark s
up l
ĠuÄįitel ka
ĠKÅĻiÄį ela
Ġfield s
ĠVÅ¡im la
An no
Ġe lev
Ġsh rink
ĠbÄĽ Å¾et
ĠNe bo
Ġsand cast
Ġlist Å¯
ila ble
Ġpla chÃ¡
Ġapolog ized
Ġr h
ÄĽ ji
Ġkous l
Ġnapl nil
Ġm raz
ĠpodÄĽ lila
Ġc offee
Ġtrop hy
Ġtak ovÃ©ho
ĠplyÅ¡ ovÃ½
ĠzÅ¯st ane
Ġlo dÃŃ
Ġco stu
ĠSu zy
Ġcostu me
Äį inu
ĠKrÃ¡ l
ĠrytÃŃ ÅĻ
Ġso il
ĠTom em
ĠVrÃ¡t ila
ĠuÅ¾ÃŃv ala
Ġm Ã¡val
Ġdivok Ã½
Ġhop ing
Ġtrap nÄĽ
ĠMaj itel
ra vÄĽ
ĠÅ¾i raf
Ġsk rÃ½
Ġple Å¡
Ġnedale kÃ©
ĠrozruÅ¡en Ã½
Ġrub ber
Ġfeel ings
Ġa rt
Ġhel mu
ÅĻÃŃd it
sel y
Ġvesel Ã¡
Ġmed al
Ġnud nÃ©
Ġer aser
ĠpÄĽk nou
Ġukaz ovala
Ġt Ã¡
Ġra g
ĠbonbÃ³ ny
Ġun happy
Ġtas k
Ġradost nÄĽ
Ġslad kou
Ġkit ty
ĠBohu Å¾el
Ġelev ator
Ġrain ing
Ġnepos louchÃ¡
Ġd ek
ĠpÅĻi vÃŃt
Ġbu nd
ĠnÃ¡dher nou
Ġdro ps
Ġava ilable
ĠCh ir
Ġminu te
Ġdis play
Ġzmen Å¡
ĠmÃŃÄį ky
Ġher b
Ġmar ry
Ġst om
Ġthank s
ĠlÃ¡ sky
ĠPÅĻemÃ½Å¡le l
Ġwo ol
Ġjour nal
Ġpod le
Ġinc lu
Ġunlo ck
Ġcele ry
Ġshould n
Ġtv o
Ġre ver
Ġfis her
Ġkan cel
Ġbasket ball
Ġcoun ter
Ġon ion
Ġjog urt
Ġy acht
Ġperfect ly
Ġm ill
By ly
ĠrozzÃ¡ ÅĻily
Ġmechan ic
ĠNem ÄĽla
M andy
Ġp age
Ġskute Äį
Ġvelk orys
Ġko pat
Ġpo Å¡
ĠNa jdou
Ġimag ine
Ġk aj
Ġkru zÃŃch
Ġbalan c
Ġwin ter
Ġz im
Ġor nam
Ġhous le
ĠhnÄĽd Ã©
ĠMus el
ĠÃºsmÄĽ vu
Ġst Ã¡
Ġkous kÅ¯
Ġf lies
Ġpej sek
Ã¡ ky
Ġobrov skou
ĠveÄįe ÅĻe
Ġohled upl
Ġjem nÃ©
ĠpÅĻipoj il
Ġcomple te
Ġdi ary
op is
Ġclo sely
ĠupÅĻÃŃm nÃ½
ut or
ng u
Ġmag az
Ġjmen ovali
Ġinse ct
ĠobrÃ¡z kÅ¯
ĠM ou
sk alo
Ġhrom Ã¡d
n Å¯
ĠslÃŃb ili
Ġmraven ec
ra Å¡ÃŃ
Ġnep ÅĻÃŃ
Ġvyp rÃ¡
pec ted
ĠchrÃ¡ nit
ĠNech ci
ĠÅ¾ivot a
Ġcard board
Ġdo jed
Ġtak ovÃ½
Ġstate ÄįnÄĽ
ĠPÅĻi bÄĽhl
ÅĻÃŃ Å¡
ĠdozvÄĽ dÄĽt
na u
Ġeager ly
Ġplay er
ĠprojÃŃÅ¾ Äı
Ġv end
Ġb aking
Ġne ustÃ¡le
Ġruka vici
ĠâĢ ĵ
Ġs Ã¡
Ġschop en
Ġm lÃ¡dÄĽ
ĠzdvoÅĻil Ã½
Ġk omet
ĠÅ¡ krÃ¡
Ġmen Å¡ÃŃ
ĠÅ¡t ÃŃt
Ġdne ch
k ovÃ©
ĠskÃ¡ ly
Ġdis ag
Ġp avu
ĠpÅĻÃŃ pad
nit ure
Ġp sy
Ã¡ lie
Ġsm radla
ĠD louho
ĠkrÃ¡ vy
ĠP ÃŃ
ĠvÄį ely
Ġcoo ler
Ġpos kyt
Ġglo ve
ĠpÃŃsniÄį ky
Ġsp ravit
Ġbul b
lech l
al ÃŃ
Ġna kou
bu Å¥
Ġpop el
Ġla buÅ¥
Ġohrom enÃ¡
Ġsy n
Ġdezer t
Ã¡h nou
Ġudr Å¾
ĠNa Å¡tÄĽstÃŃ
Ġautom ob
kla d
Ġfur niture
in c
Ġu li
Ġstuff ed
Ġves nice
Ġz ÃŃv
ĠV on
Ġmoh u
Ġtreasure s
Ġz nÃ¡
Ġklid nÃ½
ĠPÅĻi Å¡la
ss i
Ġmus ÃŃm
ka ÅĻ
Ġdis p
n ad
x y
Ġp ine
Ġokam Å¾
ĠdÅ¾ usu
Ġvy Å¡li
ĠUsmÃŃv ali
Ġhrad y
Ġimag ination
Ġo mlouvÃ¡
Ġin kou
Ġbreak s
Ġav ok
Ġspo ÄįÃŃt
ĠPÅĻi Å¡el
ĠPÅĻi bÄĽhla
Ġsku ll
Ġmed Ãº
Ġschov ala
Ã¡d u
Ġhead ed
Ġoli z
Em ma
Ġp air
Ġch urch
mysle l
Ġw ife
ĠSlo n
au li
ĠpÃŃ rko
Ġfrog s
ke let
Ġst Ã¡la
Ġnep otÅĻe
Äį ce
ĠS klo
ĠtÃ© mÄĽÅĻ
ĠLet ÄĽl
ĠpÅĻi pe
Ġkno b
Ġosla v
ĠpoÅ¡t u
Ġkou zlo
pla ce
V z
s qu
ctor y
ĠPotÅĻe buje
lov at
Ġsv etr
Ġsw itch
en Ã½m
Ġa raÅ¡ÃŃ
w een
Ġse z
Ġtw ink
anna h
ĠvrÃ¡t ily
Ġjel en
Ġfial ovou
ĠNik do
ĠsÃŃ lu
Ġshr imp
Ġob lÃ¡z
Ġp ÄĽt
D nes
ĠÅ¡p ÃŃ
Ġfoot ball
Ġsun set
hov at
Ġvykou pat
z at
Ġmed a
ĠobjÃŃm ali
Ġvz lÃ©t
Ġoff er
Ġpost Ã½l
Ġru ÄįnÃŃ
Ġok nu
S Ã¡
tÃ¡ hl
vÄĽd ÃŃ
Ġbet ween
Ġli e
lou che
an ci
Ġkar tÃ¡
Ġk vÄĽ
r Å¾
Ġsp r
Ġhot ovÃ½
or ies
b en
Ġzab rÃ¡
Ġu Äįil
ude b
L isa
d ila
c viÄį
Ġz lÃ©ho
ĠstraÅ¡ idel
Ġpom oz
Ġmotor cycle
ĠnepÅĻe st
ĠO r
Ġsu k
ĠD Ã¡ma
Ġsk lo
ĠjejÃŃ mu
Ġstan u
Ġfa ctory
Ġs ednout
Ġzrc adla
Ġv et
ĠudÄĽla jÃŃ
ĠBÄĽ hal
Ġcu ps
Ġcest a
Ġsw ung
Ġapp la
Ġch vÃŃ
Ġsp ÃŃ
Ġke ÅĻe
ĠÅ¡ kÃ¡d
g th
Ġmo squ
Ġkle ce
Ġo ves
Ġzahrad a
Ġpo nau
ĠD okÃ¡Å¾e
c ause
om ÃŃnajÃŃ
Ġpop ul
ĠK ay
Ġhoup ali
Ġhr nek
Ġpamat ovala
Ġshout ing
ĠzÃ¡bav ÄĽ
Ġtla ÄįÃŃ
ĠflÃ©t nu
Ġchir p
Ġv loÅ¾ila
ov ol
Ġfla me
Ġle Å¾et
o ku
Ġh ut
Ġchy stal
Ġknihov ny
ĠpapÃŃ rov
ĠMat ka
ĠobliÄįe je
Ġblow ing
ĠÄįek Ã¡
Ġc auli
Ġnep od
Ġkap se
Ġtane c
as on
Ġpe ach
Ġsun g
na jÃŃ
ĠZ eptÃ¡
Ġcere Ã¡lie
Ġpro h
O O
Ġna hlas
U dÄĽla
Ġod raz
er os
Ġk lou
ĠLily inu
Ġospal Ã½
e f
ĠnÄĽ Äįem
Ġpain ter
Ġat r
raf fe
ipp er
Ġvend or
v enÃŃ
Ġsee ing
Ġmosqu ito
Ġdo ru
in oc
ĠpÅĻip omÃŃn
Ġslune ÄįnÃ½
Ġpou Å¡t
Ġstoup at
i jÃŃ
nÃŃ ci
ĠDouf al
Ġfold er
Ġzam Äį
Ġpir ates
Ġk akt
ĠCo co
ĠmÃ½d lo
ĠÄį emu
ĠPÅĻemÃ½Å¡le la
ĠJu lie
Ġponau ÄįenÃŃ
u se
bu jeme
race jÃŃ
ĠCh loe
Ġmel oun
ĠodmÄĽ nu
Ġk lÃ¡d
ĠPodÃŃv Ã¡
Ġcus hion
Ġsh romÃ¡Å¾d
Ġs kelet
lÃ¡ n
ĠÅ¡per ky
Ġmix er
Ġfr ame
You r
Ġche ek
Ġcreat ed
ut Ã¡
Ġco al
Mus ÃŃÅ¡
Ġk ay
Ġthrow s
Ġhead s
Ġpavou k
ru s
Ġvl k
Ġzah ÅĻ
Ġnad echl
Ġhor u
Ġpr Å¯vod
Ġo lÃŃzl
ĠNes ly
d ing
ĠstÅĻÃŃ br
Ġfisher man
ĠSly Å¡ela
ĠpÅĻ is
ĠdokÃ¡z ala
Ġzah rÃ¡li
Ġso c
ĠtÅĻe ba
inoc eros
Ġnemoh ou
Ġ Qu
et y
a hu
Ġsoc cer
ali t
Ġpneum ati
vÄĽt nÃŃ
Ġcon f
Ġy ucky
Ġskv ÄĽlÃ¡
ĠpÅĻiblÃŃÅ¾ ila
Ġzdrav Ã½
LÃŃ bÃŃ
Ġbasket bal
Ġo il
Ġpla z
ek la
Ġchlad no
ĠÄįÃŃ sla
Ġz alÃ©
Ġpo pped
ĠBÄĽ hali
Ġexpla in
ĠnÃ¡klaÄıÃ¡ kem
Ġcauli flower
h ly
Ġsam o
nu li
Ġbatter y
Ġsam ozÅĻejmÄĽ
Ġhor ses
Ġatt ention
Ġwi pe
Ġla ngu
ĠvesmÃŃ r
ĠÅ¡ oku
ĠtrpÄĽli vÃ¡
ĠvelkÃ½ mi
Ġpra cÃŃ
ĠMuse li
ĠzÃ¡d ech
Ġtv or
Ġp ur
Ġforgot ten
ĠPodÃŃvej te
Ġli ves
Ġbu ck
Ġset kal
Ġwe ather
ĠA d
iv ost
ĠÅ¡Å¥avnat Ã©
a Å¡e
Ġse h
ĠjÃŃd lem
elc ome
V Å¡
p ted
Ġsed mi
Ġob ra
Ġceleb rated
Ġvy rost
re nder
Ġli me
ĠdÄĽla lo
sk Ã½m
ĠK ni
Ġla no
ĠG od
Å¡t ros
Ġfis hing
Ġma ze
ĠVy dÄĽ
Ġpos adili
R Ã¡d
ĠL una
ĠstÅĻÃŃd at
Ġza Å¡ept
ÅĻ ou
Ġsur round
Ġned ovo
Ġhud ba
Ġatr akt
Ġslep t
T ati
Å¾ ili
zv lÃ¡
Ġv loÅ¾il
ĠjmÃ© na
Ġlot ion
f ej
v ajÃŃ
Ġw aving
ĠPouÅ¾ ila
ĠbrÃ¡ nu
Ġhlad ovÃ¡
Ġlahod nÃ½ch
ĠFlo ppy
ĠpÅĻi Å¡lo
Ġyog a
Ġrh inoceros
dÄĽ lo
cho r
# #
Ġde ar
Ġnad echla
t ain
un ately
Ġod kud
Ġd ajÃŃ
Ġup adla
ĠzvÃŃ ÅĻ
ĠJmen ovala
Ġtet a
Ġj Ã³
oz ici
ĠVy Å¡
Ġpow der
Ġgi raffe
Ġsnad no
In side
Ġver and
Ġdo le
Ġt utor
Ġfire place
Ġryb ka
ĠÅ¾Ã¡ by
Ġstej nou
ĠK ous
y b
Ġm Ã½m
Ġpokus ÃŃ
Ġpo loÅ¾ili
ĠprÃ¡zd nÃ¡
Ġpla ve
Ġo kou
ĠotÃ¡z ky
ĠÄįer nÃ©
Ġfle a
ĠpÅĻev lÃ©
v il
Ġsu b
Ġple chov
Ġb zu
Jmen uji
Ġvod ÃŃtko
Ġnas adila
Ġpoin ts
Ġp se
Ġm lÃ½
Å¾ ila
ĠchvÃŃ le
Ġnez nÃ¡
Ġjas nÃ½
Ġob jÃŃmÃ¡
lass es
ĠusmÃ¡ lo
Äį era
ĠNut ty
viÄį ku
Ġko ber
ĠHla s
Ġvytvo ÅĻil
Ġb reeze
Ġlahod nÄĽ
Ġsw amp
ĠÅĻ adÄĽ
Ġpoin t
ĠBilly ho
ĠuÅ¾ÃŃv at
ĠzÃ¡d a
Ġglow ing
ĠmÃŃrum ilov
t ivÃ½
ck ey
omen out
Ġli cen
Ġbater ku
Ġsung lasses
ĠmazlÃŃ Äįka
ĠOtev ÅĻeli
t ime
Ġnena Å¡la
ĠMuse la
ĠdÃŃt ÄĽti
Ġti p
Ġku latÃ¡
V ÃŃte
Ġking dom
lo ha
Ġpostav ila
ĠV enku
Ġstr Äįil
Ġpohodl nÄĽ
ĠRozhod nou
ĠTent o
Ġneby ly
Ġmem ories
ĠK op
ĠmaliÄį kÃ¡
Ġok vÄĽtnÃŃ
Mil uju
Ġblu di
b les
Ġchy bÃŃ
Ġst ren
Ġsed la
Ġmikro fon
ĠL ucky
ĠdÃ½ ni
Ġchut nÃ¡
Ġto vÃ¡
ĠR u
Ġom luvili
ne v
Ġsuper hrd
Ġpet als
sp ap
Ġtun a
k ovÃ½
ot o
Ġo stra
ĠU dÄĽl
Ġsli pp
Ġa xe
Ġpar ent
ĠbÅĻe h
Ġa ligÃ¡t
Ġsrd ci
Ġdisp ozici
Ġskelet on
f ot
Ġdom ku
ĠÅ¡tÄĽ kÃ¡
Ġmotor ku
he ro
Ġvyb ral
ĠmÃŃch at
ho vÃ¡
ĠH ra
Ġre ve
Ġfo g
Ġmist akes
ĠuvÃŃ zl
ac he
Ġnew spap
ick y
Ġdan cer
Ġce iling
l Ãº
Ġse k
ĠholÄįiÄį ko
Ġz lÃ©
Ġsqu e
ÅĻe t
Ġchick ens
Ġgre edy
Ġorigin Ã¡lnÃŃ
ke jte
ĠnÃ¡ÅĻ adÃŃ
Ġdisapp ear
ĠPotÅĻe b
Ġzaplat it
Ġstren gth
Ġdu ch
Ġodva hu
a w
Ġsquirrel s
Ġig lo
Ġho ckey
Ġj ach
Ġk oho
Ġunif orm
liko pt
Ġgr in
Ġan chor
J o
ĠBob a
ĠpodÃŃvej te
Ġbu zz
ĠRozlou Äįili
Ġsp ra
Ġzdrav Ã©
ĠTh omas
ros cope
Ġpu p
Ġsuper hero
ovÃ¡ nÃŃm
Ġj Ã¡m
ĠÅ¡rou b
Ġm luvila
ĠotevÅĻ ely
Ġhoup ala
Ġtanc ovat
Ġexperi ence
Ġvy pla
Ġgold en
Ġsniff ed
s al
Ġarg ue
ĠpÅĻÃŃstav u
Ġfou kal
ĠusmÃŃv at
Ġc able
Ġnap kin
E ventually
Ġmus ician
ĠBe z
Ġstr Äįila
Ġskup inu
Ġsp al
ros kop
ĠblÃ¡t ÄĽ
Ġch uÅ¥
Ġtemp le
ĠpomÃ¡h ali
ĠPo lici
Ġmed u
Ġle b
ĠtÃ¡t y
Ġho kej
Ġhang ing
Ġsta ff
ĠlÃŃb ily
likopt Ã©
Ġtep lou
ĠT r
ĠÅ¾Ã¡d nÃ¡
ĠpÅĻemÃ½Å¡ lÃŃ
Äį kou
ĠÅ¡ vest
V ÃŃm
Ġsk irt
Ġnebezpe ÄįnÃ½
ĠM raven
ĠnÃ¡lep ku
Ġs anit
Ġbu ry
ĠzranÄĽ nÃ¡
hou se
Ġvy chÃ¡zel
i ately
Ġne o
Ġjem nÃ¡
Ġag ree
ĠkrÃ¡lov stvÃŃ
Ġdisc us
Å¾e c
lov i
one m
ĠvÃ½jime ÄįnÃ¡
Ġeat en
Ġg a
Ġkla cky
ĠM iss
Ġposl ednÃŃ
Ġsho vel
Ġthe ater
Ã¡n ku
Ġkaj ak
Ġnas adil
Pro to
louz la
Ġmeet ing
ĠÅ¡p louch
Ġrozbit ou
Ġhon k
Ġin f
Ġvoz ÃŃk
ĠmÃŃst em
Ġmic roscope
ĠPou Äįili
Äį ina
Ġin vest
Ġjas nÃ¡
ĠMil uju
Ġpopros ila
Ġchy by
ĠtÄĽstov iny
ĠV ola
Thank s
ĠSly Å¡eli
Ġhrd ina
Ġz ipper
Ġvever ky
Ġwelc omed
Ġb ac
Ġshould er
Ġvy hod
Ġsho rt
Ġco Å¾
ssi ble
Ġzkus il
Ġvy k
ĠBo lÃŃ
Ġquiet ly
ĠvzruÅ¡en ÃŃ
Ġiglo o
Äįas ÃŃ
er c
Ġnech ali
la y
ĠgarÃ¡ Å¾i
ĠPoskak oval
ĠDr Å¾ela
Ġrov nov
Å¡ vi
Ġtro fej
Ġstar al
Ġkulat Ã½
Ġnep ohn
Ġfla pped
m Ã©
ch air
Ġinvest ig
Ġo ÅĻÃŃ
Ġslipp ery
ĠH op
Ġboun cing
Ġf ought
Ġposlech la
uje te
ni es
Ġacce pted
Ġrad ish
Ġhla vnÄĽ
ĠJe zd
ĠzÃ¡p is
Ġv ÅĻel
Ġop ak
Ġnavr hla
Ġn atr
Ġthrow ing
y m
chÃ¡ze jÃŃ
on u
r m
Ġp ustila
Ġcu b
Ġdoor s
Ġmy st
Ġig lÃº
ĠIn stead
Ġvz kaz
Ġzkou Å¡ela
Ġtu ÅĪ
Ġplast ic
lo Å¾it
Ġco b
Ġcre ek
Ġto ÄįÃŃ
ĠÅĻÃŃ kat
Ġram eny
Ġoto Äįit
Ġztrat it
ĠNelÃŃ bilo
T oday
Ġnebezpe ÄįÃŃ
ĠpouÅ¾ÃŃv ala
Ġstick y
Ġpin ch
Ġmil ujeme
Ġnezap omeÅĪ
Ġcall s
b ie
ĠnabÃŃd l
ĠzvlÃ¡Å¡tnÃŃ m
ĠdÄĽk ovali
nÃŃ ka
t ress
W ait
Ġmat tress
Ġkay ak
ĠÅ¡at Å¯
y p
ch ie
Ġba Å¾
Ġoboj ek
Ġmov es
Ġf ant
ĠkoÄį kou
ĠprojÃŃÅ¾Äı ku
ĠZ po
v Ã½m
Ġsklouz nout
Å¾e k
ĠstÄĽ nÄĽ
J sou
Å ½
Ġsur render
Ġw ar
ĠpÄĽk nÃ¡
ĠPtÃ¡ ci
ĠJ amie
ĠChir py
ĠT i
ĠsuÅ¡en ek
ĠJem nÄĽ
Ġto Äįil
Ġtra il
Ġstodo ly
ĠBen em
Ġcar ed
Ġfree zer
ĠPÅĻed stav
Ġlaw y
Ġvan y
ĠÄįe ho
Ġsu ff
vÄĽ jÅ¡ÃŃ
Ġmik roskop
Ġkart u
Ġavoc ado
Ġmar ble
by t
Ġlamp u
ĠnÄĽk teÅĻÃŃ
ĠOb loha
ĠmÄĽk kou
Ġst mÃŃv
ĠprÅ¯ Å¡vi
ĠVyÅ¡ pl
Ġvla s
Ġi ron
Ġnau ÄįÃŃ
Ġu mÄĽ
ĠNat Ã¡hla
ĠT iny
Ġf au
Ġre ef
Ġbud ovy
Ġwrit ing
Ġdve ÅĻmi
Ġkro c
Ġost ÅĻÃŃ
w as
ed l
Ġnew s
Ġklid nÃ¡
Ġle Å¾el
ĠpÅĻi chÃ¡zÃŃ
ĠBob ovi
Ġoy ster
Ġb ÅĻ
in ked
ore m
Ġarm chair
Ġnena Å¡li
ĠdÄĽde Äįek
Ġspad nout
n ka
w eb
nes la
Ġhe likoptÃ©
ĠZpo ÄįÃ¡tku
Ġodhodla nÃ¡
Ġmake up
ĠrÃ¡d o
ĠdÃ¡l ky
ĠNat Ã¡hl
Ġv p
ĠpÅĻekvap en
L e
ĠdÃ½ chÃ¡
ĠÅ¡ ok
Ġinvestig ate
ĠoÅĻe chy
Ġsa iling
Ġh avran
Å¡ nÃŃ
ĠbanÃ¡ ny
ĠNe Å¾
Ġmyst ery
i let
ĠkamarÃ¡d kami
b el
b it
Ġod chÃ¡zeli
ĠukÃ¡z ali
Ġcvr li
jÃŃ st
Ġner ad
Ġpist oli
ĠUÄįitel ka
Ġpo kou
Ġtrub ku
ĠvzruÅ¡ujÃŃ cÃŃho
Ġspad ne
Ġpokla dy
ĠhÅĻe ben
Ġmim o
Ġcher ries
Ġco st
Ġcri b
ĠJo sh
ĠÄĮ ek
Ġunif or
Ġex erc
ĠvytÃ¡ hnout
ĠB Ã¡l
Ġtru hlu
ĠpotÅĻeb ovali
rÃ¡ p
Ġfau cet
Ġchy stala
Ġrovnov Ã¡hu
was her
Ġwor th
ĠdalÅ¡ÃŃ ho
oho d
ĠKrÃ¡lÃŃ Äįek
Ġspla shing
ĠÃºtes u
Ġfial ovÃ½
Ġraket a
Ġd ome
ĠJe Å¡tÄĽ
ap ar
Ġk luz
Ġpre vent
Ġlep ka
ĠV racejÃŃ
ĠPom oc
Ġcolle cted
Ġmen u
Ġop raven
Ġch im
ĠobÄĽ du
ĠAn ne
Ġspray ed
Ġje vi
Ġqu ack
ĠoblÃ© kl
Ġujist it
chÃ¡z elo
Ġag re
To gether
ĠzaÅ¾ ÃŃt
ĠPÅĻedstÃŃ rajÃŃ
Ġmagaz ine
Ġmlad Ã½
Ġappla ud
Ġjmenoval o
Ġpres ents
Ġwag s
ĠmotÃ½ ly
Ġcob web
ĠsvaÄį iny
s hes
Ne xt
Ġn alo
Ġresp on
ĠkvÄĽt inÄĽ
Ġhappen s
ĠBet ty
ĠBenny ho
ĠÅ¾iv Ã½
ĠKam koli
Ġdish washer
Ġostra Å¾it
Ġneroz um
Ġpochop ila
z li
Ġoble k
Ġpla vÃ¡nÃŃ
Ġchce me
ĠpÃ¡ nev
Ġkre vet
ĠobÄĽ ma
Ġj ÃŃm
Ġen tered
Ġokou zlu
ÃŃv al
Ġmo Å¾
ĠoÅĻe ch
ĠrozzÃ¡ ÅĻila
Ġvan ÄĽ
ĠpÅĻemÃ½Å¡ let
Ġin v
i pping
ĠbÄĽ Å¾
Ġb lou
Ġte ar
Ġcast les
Ġso p
v Ã¡m
ĠChce me
ĠV ÃŃm
Ġscold ed
ĠÅł p
Po Äįkej
Ġve il
Ġshru gged
ch ran
ĠJohn ovi
Ġposkak ovat
ĠÄį in
Ġzn ud
Ġsepar ate
Ġbrat rovi
Ġobdiv ovala
.. .
C hla
ĠzÃ¡ ÅĻila
Ġost rÃ½
ĠprÅ¯Å¡vi hu
ĠobÄįerst venÃŃ
ĠpÅĻid ala
Ġnejlep Å¡ÃŃm
Ġwe igh
Ġbar va
Ġstran y
Ġpopul Ã¡rnÃŃ
ĠtrojÃºhel nÃŃk
ĠkterÃ© mu
Ġto ilet
Ġzkou Å¡et
Ġnakres lila
Ġche ss
Ġobrov skÃ¡
c lo
Ġjazy k
Ġod liÅ¡
is on
ĠdÅ¯leÅ¾it Ã¡
ĠsloÅ¾ ku
Ġr ake
Ġza j
ĠnelÃŃ bil
Ġcabin et
ĠvelkÃ½m a
Ġten hle
Ġneud ÄĽl
Ġar gu
Ġk lob
Ġmil ovat
Ġmod lit
Ġzkoum ala
ĠpouÅ¾ÃŃv al
ĠpÅĻedstav ivost
Ġchlupat Ã©
Ġblanket s
tÄĽ lo
ĠÄįer v
Ġhon il
ĠMÄĽ sÃŃc
Ġhad ÅĻÃŃk
Ġtu cked
Ġzap omnÄĽli
ĠNÄĽ co
Ġkle ci
ĠÄįep ice
hlÃŃ Å¾eli
hov ala
Ġklobou kem
in ami
Ġignor ed
a Å¾
Ġkres l
Ġmin cÃŃ
B udu
Ġkres by
l omil
O k
ine c
ĠÅ¡tÄĽ ÅĪ
Ġtep lÃ¡
Ġpastel ku
Ġroz hlÃŃÅ¾el
Ġzaslech l
Ġchim ney
Ġlawy er
ĠU cÃŃt
Ġcoat s
Ġs ince
ĠDÃŃv ali
Ġkiss es
Ġcand les
Ġdrak em
Ġclass room
ĠtvÃ¡ÅĻÃŃ ch
k rÃ¡t
Ġob avy
ovÃ¡ n
Ġatt ach
ĠCla ire
Ġvz dy
Ġpudd les
Ġpos lat
Ġhop es
ĠÅ¡pl hat
ĠsbÃŃ ral
D an
Ã½ skalo
Ġvoz ÃŃ
Ġfollow s
Max i
Ġop ici
ĠUvÄĽdom ili
Ġnem Ã¡m
Ġy i
Ġeas ily
ĠstÃŃ nu
Ġap art
ĠT illy
Ġodlet ÄĽt
at y
ĠZ OO
Ġos u
ÅĻÃ¡s l
ĠVzp omnÄĽla
Ġu hlÃŃ
Ġbee f
ĠZav ÅĻela
Ġpaml sek
ĠkbelÃŃ ku
ĠPo loÅ¾ÃŃ
ĠH oup
ĠÅ¾ ralok
Ġhous enka
Ġtles kala
Ġchut nÄĽ
Ġchair s
ĠnepÅĻi Å¡el
Ġsn ap
Ġvl nu
ĠzvÃŃÅĻat ech
Ġburn ed
ĠS koÄįil
o lÃŃ
Ġb Ã¡li
Ġbot her
ej te
ĠJ el
Ġryb Ã¡ÅĻ
Ġprom iÅĪ
Ġchlad nÃ½
Ġle tting
Ġu zel
Ã ļ
ĠzaÄį ÃŃnÃ¡
Ġkamen em
ĠplyÅ¡ ovÃ½m
ĠNe xt
ĠDr Å¾el
Ġd em
Ġvyd Ã¡
ĠÃº do
hlÃŃ d
ĠS bali
Ã¡m hle
Ġcar ing
ĠjÃŃzd u
Ġnevzd al
¸ ı
ï ¸ı
ichot ala
Ġcan e
Ġto to
Ġdress ed
Ġautob usu
Ġjed ÃŃ
Ġfot o
Ġstra ight
ĠpeÄį ivo
Ġtrust ed
Ġen ter
ĠÅ¡ed Ã½
Ġacce pt
Ġtak ovou
ĠkrÃ¡lÃŃ kovi
Ġte lep
Ġzmrzl iny
ĠChy t
Ġveterin arian
Ġkolo bÄĽ
ĠkoÅĻ enÄĽ
Ġne us
Ġw ard
ĠBu bbles
Ġh lou
Ġsi zes
ĠrÃ¡di o
Ã¡ ve
ĠÅ¡ amp
ĠPod ÄĽli
Ġdokon Äįila
Ġm luvil
stoup it
Ġk Ã½m
ĠO de
ĠvÄįel u
Ġp Ã¡n
Ġsli ce
ĠdÅ¯leÅ¾it Ã½
ĠVys vÄĽt
Ġlangu age
Ġzran il
Ġbl inked
Ġzlob it
ĠtÅĻÃŃlet Ã©
ĠLil u
Ġslu Å¡nÄĽ
ed e
ra ged
ĠDouf Ã¡m
trat ila
Ġsi gh
Ġmas ku
Ġr ise
Ġjewel ry
Ġpot re
ĠzÃ¡ stÄĽ
Ġzam r
Ġnevr lÃ½
ĠÅ¾vÃ½ka Äįku
Ġpla nes
ĠhÅ¯l kou
ĠdÄĽ si
ĠZ oom
ĠLu lu
Ġvola l
Ġdovol enou
Ġward robe
Ġp ill
Ġd are
ĠkÅĻÃŃd lo
Ġap ron
Ġre qu
Ġpr ut
Ġshow er
Ġkeep ing
Ġvyd Ã¡vat
ĠLily iny
Ġo ak
ĠI s
ĠZam Ã¡val
Ġjezd ila
Ġzaz von
Ġmiss ile
John ny
Ġtle skat
Ġsk ryt
ĠÅĻe tÄĽ
Ġfot ky
ĠrodiÄį Å¯
Ġcross ed
ĠPÅĻi stoupil
Ġla wn
ĠM ad
ĠLÃŃ bil
ĠzaneprÃ¡zdnÄĽ nÃ½
ov anÃ½
Ġnewspap er
Ġdivok Ã©
ĠpÅĻi stoupil
Ġtelep hone
Ġdokon Äįil
ĠO tec
Ġod nÃ©st
Ġkra j
Ġcla ws
Ġvesel ou
Ġzdrav Ã¡
Ġpro jet
Proto Å¾e
Ġnov iny
Ġwhis per
ĠvyprÃ¡ vÄĽt
st y
Ġtr ade
Ġpit ÃŃ
Ġnebud ou
Ġpuzz les
Ġr om
m end
I s
ĠÄįas opis
Ġ Y
Ġv Ã¡h
Ġhor kou
Ġroom s
Ġfoto apar
ĠnÄĽk ter
st ÃŃm
Ġg ym
Ġvla ku
vid ÃŃme
Ġmr z
ĠChy til
Ġpo ÄįasÃŃ
ĠnemÅ¯Å¾e te
Ġtaj nÃ©
ĠmuÅ¾e m
ĠpÅĻip omnÄĽla
Ġh nÄĽ
Ġoce Ã¡n
Ġinc re
ĠVÅ¡ em
Ġh lÃ¡
ĠSus an
Ġoble Äį
ĠPr inc
rad l
Ġenerg ie
Ġtorn ado
v edn
ch Ã½
Ġob Ã¡lku
Ġodp la
er ou
Ġob Äįas
Ġtvrdohla vÃ½
Ġst able
ĠÅ¡pat nÃ¡
Ġex am
Ġbook case
Ġpe ÄįenÃŃ
ĠnecÃŃt il
k Ã½mi
ĠzpÅ¯sob ilo
Ġty Äį
Ġama z
ĠÅ¡tÄĽ stÃŃm
g y
Ġmou ku
Ġbo ku
u me
Ġpro je
B ude
ĠzaÄį nou
ĠnÃ¡ stro
Ġamaz ement
li er
Ġblueber ries
Ġm Ã¡vala
ĠSpo tem
Ġnez astav
Ġna Å¡
Ġzkus ila
P ÅĻ
ad le
J ake
ĠZ hluboka
Ġpodiv nÃ©
Ġc ell
ĠÅĻed k
he lf
ĠSt oup
or ted
Ġsquee zed
Ġnakr mit
Ġod ej
Ġbooks helf
Be cause
ĠÅłÅ¥ ast
Ġp Ã¡d
Ġrec om
S us
Ġhled Ã¡
Ġkaka o
ĠvystraÅ¡en ÃŃ
Ġrecom mend
Ġcr as
ĠbÃ¡je ÄįnÄĽ
Ġpos p
Ġje ÅĻÃ¡b
Ġval ley
Ġsp ala
ĠÅ¾Ã¡ rov
ĠvÃ¡ Å¾it
ĠStar Ã½
ampo o
ĠvÃ½Å¡ ky
ĠS ad
Ġr Ã©
Ġsub way
Em ily
Ġtan ÄįÃŃ
Ġprav da
s ala
T ed
ct ions
Ġra zor
Ġsn il
i ved
Ġchlapce m
Ġp ÃŃt
Ġrad u
Ġsed li
Ġmin t
Ġtelev ision
Ġsil nÃŃ
og raf
ĠvzruÅ¡en Ã½
ĠJess ie
ĠdÅ¾ÃŃ p
' .
nÃŃ ky
Ġrequ est
Ġkla vÃŃ
n ily
ĠblÃŃÅ¾ ÃŃ
ĠH Ã¡
Ġsm Ã¡ly
Ġch Ã¡p
Ġcrawl ing
Ġsund at
Ġpo ked
Ġbarev nÃ¡
Ġsed adlo
Ġslo na
lov al
Ġpast i
ict ion
ĠbÅĻ icho
Ġpamat oval
Ġkoh outek
om es
Ġzatles kala
Ġsquee ze
Ġfollow ing
ĠHel p
Ġc row
ĠokamÅ¾ ik
Ġblou se
Ġno sem
Ġkla ck
Ġpos adila
ĠSly Å¡el
Ġroz s
Ġspe ar
Ġkrab ic
Ġdokon Äįili
Ã¡ ci
Ġvlas Å¯
o Äįila
Ġhlad kÃ½
Ġrobot a
Ġchut nalo
ĠSpot ovi
Ġli cks
Ġgr ill
Ġfi le
er o
Ġc acht
Ġholi day
hov al
Ġhor kÃ¡
Ġzept ali
ĠpotÅĻeb ovat
Ġtyg r
Ġste am
ĠlÃ©t ajÃŃ
ĠzÃ¡pad u
ĠNe vidÃŃ
Ġdem and
Ġlu mber
Ġde lay
Ġbrokoli ci
iction ary
gg ing
Ġto bÄĽ
Ġse rve
ĠzmÄĽ nit
ÄĽ le
fort unately
Ġro w
Ġry t
ĠprostÄĽ rad
Ġcli ff
ĠhlÃŃ nou
Ġim med
Ġost r
Ġring ing
Ġtab uli
Ġfaz ole
ĠstÄĽ ny
Ġv Ã¡le
Ġribb on
Ġperf ume
ĠÅ¾ ab
iÄį ce
Ġsh ampoo
Ġqu iz
ĠspÅĻÃ¡te lili
ĠJedn Ã©
ĠzaÅĻ val
Ġimmed iately
Ġnej vÃŃ
Ġapp ro
l Ã½m
Ġhelp er
ĠMat t
ĠS ee
M ÅĪ
ĠdÄĽsiv Ã©ho
Ġpad Ã¡
ĠÅĻek ly
ĠmedvÃŃd kem
ĠÅĻ ada
ĠpÅĻedstÃŃ rajÃŃ
Ġu Äįin
ĠNap l
Ġvon ÃŃ
ĠS ant
Ġhlad kÃ©
Äį k
n ami
Ġjin Ã©mu
Ġd ictionary
Ġmel t
Ġgrow led
ĠpÃŃskovi Å¡tÄĽ
Ġdobr Ã½m
Ġis n
Ġwas te
ĠP lÃ¡
Ġves ele
Ġlou Å¾e
ĠStar Å¡ÃŃ
ĠsklÃ¡d at
ĠZak ÅĻiÄįel
i um
Ġbe gged
Ġpod al
ĠkÅĻi k
ĠK ou
U dÄĽlejme
Ġmat ches
ĠAb by
Ġkry stal
Ġvy z
Ġvy fot
Ġb rav
H olÄįiÄįka
c akes
Ġt icho
nÃ¡ ch
Ġide as
Ġwarm th
Ġnest alo
Ġva ÅĻit
Ġlaska vÃ©
Ġno soro
Ġmust ache
ĠmyÅ¡ i
Ġpohyb oval
ĠmyslÃŃ Å¡
ĠzpÅ¯sob it
Ġbird c
ĠÅ¡ anci
le ÅĪ
ĠÃºdo lÃŃ
ĠvÃŃ ko
up s
ĠknoflÃŃ ky
Ġsnee ze
Ġstud enÃ©
Ġinv ite
Ġd la
ĠrÃ¡ nu
h ic
ĠkabÃ¡t y
Ġatrakt ivnÃŃ
Ġvyraz it
Å¡ lÃŃ
ĠvÅ¡e ho
ĠÅ¾vÃ½ kat
r alo
ind a
Ġzlep Å¡it
Ġve hic
Ġpev nost
Ġpod ep
ĠNep os
Ġode h
Ġje hlu
Ġod skÃ¡
Ġumy v
ĠzÃ¡ ÅĻÃŃ
ĠK ing
Ġzved ne
Ġal right
ĠdÅ¯leÅ¾it ÄĽjÅ¡ÃŃ
Ġom ot
Ġg ear
ĠkÅĻe slo
Ġf lut
ĠJ uli
Ġkr k
ĠuÅ¾ite ÄįnÃ©
Ġrabbit s
Ġbirdc age
Ġwe ep
Ġchla peÄįek
ĠMus ÃŃ
ĠhÅ¯l ku
Ġornam ent
Ġde st
Ġb erry
Ġfu el
ĠvÃ½ ro
Ġmar ried
uck ily
ed li
ĠpÄĽk nÄĽ
r ky
ic a
Ġrestau race
ĠHo ppy
St Å¯j
Ġse tt
ĠhnÄĽd Ã¡
Ġte xt
Ġpovzd echla
ĠlÃ© tÃ¡nÃŃ
Ġc ent
Ġzapla vat
ĠdÃŃ ra
Ġh ovÄĽ
Ġp ali
Ġfall en
Ġospal Ã¡
leÄį na
Ġzakop l
Ġst aly
Ġv Ã¡hu
Ġu has
arm el
Ġblo od
Ġc alend
Ġhroz ny
Ġdovo lila
Ġcr ash
ĠÄįer nou
Ġdlouh Ã½m
Ġpro p
Ġpostav ÃŃ
ĠP et
Ġnov el
Ġroz dÄĽ
ĠPokraÄį ovali
ĠÅ¾el va
ich u
Ġra il
Ġo Å¡tÄĽ
ÃŃv ala
Ġzav az
ĠSkÃ¡ kal
ĠrodiÄį i
D id
Ġvl na
Ġw igg
Ġle Å¾ÃŃ
Ġvrt ÃŃ
Ġm armel
Ġpast ry
Ġletad lem
Ġnebo jÃŃ
Ġtom to
ĠpokÃ½v ala
Ġlux us
Ġsil nice
ĠvzruÅ¡en ÃŃm
Ġuk ryt
ĠnezÃ¡vis lÃ¡
Ġworm s
ĠotÃ¡z ku
Ġhmy z
Ġrostl inu
Ġmat eri
Ġprozkoum al
Ġvy chÃ¡zÃŃ
Ġz u
Ġbrav ely
Ġbel ow
P e
ĠÄį em
ĠD cera
Ġkne el
Ġpozor nost
Ġzt icha
ĠohÅĪost roj
ĠÅ¡ed Ã¡
Ġstru cture
ĠK e
kÃ¡ ÅĻ
Ġtv Ã½m
as is
Ġnemoc nÃ½
Ġwand ered
M ark
Ġsurpr ises
Äį nice
ĠdÃ½ nÄĽ
ĠPr vnÃŃ
W ill
Å¯ soby
Ġro t
ĠH ad
Ġzp Å¯soby
Ġimp rove
Ġref res
Ġunderstand ing
Ġp ages
h Å¯ru
Ġpar f
V raÅ¥
Ġli mon
Ġpas te
Ġlaugh ter
Ġhurt ing
Ġroz Å¡ÃŃ
ĠZ niÄį
Ġdi re
ĠnÃ¡dher nÄĽ
in ku
Ġo asis
Ġcalend ar
Ġwh ip
Ġair pla
ĠPÅĻedstÃŃ rali
Ġinkou st
Ġhod not
ra jeme
Ġdra in
ĠZ e
Ġveliko stÃŃ
ĠodpoÄįÃŃv at
Ġ Ãļ
Ġtlust Ã½
Ġkoh out
Ġna lez
Ġhear ts
ĠnechÃ¡ pala
Ġch ip
omed ay
ĠdalÅ¡ÃŃ mi
Ġlet iÅ¡tÄĽ
ĠO mlouvÃ¡me
ĠpÅĻÃ¡tel Å¡tÃŃ
ĠzÃ¡ ÅĻit
uc hem
ĠVypad ala
ĠÄįer nÃ¡
Ġth r
V ez
P eter
ĠSed ÄĽli
Ġm aÄį
Ġit em
ĠW ho
ali la
ĠpÅĻe vr
Ġfot ograf
ĠoÅ¡kli vÃ©
Ġzak ous
ĠÄĮer ven
one s
ĠpÃŃÅ¡Å¥al ku
or al
ĠNej si
ĠT ÅĻe
Ġpom alÃ½
dÄĽ nÃŃ
ĠK oup
Ġmatem ati
ĠH annah
ĠskuteÄį nosti
Ġfire f
Å¡ Ã¡k
ĠstÅĻe chu
ĠRozlou Äįil
ĠpenÄĽÅ¾ enku
Ġprom ÄĽ
ĠprÃ¡zd nÃ½
Ġavok Ã¡do
Ġsaf ety
Ġvz hÅ¯ru
Ġk a
ĠÃºk ryt
ĠS mit
Ġre aches
Ġbu ried
rd ÃŃ
ĠF o
Ġadm ir
U h
Äį iny
ĠvÄĽ ÅĻit
Ġm Ã¡vali
Ġpo ho
Ġhlu ÄįnÃ½
Ġbat he
Ġvar ovala
Ġty to
Ġhloup ÃŃ
Ġsest ry
b ers
an ger
Ġbra la
Ġcap tain
Ġjed ou
Ġkabel ku
Ġk Ã½
Ġu vÃ¡z
ĠÅ¡Å¥ ouch
Ġbuck le
Ġnej v
ĠbÄĽh ajÃŃ
ĠpleÅ¡ atÃ½
nÃŃ kem
Ġstrawber ries
Ġlou ku
' ve
Ġop er
Ġrelax ed
Ġsuch Ã©
Ġmys elf
Ġst Ã¡lo
Ġsandcast le
Ġpo rt
ĠZept ali
ĠPomÃ¡h Ã¡
ti vÄĽ
Ġsk ills
ĠKaÅ¾d ou
Ġigno re
Ġnaslouch at
ĠzÃ¡v oj
ĠÅ¡per k
Ġhist or
ov ed
Ġpla tes
ĠPo loÅ¾ili
Ġta hat
Ġchlad nÃ©
Ġcuk ru
Ġgr il
Ġvtip y
Ġraj Äįe
Ġ 1
ĠSpo te
W elcome
rÃ¡ d
Ã¡ jemnÄĽ
ĠÃºst ech
Ġscrat ch
Ġmom ents
Ġas ht
Y uck
Ġsp ade
Ġl Ã¡tku
Ġb ang
Ġob r
Ġobdiv ovali
Å¯Å¯Å¯Å¯ Å¯Å¯Å¯Å¯
Ġrever se
Ġh ÅĻ
is ing
ĠZ Å¯st
Ġoprav il
Ġtich Ã©
Ġuklid ila
Ġpohodl nÃ©
Ġskup ina
ĠkoÅ¥ Ã¡tko
ĠPÅĻi stoupila
Ġvyt is
ĠkvÄĽ tÃ¡k
Ġmeda ili
ĠO nce
ĠT les
ĠhrÃ¡ lo
ĠkrÃ¡s u
ĠoranÅ¾ ovÃ©
Ġmys let
Ġtri ky
Ġkuku ÅĻici
i ka
Ġutr hnout
Ġhad r
ĠÅ¡p end
Ġdo vedn
ĠPt ajÃŃ
ic ing
Ġla bor
ĠhlÃŃ nÄĽ
ĠlÅ¾ÃŃ ce
Ġkres lÃŃ
Ġb lÃ¡z
ĠkÅĻe s
ri ger
Ġbo rov
Ġkor nout
Ġrozzlob il
Ġnaps at
Ġsc ore
ĠgarÃ¡ Å¾e
c hem
ĠÅ¾ up
Ġbe amed
Ġra ise
Ġref riger
Ġsn apped
ĠP Å¯j
Ġokouzlu jÃŃcÃŃ
Ġdo Å¡la
ĠdÅ¾ ungle
Ġbludi Å¡tÄĽ
Ġs omeday
Ġko pci
i vÃŃ
ĠpÅĻe sto
Ġpochut nali
ĠStÅĻÃŃd ali
ĠnÃ¡ kup
r is
Ġpod no
Ġporan il
rov al
Ġrefriger ator
Ġj unk
Äį kami
Å¡et ÅĻovat
Ġrece ived
Ġh udeb
Ġpomoh lo
Ġdelf ÃŃn
Ã© le
Ã© f
Ġasht ray
Ġear lier
Ġl v
Ġohrom enÃ½
ac ob
Ġhlubok Ã©
Ġv ac
ĠzpÃŃv ajÃŃ
ĠumÃŃ st
rov ala
Ġhar bor
nut Ã½
Ġhad ici
ĠK de
Ġma Å¡li
Ġwe ap
ÅĻ ka
ĠstÅĻÃŃd ali
la Äį
Ġteach ing
Ġcel Ã¡
ĠPe ople
ĠZap omÃŃnajÃŃ
Ġm ass
ĠVy Å¡el
Ġzap l
Nem Å¯Å¾u
Ġodp ustit
Ġpo chopil
Ġli Å¡ku
ri st
ĠB Ã¡la
Ã¡v ku
ĠpolÃ©v ka
Ġskute ÄįnÃ½
Na Å¡el
ÅĻe jÅ¡ÃŃ
Ġpal m
Ġposlu Å¡nÃ½
Ġbav ily
Ġku p
Ġdop ÅĻedu
Ġsa ving
Ġmagick Ã©
ĠDost al
ĠdrÃ¡ py
Ġk alend
ap ed
Ġvan ished
ĠOto Äįil
Ġpod po
Ġspark ling
ĠvznÃ¡ Å¡el
ĠnÃ¡ru ÄįÃŃ
Ġinsist ed
ĠuvÄĽdom ili
Ġjednod uch
st ers
ĠJe ff
Ġspot s
Ġgum u
ĠCar l
ĠtalÃŃ ÅĻe
Ġchyt rÃ©
Ġbump ed
ĠlÃ¡ skou
ĠnevrÃ¡t il
Ġodst ran
Ġso cks
ĠzpÃŃv Ã¡
ĠdÄĽde Äįka
i ence
ĠpÅĻed vÃ¡d
ĠIt s
Ġt mÄĽ
Ġth umb
g ie
ÅĻe s
Ġvyro ste
ĠoranÅ¾ ovou
ĠsdÃŃle li
ĠzaÅ¾ ili
m iss
Ġbar vou
Ġp ruÅ¾
ĠkÅĻ up
ĠAd am
Ġochut nala
Ġkakt us
Ġslad ce
p li
Ġhlub okÃ¡
Ġdos Ã¡hla
ĠpÅĻÃ¡tel skÃ©
Ġli met
ĠD om
Ġsklen ice
ĠNe vidÄĽli
Ġd ried
ĠvÃŃt Ã¡ni
ĠS n
Ġh ub
ĠNelÃŃ bÃŃ
ĠPokraÄį oval
Ġvesel Ã©
Ġprep are
ĠpÅĻiblÃŃÅ¾ it
Ġrozma zl
Ġto es
Ġjew els
en ky
ĠpomÃ¡h ajÃŃ
Ġom luvila
Ġpale c
Ġnoh a
miss ion
Ġodnes li
Ġblack board
ĠrÅ¯z nÃ½mi
Ġspend ing
ĠVzp omnÄĽl
Ġv in
Ġscat tered
ĠsvÄĽ Å¾ÃŃ
ĠBe fore
av Ã©
Å¡tÄĽ nÃŃ
lÃ½ sk
Ġscoop ed
Ġsett led
Ġb ak
Ġro ste
Ġte ase
ĠskÃ¡ Äįe
ĠnabÃŃd la
Ġta x
ĠÃºÅ¾as nÃ¡
Ġtan Äįil
Ġper mission
ĠdÃ¡v ali
Ġve Å¡li
Ġpap ri
Ġvysko Äįit
PromiÅĪ te
Ġspark le
ed la
ĠT ÅĻÃŃ
Ġmraven ce
ĠvypadajÃŃ cÃŃ
!" ,
Ġkno wn
ct ly
an ÃŃm
Ġbreat he
Ġzmrzl in
Ġo Ã¡
Ġk vÃŃ
ha z
Ġpotrav u
Ġpot ichu
Ġzlob ivÃ¡
Ġtro chou
Ġm oz
ĠvÃ½ z
Ġyawn ed
Ġb iÄį
ĠtovÃ¡ r
Ġnezap adlo
Ġp Ã³
ru mb
ĠstrÃ½ c
ĠZ kus
Ġkrab a
Ġpo ppy
ĠskoÅĻÃ¡p ku
lo st
ick Ã©
ĠpÅĻe Å¡la
Ġa chie
W ith
Ġnes ouhlas
Ġwaff le
ĠhovÄĽ zÃŃ
Ġpozorov at
Ġdestroy ed
Ġs imp
Ġobej mou
ol Ã¡
Ġbro sk
ĠÅ¡p iÄį
Ġflo at
ĠZaÄį nou
Ġrep lace
ĠdÅĻe vÄĽ
Ġodved la
Ġknihov nu
ĠjezÃŃ rku
ĠHod il
ar ky
Ġoff ic
Ġdeset i
Ġubrou sek
Ġdouf ala
Ġpot ok
ĠbÃ¡ seÅĪ
tÃ¡ hla
Ġtelefon u
Ġhard ly
ĠP rÃ¡vÄĽ
ĠVy h
ĠJedn a
m es
Ġskrom nÃ½
Ġpo loÅ¾ÃŃ
ĠkartÃ¡ Äį
Ġvyh rÃ¡la
Ġpaste lek
Ġob tÃŃ
Ġbund u
ĠMom o
Ġklob Ã¡s
Ġkrab icÃŃ
Ġlabor ato
Ġsobeck Ã¡
Ġzd ravÃŃ
Ġbath robe
igh ter
Ġzav ÅĻÃŃt
Ġd no
ĠnecÃŃt ila
Ġencou raged
Ġnik omu
Re ady
Ġpokus it
Ġja il
mi la
Ġtla Äįit
okÃ¡z ali
ĠmyÅ¡ len
Ġdos Ã¡hl
ĠspÅĻÃ¡te lit
Ġznam en
Ġs ovu
ĠÅ¡tÄĽ tec
ĠvyÅ¡ Å¡ÃŃ
o Å¾
al Ã³
Ġdecor ations
ĠpokÃ½v al
ĠvÄĽr nÃ½
klo p
Ġlemon ade
Ġosob a
Ġpr ide
Ġpozdrav il
Ġrem ove
Ġsamo lep
Å¡ kou
Ġpull ing
Ġpozor uje
Ġh anger
Ġchlupat Ã©ho
ĠNem ajÃŃ
d ob
ĠH ave
ĠD olly
ĠpÅĻi stoupila
ĠkrÃ¡ t
Ġsit s
Ġvoj Ã¡k
ĠD Ã¡vajÃŃ
Ġtri k
ĠkoÅĻ en
ĠvesmÃŃ ru
od nÃŃ
ĠtÅĻÃŃ dy
ĠVy bÄĽhl
Ġcudd led
Ġna dÄĽ
ĠL izzy
ĠN ina
ĠPÅĻ id
od povÄĽ
d ÅĻÃŃv
ĠplÃ¡ nu
Ġmel od
ĠJed li
Ġneb udu
kro vÃŃ
ĠhlÃŃ nu
fou kl
Ġd aisy
ĠsemÃŃn ka
Ġh ate
Ġbean s
Ã¡l ka
Ġkop ali
Ġva ÅĻila
Ġzach yt
Ġnej Ãº
Ġdro b
Ġsr sti
Ġdrah Ã¡
ĠSdÃŃ le
ĠdobrodruÅ¾stvÃŃ ch
ĠzahlÃ©d la
S ame
Ġrespon si
ĠpÅĻeÄįet la
SÃ¡ ro
Äį en
Ġmo ÅĻ
Ġbot u
Ġlicen se
Ġex ist
Ġnep om
Ġzak ry
ĠzÃŃ skal
Ġchlupat Ã¡
ĠKrÃ¡ va
ĠDouf Ã¡
ĠVl k
ĠMraven ec
Ġrozhod nutÃŃ
Ġce ler
Ġob vyk
Ġprod at
lÃŃ ch
Ġchirp ing
ĠsluneÄį nice
Ġjem nÃŃ
ĠNe vÃŃ
Ġpra ised
Ġkla ks
ĠvajÃŃ Äįka
lov ou
Ġhit s
ĠcÃŃ le
Ġzam ÃŃ
Ġpod ÄĽl
ĠPÅĻi p
Ġznepokoj enÃ¡
Ġnemus ÃŃ
ĠP inky
ant ly
Ġstav ÄĽli
Ġsuff er
Ġpatient ly
ĠzmÄĽ ÅĻit
rac el
ĠsvÃŃ Äįku
s ity
ĠkterÃ½ ch
Ġbuzz ing
Ġnez aÄį
Ġb li
ĠK res
Ġm ention
ĠpÅĻi vÃ¡z
ĠRoz bÄĽhla
Ġfas test
ĠZav ÅĻel
Ġnejv yÅ¡
Ġe qu
Ġb ÅĻi
Ġkoup ÃŃ
Ġdress es
Ġk utÃ¡
Ġod jel
bb ie
Ġone moc
ĠÅ¡tÄĽd rÃ½
Ġw iz
ĠpolÃ©v ky
Ġr hy
Ġpoklad em
Ġcarto on
Ġp ÄĽ
ĠzÃ¡bav nou
Ġjin Ã¡
ĠvydÄĽÅ¡en ÄĽ
Ġprozkoum ala
ĠzajÃŃmav Ã½ch
Ġpou Äįil
Ġautomob ile
Ġspra vedli
Ġw ob
Ġble ed
ĠlÅ¾ iÄįku
Ġappreci ate
ĠpÅĻip ravit
Ġpohyb ovala
ĠpanovaÄį nÃ¡
Ned ÄĽlej
Ġm luvili
Ġvyp ÃŃna
Ġdest ination
Ġh omes
Ġtal ler
Ġkoc ou
ĠT w
Ġn ation
b i
le skal
Ġd Å¾em
Ġg lit
ĠneodpovÄĽ dÄĽl
ri kÃ¡
ÅĻÃŃ z
ĠtrpÄĽli vÃŃ
Ġp Ã¡ch
Ġlab el
Ġvidli Äįku
Ġod jeli
f ied
ĠsvÃ½m a
Ġd igg
Ġo zna
ĠÃºÅ¾as em
ĠpoÅĻÃ¡d nÄĽ
ĠNak res
av ÄĽ
ĠomÃ¡ Äįku
ĠL inda
Ġjin Ã½ch
ĠB ou
ĠÅ¡ Ã©f
Ġhru b
v ila
Ġw ine
ĠZav rt
ĠskÃ¡ kÃ¡nÃŃ
Ġpohy bu
ĠzÃŃ s
ĠV lak
Ġmal l
ĠdÃŃv ky
Ġpo Å¡Å¥
Ġpohy buje
Ġna jÃŃst
Ġle hl
Ġclimb s
Ġno ne
Ġpl nÃŃ
Ġbelie ved
ĠVy lezl
Ġroz ves
Ġwas hing
Ġvy bav
Ġle an
Ġkre v
Ġzad nÃŃ
Ġpass port
Ġdigg ing
M Ã¡me
Ġsho t
Ġhe sit
Ġna Å¡ÃŃ
ĠV aÅ¡e
Ġna lep
Ġinf ant
Ġote vÃŃ
ĠVy Å¡la
Ġhlu ÄįnÃ©
Ġappro ached
Ġfale Å¡
Ġpla vali
ĠjÃŃ zdÄĽ
Ġslav nÃ½
Ġspo il
Ġpohov ku
Ġudr Å¾el
at ch
ho o
Ġdeep er
ĠOprav du
Ġne hod
ĠzajÃŃmav Ã©ho
Ġu cha
Ġpro per
vÃŃ zd
Mil uji
Ġdouf al
ĠZ nÄĽlo
ĠÃºspÄĽ Å¡nÃ½
ĠdÄĽs ivÃ¡
Ġkous la
Ġo mlouvÃ¡m
ĠSnÄĽd l
Ġto re
ĠM oje
Ġleg raci
Ġveterin Ã¡ÅĻi
Sus ie
Ġnezmi zel
m eme
Ġt our
Ġla p
Ġbarev nÃ½mi
Ġcham ber
ĠPÅĻi kÃ½v
Ġup e
Ġsuch Ã½
ĠSu zie
M alÃ½
ĠobyÄįej nÃ½
lÃŃÅ¾ il
ĠuÄįite le
Ġprom luvit
Ġm itten
Ġod chÃ¡zÃŃ
ĠautÃŃ Äįka
ĠVyd al
ĠsluneÄįnÃŃ m
Ġhlad ovÃŃ
Ġher s
li ly
rÃ¡ nil
Ġhlasit Ã½m
ĠjÃ¡m u
z em
ĠNeby lo
ĠD Ã©Å¡Å¥
Ġstrugg ling
Ġdodr Å¾ovat
Ġrest ore
ĠmyslÃŃ m
Ġpolib ek
ĠT ro
Ġdiffer ence
Ġble sk
Ġto ng
Ġobdiv oval
Ġlah viÄįku
Ġpoto ka
ĠK do
Ġbat oh
Ġzkoum al
Ġsaus age
Ġkar ty
Ġhe at
ĠMyslÃŃ m
ĠpohÃ¡d ku
Ġpun ish
Ġpillow s
Ġk men
Ġhill s
Ġtong ue
ĠU vidÄĽli
Ġhur ric
ĠZavola la
Ġzat la
Ġdiv okÃ¡
ĠodvÃ¡ Å¾nÃ¡
Ġsnee zed
ĠkaÅ¾d Ã½m
Ġzam Ã¡vali
Ġne k
ĠrÅ¯Å¾ i
ad ÃŃm
Ġwiz ard
A ll
Ġbra in
ĠÅ¡tÄĽ kat
ĠmÃŃ chÃ¡
ĠJack ova
ĠZÅ¯ stal
Ġd Ã©le
Ġsest ÅĻe
iv it
ĠtÅĻe Å¡nÄĽ
Ġsupp ly
ĠVyt vo
Ġvyd aly
Ġprov ide
ĠpÅĻÃ¡tel sky
m al
ĠE ach
Ġned os
Ġdo cela
Ġcibu li
Ġaw e
Ġdiscus s
Ġpo Äį
Ġte as
Ġthr illed
MÅ¯Å¾e te
Ġvar ovÃ¡nÃŃ
ut ÃŃ
Ġsrdce m
Ġwarn ing
Ġup stairs
Ġpoz vÃ¡
! '
ĠpÅĻedstav ovala
Å¡ k
Ġvyd Ã¡vala
Ġpan ic
ĠJohn son
kal y
ĠotÃ¡z ek
Ġtu Å¾ky
Ġk vÃ¡
Ġtwist ed
N ep
ĠB ir
ĠnÃ¡sled ovali
ĠUte kl
Ġle Å¡t
u le
Ġuniver se
Ġzb ran
Ġglow ed
ĠfarmÃ¡ ÅĻi
Ġvz or
ĠÃº Äį
Ġvac ation
Ġroz hlÃŃÅ¾ela
Ġd nÄĽ
Ġvel cÃŃ
Ġpar ts
Ġsuk ni
z al
Ġsol ved
Äį ci
ĠudÄĽl Ã¡me
ĠÄĮ arodÄĽj
sh ip
Ġwor se
p in
ji Å¡Å¥
Ġp au
Ġthe rm
Ġpo ison
iÄį e
Ġje la
ĠslÃŃb it
Ġshe d
Ġby dle
Ġhod nÃ©
Ġnab lÃ½sk
ĠÃºspÄĽ ch
ĠoÅ¡tÄĽ p
u lat
ĠVez mou
Ġhot ovi
Ġnech tÄĽjÃŃ
ĠHo lub
Ġairpla ne
all en
ÄĽ r
ĠpanovaÄį nÃ½
ĠMus ÃŃm
ĠhnÄĽ dou
os ity
Ġse tting
Ġe vent
ĠJak o
ĠmÃŃ su
ĠnÃ¡sled ovat
ĠoÅĻÃŃ Å¡ek
ĠoblÃ¡z ek
Ġodp lu
Ġod ola
Ġko pal
Ġpyt le
ĠjÃŃd le
Ġza Å¡tÄĽ
Ġsam Ã©
ÃŃÃŃÃŃÃŃ ÃŃÃŃÃŃÃŃ
Ġjmen uje
Ġsp Ã¡
ĠnÄĽjak Ã¡
ĠJoh na
H led
ĠVz hlÃ©dl
Ġodpad ky
Ġznud ÄĽ
ĠNev Å¡im
ĠpotÅĻebu jeme
ĠKay la
Ġchod ÃŃ
Ġplay s
Ġpla vou
Ġyi eld
Ġkap es
Ġexamin e
ĠnejÃº Å¾as
Ġh vÃŃzd
Ġran ch
Ġspark les
ĠLu ke
Ġremain ed
ĠZas mÃ¡la
Ġneighbor hood
Ġhurric ane
Ġne vidÃŃ
Ġr ty
Ġv ent
Ġcont ain
Ġflo ated
Ġsp anÃŃm
Ġmi zer
Ġrostl ina
Ġtherm omet
Ġzak opla
Ġch allen
Ġk lub
Ġlo aj
ĠkrÃ¡ li
us Å¥
bÄĽ ji
Å¯ r
ĠJen na
Ġdu hy
Ġne ve
ĠzprÃ¡v u
Ġshoot ing
ĠM ick
ĠNech ceÅ¡
Ġcho res
Ġoran ges
ĠZas mÃ¡l
ĠcviÄį it
Ġfung ovat
ĠpomÅ¯Å¾e Å¡
Ġve Äįera
Ġzastav ÃŃ
Ġsout ÄĽ
igg y
ĠL ove
ĠskÃ¡ Äįou
Ġweek s
Ġtunel u
Ġukliz enÃ½
as iÄį
Ġklid nÃ©
ĠKvÄĽt ina
Ġfung uje
Ġvaf le
ĠNÄĽk teÅĻÃŃ
Ġu vÄĽ
ĠU mÃŃ
ĠoranÅ¾ ovÃ½
Ġzran ila
Ġnapo sled
S lunce
ĠUtÃŃ kali
z ag
Ġz odpovÄĽ
Ġuniver z
Ġuniver sity
ĠnelÃŃ bila
Ġfil my
ĠMax Å¯v
ĠRoz hlÃ©dli
Ġhez ÄįÃŃ
Ġrepe at
ĠEvery day
Ġpain ts
r ise
Ġpra ch
ĠÄįist ou
Ġpamat ujte
ĠpolÅ¡tÃ¡ ÅĻe
ĠH Ã¡d
Ġn alÃ©
Ġnemoc nÃ¡
ov anÃŃ
th m
ĠposbÃŃ rat
ĠmÃŃch ala
Ġrozes m
ĠM art
Ġob klop
Ġbit es
ÃŃ d
ĠzÃ¡ clo
ĠnadÅ¡en i
ĠP ep
ĠnechÃ¡ pal
ĠvzdÃ¡l enÃ©
lou Å¾ÃŃ
Ġd Ã½m
ĠZa h
Ġnej Å¡Å¥ast
Ġthermomet er
Ġinst ru
ĠhÃ¡ zet
ĠnejÃºÅ¾as nÄĽjÅ¡ÃŃ
The se
Ġvystra Å¡it
Ġhlou bÄĽji
ĠoÄįÃŃ ch
ĠPo kus
Ġposp ÃŃÅ¡
Ġv Äįas
Ġu lice
stu je
Ġdiv nÃ©ho
Ġtles kajÃŃ
Ġseb ral
Ġjo gging
ĠvyÅ¡pl hat
Ġfix ing
os ed
Ġflo ating
s kev
Ġbro skev
Ġsupp osed
ĠsedÃŃ cÃŃho
ĠpÅĻekvap enÃŃm
Ġbohat Ã¡
Ġmeas ured
Ġdob ro
ĠPrac ovali
Ġset kala
Ġobru Äį
Ġnaposled y
Ġtv Ã©ho
Ġled u
Ġstad ium
Ġdiv nÃ©
ov ery
ĠhrÃ¡ bÄĽ
ĠsvÄĽt lÃ©
Ġhr n
ĠZastav ila
Ġd uring
Ġsm et
ĠholÄįiÄį kou
Ġgrin ned
Ġv stoupila
Ġj di
Ġodp ustila
Ġsurround ed
ĠH raÄį
Ã½ bor
Ġdych tivÄĽ
ĠstrÃ¡ nku
Ġcher ry
ĠO li
ĠpapÃŃ ry
Ġpa used
Ġsne ak
Nech ci
ĠNe b
Ġpl out
Ġta hali
Ġpono Å¾ky
Ã½bor nÄĽ
ve ÅĻe
ĠbÄĽ hem
Ġskluzav ka
ĠzranÄĽ nÃŃ
v ce
ost ÃŃ
Ġscat ter
om ÃŃnÃ¡
ĠBu Äıte
Ġu z
Ġbr ings
Ġfot ka
Ġsoused a
ĠN am
ĠPrac oval
ĠTommy mu
ĠhÃ¡ Äįek
Ġk y
Ġf ut
ĠPom Å¯Å¾eÅ¡
ĠOto Äįila
Ġmass age
Ġvla ky
ĠhoupaÄį kÃ¡ch
Ġgif ts
Ġpau zu
ĠpÅĻÃ¡tel skÃ©ho
ĠzachrÃ¡ nila
Ġu kou
Ġzaj Ã¡s
ĠZ ab
Ġle ak
ĠJoe ovi
nam en
ĠPo ÄįÃŃt
Ġhroz nÄĽ
Ġspokoj eni
Ġfut ure
ĠpoÅ¾Ã¡d ali
Ġsign s
ĠÄįarodÄĽj nice
ĠOtev ÅĻe
Ġmar bles
Ġmodr Ã©ho
ĠÃºÅ¾as nÃ½ch
Ġsprink les
Ġdal Å¡ÃŃm
ĠSed ÄĽl
Ġrozs vÃŃt
ĠO heÅĪ
Ġcollect ion
ĠnejvyÅ¡ Å¡ÃŃ
Ġteas po
Ġrhy thm
ĠvydÄĽs ilo
M Å¯j
ko ÄįÃŃ
Ġgre y
Ġned okÃ¡zal
ĠsÃ½ ra
Ġs na
Ġvzd uchem
Ġdinosau rus
ĠJoh ne
Ġmem ory
Ġtu ne
ĠklÃ¡d u
Ġbr al
ĠÅ¡ Ã¡lu
Ġkrab iÄįky
Ġp ul
ĠQu ack
N ot
Ġta Å¡ce
Ġt Ã¡mhle
Ġstom ach
ĠÃº lu
Ġbrat rem
em ember
ĠrÅ¯z nÃ¡
Ġwis dom
ĠC indy
Ġtat o
Ġflo od
ĠdobrodruÅ¾ nÃ½
stoup ÃŃ
Ġdisc overy
Ġg ust
Ġvelry ba
F red
W ould
Ġmrt vÃ½
Ġact ually
Ġs eno
ĠMal Ã©
Ġsu chu
Ġno ze
Ġkdyby ch
Ġfant ast
ĠZam Ã¡vala
ĠÅłp louch
Ġbo let
Ġpochout ky
Ġvehic le
Äį inÄĽ
Ġnam o
ĠnÃ¡dher nÃ½ch
Ġvzd al
Ġmajite li
Ġnedost al
Ġli ly
Ġper mit
Ġmoud rÃ©
ĠzvlÃ¡d ne
ĠbabiÄį kou
Ġod loÅ¾ila
ko Äįili
s ili
ĠsemÃŃn ko
ĠNepos louch
Å¡im i
Ġopravd ovÃ½
ĠJ a
Ġbl Ã¡ta
lÃ© pe
ĠG ood
v Ã¡t
ĠpotÅĻebuje te
Ġt ide
Ġgirl s
Ġk Å¯l
ĠB ub
Ġspor Ã¡ku
p ali
ĠPÅĻi st
ĠSant a
Ġve stu
Ġsun rise
ĠmÅĪ ou
Ġzach ichotala
ĠÃº klid
ĠPÅĻi jde
ig zag
ĠOdp ouÅ¡tÃŃm
Äį Ã¡tko
ent gen
ĠlÃ©t ala
Ġkla cÃŃ
ĠdÄĽsi vÄĽ
ĠsprÃ¡v nÃ¡
Ġhled ajÃŃ
Ġodved l
mysle la
Ġzmrzl ina
Ġvez mou
Ġtlust Ã¡
ĠD veÅĻe
Ġbezpe ÄįnÃ½
it Ã¡n
lo nil
Ġit ch
ĠK ar
ĠdÅĻÃŃv e
cho o
Ġmeow ed
ĠvÃŃtÄĽz stvÃŃ
ĠÃºtul nÄĽ
Å¾ oval
Ġnas bÃŃ
k nou
Ġkober ci
Ġz kaz
E l
ĠdÄĽ kujÃŃ
ĠhlasitÄĽ jÅ¡ÃŃ
D ave
ĠTom Å¯v
ĠK la
h dy
Ġelephant s
Ġpr stu
ĠpÃ© Äįe
ĠJ on
Ġstate ÄįnÃŃ
ĠPÅĻi bÄĽhne
Ġshod li
c les
ig i
Ġum ÄĽl
ĠvÄĽ zenÃŃ
ĠprÃ¡d lo
ĠlÃ© ka
ĠÅ¾up an
ĠOm luvili
ĠborÅ¯v ky
Ġchew ed
T weet
ĠplÃ¡ Äį
Ġexerc ise
ĠÃº hledn
d led
Ġu rge
Ġpodno s
ĠMoh u
ĠvÃŃ te
ĠpÅĻim ÄĽt
Ġod hali
Ġrus h
Ġand ÄĽl
Ġja hody
ĠrÃ¡ m
ĠpÅĻÃŃbÄĽh Å¯
Ġpan a
ĠkrÃ¡ vu
Ġmail man
Ġpok ryt
s ku
Ġnep ohod
Ġuk lÃŃ
Ġjed e
Ġob nov
kÃ¡ t
Ġrozzlob ila
ĠzÃ¡pis nÃŃk
h Ã¡nÃŃ
Ġzap adlo
ĠSam em
Ġlu gg
ĠVel kÃ¡
Ġmal Ã½mi
ĠprostÄĽrad lo
Ġb ÅĻÃŃÅ¡
Ġdec ision
ĠtuÄįÅĪ Ã¡k
Ġklou Å¾ou
h aly
Ġd ing
Ġhrad ÄĽ
hod ili
Ġun ite
ĠJ ones
Ġnes m
Ġflexi bil
Ġobser ve
Ġrom Ã¡n
Ġweap on
Ġmajite lem
blÃŃÅ¾ il
Ġledn ici
nam enÃ¡
ĠFluffy ho
Ġgra pe
ĠZkou Å¡el
Ġlugg age
ut Ã½
ĠD od
an Ã©ho
Ġpoh ÅĻ
Ġvy stup
Neboj te
Ġvy bÃŃ
Ġkach niÄį
Ġklouz at
ĠpÅĻipoj ila
ĠoranÅ¾ ovÃ¡
ĠÄįet l
Ġzrc adlo
Ġsc ur
Z kus
ĠN ic
Ġnej lÃ©pe
ĠÅ¾i je
Ġse w
ĠS il
Ġcht ÄĽly
ĠodpoÄįin ku
Ġchobot nice
ĠPoh yb
Ġochut nal
ĠT oho
Ġpo ssible
Ġman Å¾el
ĠL ater
Ġtvrdohla vÃ¡
Ġcarto ons
Ġto e
Ġv stal
Äįin ky
ĠuÅ¾ite ÄįnÃ¡
Ġf et
ĠzÃ¡ ÅĻil
ĠcÃŃt ilo
Ġso re
Ġbudou c
Ġnedale ko
ĠÄįe kajÃŃ
Ġvlast nÃŃm
ĠlÅ¾ÃŃ cÃŃ
Ġnevzd ala
Ġhus a
Ġfold ed
Ġtomato es
Ġv lo
ĠPouÅ¾ÃŃv ajÃŃ
Ġcur led
Ġtla Äįil
Ġochut nÃ¡
Ã¡v aly
Äįe li
Ġpil ul
ĠdÃ¡m ÄĽ
ĠNech Ã¡
ĠpÅĻest ane
Ġps ala
ĠzodpovÄĽ d
E x
Ġr ust
ĠJohn ova
ĠBÄĽ hala
Ġna Äį
Ġsi p
Ġmel ted
Ġhlu chÃ½
Ġwork s
Ġpro ti
Ġpozdrav ila
ĠvÃŃ lu
Ġide Ã¡lnÃŃ
ĠBilly mu
ĠLiz zie
Ġdoh led
ĠPla val
nÃŃ ch
Ġsun light
Ġchir ped
Ġcollect ing
Ġkalu Å¾ÃŃ
er en
ĠhÅĻebÃŃ k
ĠVy bÄĽhla
Ġok en
nÄĽ te
Ġpanen ek
ĠLet adlo
kam Å¾itÄĽ
ĠnÃ¡d oby
ĠÅ¡ÅĪ Å¯ru
Ġvy stoupil
Ġcompla in
Ġ x
Ġc akes
ĠskÃ¡ le
Ġu ct
ĠVz Ã¡jemnÄĽ
ĠnÃ¡dher nÃ¡
Ġpovzd echl
Ġminer al
Ġsp it
ĠJ acob
ĠSt is
ĠH asiÄį
Ġs ÃŃt
Ġkon ce
Ġteaspo on
Ġtich Ã¡
Ġneohrab anÃ½
ĠOb r
ĠvÃ¡ nek
ĠlÃ¡ h
ĠuÅ¾ ily
z nÄĽ
ĠPo lÃŃb
ent y
ĠvysvÄĽt lit
Ġstis kl
Ġfotoapar Ã¡t
ĠsvÃŃ Äįky
ĠÄįÃ¡ ru
el ly
ĠhraÄį kÃ¡m
Äįit ÄĽ
Ġzastav ilo
ĠmÄĽ sÃŃ
ĠzÃ¡ kon
Ġproblem s
ĠnÄĽk am
Ġtra cks
Ġlahod nÃ¡
ĠuvÃŃ zla
Ġodem knout
Ġn ou
ĠMil ovali
Ġmrak Å¯
b ily
Ġwhere ver
Ġchut nÃ½
Ġhotel u
ĠkÅĻes le
Ġsp Ã¡nku
Ġvysok Ã©ho
ĠmÃ¡ lem
ĠVel mi
Ġko ste
Ġm Ã½t
Ġhon it
ĠvÃŃ le
Ġzam ÃŃch
Ã¡li l
ĠB ird
ĠnÃ¡moÅĻ nÃŃk
Ġstad ion
Ġnapl nit
Ġdinosau ra
ĠL ist
Ġzmizel o
ĠpÅĻÃŃ ze
Ġmountain s
Ġobjev ilo
ĠdvÄĽ ma
tt ed
ĠVyp rÃ¡vÄĽ
Ġt rÃ¡va
Ġnena jde
ĠP avou
r vÃ©
ate ÄįnÄĽ
ĠhÃ¡d ajÃŃ
Ġslid ing
ĠpÃŃ skat
Ġobrov skÃ©ho
Ġman age
Ġslo vy
z Ã½
ĠAn ny
Ġnes l
Ġla id
ĠvystraÅ¡en Ã©
Ġwater ed
ĠoÅ¡kli vÃ½
in ka
Ġmil ou
ip ment
ĠÃºsmÄĽ vy
Ġgrow l
Ġfial ovÃ¡
Ġpohla dila
Ġtep lom
i ers
Ġli ck
ĠspeciÃ¡lnÃŃ m
Ġadmir ing
ĠpÅĻines e
Ġpo nÃŃk
Ġsat is
Ted dy
ĠsnÄĽhov Ã©
Ġdiv nÄĽ
k ly
ĠÄįerven Ã©ho
Ġpotato es
Ġobra zy
M ag
Ġp Å¡tros
Ġcit ro
Ġequ ipment
Ġn Ã©st
Ġca w
Ġpri ce
ĠjÃŃd el
ĠnÃ¡stro je
hlÃ©d nout
ĠZ v
Ġnavr hl
ĠZpÃŃv ala
Ã¡v a
ĠnaÄį ech
Ġkru hu
ĠvyprÃ¡vÄĽ li
Ġsk ipping
ĠPe Äį
Ġnaps ala
ĠDÄĽ da
ĠzÃ¡stÄĽ ru
ĠmodrÃ© m
Ġdoz adu
Ġg li
Ġpet ted
Ġtwig s
Ġpattern s
Ġlopat u
lo hla
Ġkrab iÄįka
ĠSome one
ni cÃŃ
ĠZ ip
Ġkind ly
ĠpÅĻikrÃ½v ky
rÃ¡ sk
Ġz k
Ġcont in
Ġseat s
ĠdÅ¯leÅ¾it Ã©ho
Ġloaj Ã¡lnÃŃ
Ġbri cks
Ġsold iers
ĠvÅ¡e chen
Ġvola la
Ġu chu
Ġuk louzl
Ġu kÃ¡Å¾u
Ġk out
Ġe mer
Ġpo chÃ¡zÃŃ
Ġspor Ã¡k
v Å¯j
ĠSund ay
Ġzat Ã¡hla
ĠbÄĽh Ã¡
ĠrÃ½ Å¾i
Ġn enÃ¡
lov es
om pli
ĠÅ¡ lÃ¡
ĠV rt
w alk
ĠtÅĻpyt iv
a ci
ĠUs mÃ¡li
ĠS est
Ġpok or
Ġg loves
ĠnÃ¡ram nÄĽ
ĠdÅ¯vÄĽ ÅĻovat
ĠzlodÄĽ j
Ġrece ive
ĠT Ã©
ĠpÅĻÃŃjem nÃ©
joy ed
ĠMax ova
Ġbud ovu
ĠÅĻetÄĽ z
Ġcontin ue
Ġu loÅ¾ila
Ġod k
Ġvy let
ĠkrÃ¡snÃ½ mi
ĠRozlou Äįila
id ents
ÄĽt ÅĻes
ovÃ© m
ĠNem Ã¡m
ĠUsmÃŃv ala
ĠtrpÄĽli vÄĽ
le jÅ¡ÃŃ
Ġmu Å¡li
Ġlet s
klaÄı Ã¡k
Ġpaml sky
mÃ© na
Ġpravid el
Ġkeep er
Ġco pper
Ġstran gers
Ġceleb rat
Ġzlo bÃŃ
ĠÄĮe kali
Ġnap ÃŃt
Ġord ered
Ġkulat Ã©
Ġgot ten
Ġover joyed
ĠDr Å¾eli
ĠÅ¡ÅĪ Å¯
bu ju
Ġnebezpe ÄįnÃ¡
Ġd Ã½ch
ĠOd st
Ġuklid il
ĠpÅĻemÃ½Å¡le li
Ġtelev ize
Ġbater ii
ej mÃ©na
ĠCh ut
ok ing
ĠNÄĽk do
ĠnÃ¡ bytek
ĠvÃ½ kÅĻi
ĠZ Ã¡
Ġseb rala
Ġbl ink
Äį te
ĠdÄĽl ÃŃ
Ġz ipped
Ġholi Äį
ilov nÄĽ
Ġmizer nÄĽ
ĠÃº tÄĽ
hod ila
Ġwhist ling
Ġhod it
ĠH roz
Ġwat ches
iv ity
Ġpig s
ĠpirÃ¡t i
Joe y
m other
Ġby e
ĠpÅĻe Å¡el
je zd
Ġneo tev
Ġcr un
lÃ¡ c
Ġzat oÄįila
Ġpad at
Ġak t
Ġpro hlÃŃÅ¾el
Ġzaklep Ã¡nÃŃ
Ġbe side
Ġmr zÃŃ
ĠB ess
Ġko za
Ġs ÃŃtÄĽ
Ã¡v od
Ġod loÅ¾il
Ġstate ÄįnÃ©
Ġz ejmÃ©na
Ġtr hl
Ġkamen i
Ġglit ter
Ġnej si
Ġvid ÄĽly
jÃŃÅ¾d ÃŃ
Ġsu chÃ¡
Ġpt ali
Ġvid ÃŃm
Ġpochop it
Ġhlad kÃ¡
ĠzaÅ¡tÄĽ kal
ovÃ¡ na
Ġstan ici
ĠEm my
Ġpray ed
bo o
Ġpo ku
ĠPom ohla
Ġnak rÃ¡
C hy
ĠvÃŃ no
Ġtlap ku
Ġne um
ĠlÃŃt ost
Ġchut nou
ĠB ig
ĠSp arky
ĠÃºÅ¾as u
ĠÅ¡ up
Ġp out
ĠL arry
Ġsm u
Ġflexibil nÃŃ
bb ing
e ho
z en
Ġpe ered
Ġ (
Ġnefung ovalo
ĠZvÃŃ ÅĻe
Ġdop isy
ĠMil uje
ku jeme
Ġv stoupil
Ġspole hnout
ĠJ de
O tev
ĠdobrodruÅ¾ nÃ¡
Ġledn ice
Ġhoup al
ĠÅĻÃŃ dil
ĠzpÅ¯sob il
Ġpochod ovat
ĠpronÃ¡sled oval
Ġnet work
Å¡en ÄĽ
Ġtla Äįili
Ġbou ÅĻi
ĠB lo
ĠzranÄĽ n
Ġmarch ing
Ġped al
Ġhu rikÃ¡
Ġdohled u
Ġpocit em
Ġtorn Ã¡do
Ġdo Å¡li
Ġinvit ation
ĠfarmÃ¡ ÅĻe
Ġour s
Ġbe at
Ġdrah Ã½
Ġpos yp
Ġmoz ek
Y um
ĠT e
ĠpocÃŃt ila
V Ã½bornÄĽ
Å¯Å¾ ou
Ġside walk
Ġvytrval Ã½
Ġzahrad ou
ĠÅ¡t ÄĽt
Ġdu cha
Ġhud by
Ġearth qu
ej me
Ġeag le
ĠZavola l
ĠP ark
Ġacorn s
N ÄĽk
Ġdog gy
Ġpost ÅĻÃŃ
Ġfou kat
ĠTro chu
ÄĽ te
Ġwood en
Ġsvobod nÃ½
Ġpo nech
ĠnÃ¡pomoc nÃ½
av Ã½
Ġwo nd
Ġdrink s
ĠtÄĽlo cviÄį
ĠnaÄįech ran
Ġpapou Å¡ek
Ġzabali la
ĠbazÃ© n
Ġkres lenÃŃ
ĠÃºst y
rÃ¡t il
ĠPla kala
Ġbrambor y
ĠÅ¾ ÃŃt
Ġdisag reed
ĠT ara
roc ery
ĠTim Å¯v
Ġwe ight
Ġper ou
Ġzav r
ĠÄįt enÃŃ
Ġv racÃŃ
ĠH ous
ĠMick ey
Ġw eren
Ġvy lezli
ĠP andy
Ġudr Å¾ovat
Ġdop rav
ĠhÃ¡d an
Ġryb ami
Ġg rocery
ĠN ased
ĠTeddy ho
ĠteplÃ© ho
ĠHla sit
Ġnav y
Ġstej nÃ½
ĠK ol
ÅĻÃ¡s la
O uch
Ġatt ached
ĠOb jÃŃm
Ġrych lÃŃ
Ġdruh Ã½m
ĠP ov
Ġra ised
Ġneh rÃ¡li
o dy
ĠzÃ¡ chod
Ġpoh nul
Ġmotor ky
Ġsmu tek
Ġmat raci
Ġfale Å¡nÃ½
b em
lech la
Ġneopatr nÃ½
ĠJess ica
ÃŃv ali
ĠpÅĻiprav ovala
ĠÅ¾iv Ã¡
Ġpod krovÃŃ
Ġcomp any
Ġtem nÃ¡
Ġbr id
ĠnejÅ¡Å¥ast nÄĽjÅ¡ÃŃ
se ek
Ġmal ovala
ci ous
ĠpÃ¡ch nou
ĠpÅĻi lep
ĠS mÃ¡l
ĠjejÃŃ mi
F luffy
ĠPot om
ĠutÃŃ kala
vÃ¡ ch
Ġrozves e
hod li
ĠW il
ĠbÄĽh Ã¡nÃŃ
ĠdÄĽli l
ÄĽtÅĻes enÃŃ
Ġdop oru
Ġmi ster
Ġke ÅĻi
ĠutÃŃ kÃ¡
Ġobvyk le
Ġzak ÅĻiÄį
Ġon wards
au ra
Ġz kaÅ¾
ĠaraÅ¡ÃŃ d
Ġj indy
Ġdom ovÄĽ
Ġtu Å¾
dÄĽ ly
Å¾i ku
Ġhous enku
Ġhapp iest
Ġburn ing
Ġneod p
hlÃŃ Å¾et
ĠSh aring
Ġvyd Ã¡vajÃŃ
Ġnez lob
ĠNÃ¡ klaÄıÃ¡k
ali l
raz il
Ġra cing
Ġhra vÃ½
ĠPolici sta
Ġkres lil
ĠmÃŃ sy
Ġbalanc ovat
Ġkni ze
Ġf ed
te ch
Ġml ha
Ġmix Ã©r
Be fore
Ġbat ohu
Ġpro sila
M oral
Ġo lÃŃz
Ġspo ons
Ġnem rav
ĠRob ot
Ã½m a
ĠS que
ĠneuvÄĽÅĻitel nÃ©
ĠzajÃŃ Äįek
ĠzabrÃ¡ nit
ĠhÃ¡d ali
Ġcras hed
rÃ¡ st
Ġhou bu
ce ÅĻi
ĠspoÄįÃŃt at
ĠhasiÄį skÃ©
Ġnepohod l
ĠM Ã½
Ġcrun chy
Ġhlasit Ã¡
S naÅ¾
Ġop as
Ġkamen e
VÅ¡ ech
Ġr entgen
Ġkrav atu
ĠklavÃŃ r
ĠÃºtul nÃ½
Ġle ch
h Ã½
Ġpeanut s
ĠT ato
ĠpÅĻ edn
Ġus u
Ġsk ok
r aly
u Å¾el
ik i
ĠJmen uje
ĠÄįaj ovÃ½
ĠzÃ¡ chran
Ġroz bÄĽhli
M oc
Ġrozb ije
ĠTy g
ff ic
Ġklid nÄĽ
Ġmrk vÃŃ
ĠNech Ã¡p
ĠG igi
ĠÅ¡at nÃŃku
jÃŃÅ¾d ÄĽl
ĠM luvili
ĠN etu
Ġod t
ĠBob e
ĠutÃŃ kal
Ġhur ried
Ġwhist led
ĠvÄĽtviÄį ku
he st
ĠÅĻe z
ĠobÃ½ vÃ¡
ĠzdvoÅĻil Ã¡
Ġwe ig
Ġnedale kÃ©ho
Å¯ leÅ¾it
ĠO kamÅ¾itÄĽ
Ġdlouh Ã©m
ĠpÅĻipraven Ã½
ĠjasnÄĽ ji
Ġko ÄįiÄįka
And y
Ġv racel
Ġpanen ce
Ġkrokod Ã½
ĠÅĻidiÄį i
Ġbri ck
ro vÃ¡
Ġvol nÃ½
Ã© l
ĠkÅĻeh kÃ©
Ġoffic er
ĠjÃ¡ my
Ġhon ili
Ġrefres hed
Ġpou Äįili
Ġoper ation
ĠdÃ¡v ajÃŃ
kÃ¡ r
ĠmÃŃst ech
G eorge
ab bit
ĠPÅĻi Å¡li
PÅĻi p
ĠotÃ¡ Äįet
Ġs ch
Ġp ies
Ġo cit
Ġko sti
Ġuni knout
bÄĽh nou
Ġe le
lu je
ĠSp ark
Ġscrat ched
Ġpochout ku
Ġhist ory
as es
ĠkvÄĽt Å¯
ĠJu ne
Ġodej de
Ġklo kan
ĠNep otÅĻe
Åł li
Ġprom luvil
Ġcle aring
Ġodp or
Ġex a
Ġzelen iny
Ġpono Å¾ku
ĠpÅĻis koÄįil
Ġli p
Ġfirework s
f it
Äı me
Ġprep ared
ĠjÃ³ gu
ĠP ocho
Ġbow ed
Ġslov nÃŃk
ji stÃŃ
ĠÅ¾ ilo
Ġrem em
ĠnepÅĻÃŃ jemnÄĽ
in ko
chÃ¡ze jÃŃcÃŃ
p r
Ġli ps
ĠzÃ¡ z
Ġu jiÅ¡Å¥
ĠPomoh l
Ġesc aped
ĠvÃ½bor nÃ©
Ġpru ne
Ġp ek
ĠÄįÃŃ s
ĠVe Å¡li
Ġzob Ã¡kem
Ġremem bers
Ġw re
ĠLÃŃ bila
Re ally
ĠpÅĻÃŃ s
Ġplan ted
ĠpovÃŃd at
ĠJuli a
M ar
Ġpost arÃ¡
ĠpÅĻid al
ĠF ro
Ġustar anÄĽ
hu je
ĠZniÄį il
Ġf li
ĠA li
Ġjak mile
ĠBen ova
Ġpou Äįila
Ġeas ier
Ġverand ÄĽ
Ġs ena
Ġdinosaur s
Ġneobvyk lÃ©ho
ĠPavou k
Ġtr hu
ĠplÃ¡ Äįou
Ġbuild ings
ĠvÄĽ d
Ġmil uji
Ġbrid ges
ĠvÃ½jime ÄįnÃ©ho
Ġcomf y
Ġreve aled
Ġturn ing
re ts
dÄĽ te
Ġv stala
ĠbrÃ¡ nÄĽ
Ġmuze a
ĠPlÃ¡ Äįou
Ġst Ã½skalo
Ġtvar u
Ne buÄı
Ġhat ed
Ġnos u
Ġvtip nÃ½
Ġnemoc nici
Ġpos louche
Ġleskl Ã½ch
Ġoli ve
Ġscream s
Ġvyraz ili
ĠÅ¡ ach
Ġbra nd
ĠprozkoumÃ¡ nÃŃ
ĠÃº le
araz il
ĠN ot
Ġnevy pad
Bob by
ĠA ut
Ġschov Ã¡vÃ¡
Ġjel ena
ĠvzÃ¡c nÃ½
Ġoh ni
Ġspolehli vÃ¡
H enry
ĠNe vÄĽdÃŃ
ÃŃ cÃŃ
Ġzan ech
Ġobjet ÃŃm
MÅĪ am
lÃ© tÃ¡
ĠUp ustil
ĠÄĮ asto
utÃ¡le l
ĠnetrpÄĽli vÃ½
B ella
Ġbarev nou
Ġhod ÃŃ
Ġsla bÃ¡
Ġmal ÃŃÅĻ
Ġacc ompli
Ġe ff
Ã¡v alo
Ġlet ÄĽli
Ġrecogni zed
Ġsell ing
nu ly
ĠPeÄį livÄĽ
Ġcre pt
Ġzala pala
Ġu chop
Ġrost la
ĠBu zzy
ĠpodÄĽk ovat
Äįka la
ĠNechce me
Ġvoz u
Ġveliko st
Ġkrokod Ã½l
xy gen
rove ÅĪ
Ġvy zdob
Ġjak Ã¡
Ġsnow ball
Ġpre cious
ĠzdvoÅĻil ÃŃ
Ġlove c
ĠzÃ¡ÅĻi vou
Ġroz hlÃ©dli
um ble
ĠDo ggy
Ġplo tÄĽ
ĠpobÃŃ hala
Ġt my
Ġvyle Å¡t
ĠÃºÄį es
ĠN ad
ĠÅ¡tÃŃ p
Ġo Å¡etÅĻovat
Ġzah raje
ĠL ile
Ġse ttle
op ak
ĠpÅĻines li
Ġbase bal
Ġst Ã¡vajÃŃ
Ġvy Å¡lo
Ġob sa
omet hing
ĠhraÄį kÃ¡ÅĻ
Ġnos ÃŃ
Ġbac ulat
ĠschrÃ¡ nku
Ġlands c
â Ŀ
âĿ ¤
ad ed
ĠhoÅĻ kÃ©
ĠA bbie
ĠSn ugg
ĠsluneÄį nici
âĿ¤ ï¸ı
ĠAnn ina
Ġvy letÄĽla
Ġuk rÃ¡st
Ġnepos lechl
Ġpo lov
ĠnaÅ¡e ho
Ġned okÃ¡zala
Ġmud dy
ĠSlÃŃb il
ĠL ab
Ġslunce m
n aly
ĠÅĺek nou
Ġmraven ci
ĠvytvÃ¡ ÅĻela
ĠkvÄĽt y
Ġpo ry
Ġsp re
ĠNem Å¯Å¾u
Ġost ro
ck Ã©
Ġvyst ÅĻe
tÃ¡ hnout
Ġpa Å¾i
Ġpoli Äįku
ĠDÃŃv Ã¡
ĠniÄį eho
ĠSdÃŃ lenÃŃ
Ġvy mÃ½Å¡le
Ġdrink ing
ĠvzÃ¡c nÃ©
ĠobÃ½vÃ¡ ku
ĠschrÃ¡ nky
ĠpÅĻipraven a
Ġs ings
Ġr Å¯Å¾e
Ġpop elnÃŃk
Ġkr vÃ¡
Ġu chov
ĠkrÃ¡snÃ½ m
Ġvon ÄĽla
ĠNer ad
ĠcviÄį ila
Ġearthqu ake
Ġste z
Ġnatr hat
Ġjedine ÄįnÃ½
ĠZ ÃŃ
Ġuva ÅĻit
Ġob ey
ĠtÅĻÃ¡s l
ĠÅ¡ÃŃl enÃ½
ri osity
Ġbed s
ĠnÃ¡ zor
Ġsimp le
Ġb un
e ed
Ġsli p
ĠJoe a
Ġdon ut
Ġparf Ã©m
ĠLÃ© t
ĠÅ¡tÄĽÅĪ Ã¡tko
ĠÅ¡ed Ã©
ĠMou d
ĠÅ¾ ralo
ĠbÅĻÃŃÅ¡ ko
Ġpoh Ã¡r
ĠÅ¡Å¥astnÃ½ ch
ĠuvÄĽ znÄĽ
Ġremi nder
Ġchov al
ĠneÅ¡Å¥ast nÃ½
Ġm Ã¡t
Ġbeh av
Ġpa Å¾e
Ġw id
Ġpou ze
Ġvan u
ĠhnÃŃ zdÄĽ
M uÅ¾
ĠVy ro
Ġnes mÃŃ
h nou
vo je
ĠvÅ¯ nÄĽ
ĠCel ou
I T
Ġm Ã©m
Ġpu pp
ĠT ÃŃm
Ġstoup ala
Ġmeas uring
de j
Ġob la
Ġim age
Ġod chÃ¡zel
ĠÄįlovÄĽ ka
ÃŃv Ã¡
ĠN ab
isk ne
Ġokra j
ĠNe u
Ġpokus ili
Ġli stu
Ġch atr
Ġzved li
Ġspace ship
ĠVy Å¡li
Ġper ched
ĠzÃ¡le Å¾et
Ġdruh Ã©m
Ġvyh raje
ĠodskÃ¡ kal
Ġappe ar
ĠnejvÃŃ ce
Ġnest ar
ĠÅ¡krÃ¡ b
Ġser ved
Ġvybav enÃŃ
ou cÃŃ
Ġpomeran Äįe
ĠdÃ½chÃ¡ nek
ĠpÅĻÃ¡tel skou
ĠB el
ĠprÃ¡ Å¡ek
Ġvla kem
or ed
ot t
Ġslo Å¾it
ĠDÄĽla li
Ġzabali t
ĠJa zz
ĠprovÃ¡z ku
ĠnÃ¡lep ky
Ġbo nes
Ġvever ce
ĠpouÅ¾ÃŃv Ã¡
f onem
Ġpory v
Ġwond ers
Ġdot kne
ĠpÅĻist Ã¡la
ĠM o
Ġpok le
UdÄĽla l
Ġnud nÃ½
ĠtÅĻpyt ila
Ġpolici i
Pe te
ĠM Ã¡v
ĠpoÅ¾ Ã¡r
Ġvoice s
ĠMar ie
Ġsest ÅĻiÄį
Ġpoho dÄĽ
ĠJ ay
Ġn ata
ĠL is
ĠpÅĻÃŃro dy
ĠvÃ½ sled
Ġzd ob
ĠNemÅ¯Å¾e Å¡
ĠÅ¡pend lÃŃk
âĿ¤ï¸ı âĿ¤ï¸ı
Ġp itch
ĠJimmy ho
Ġmok ÅĻÃŃ
Ġcudd le
ĠSnÄĽd la
ĠvÃŃt Ã¡n
um es
Ġshadow s
ĠÃº zko
Ġminer Ã¡l
Ġwait s
Ġmechan ik
Ġevery day
ĠbÃŃ lÃ©ho
ĠdÄĽl Ã¡m
s c
ĠS nÄĽ
Ġnemoh lo
ko Äįit
ĠV es
ĠtrÃ¡v ou
Ġw ow
Ġob zvlÃ¡
ĠÄįek alo
Ġresponsi ble
Ġpr kno
Ġcirc us
Ġdo pla
Ġle cture
ĠutÃŃ kali
Ġcomf orted
Ġlaska vÄĽ
Ġp and
Ġso ared
ĠK Å¯ÅĪ
ĠptÃ¡k Å¯m
Ġrozhod nout
Ġrain ed
ĠstrÃ¡v ila
Roz um
Ġvel vet
ĠÄį te
ĠtuÅĪ Ã¡ka
ĠprozkoumÃ¡ vali
Ġvy bÄĽhli
ĠoblÃŃben Ã½ch
H appy
Ġz igzag
Ġse as
Ġkost ku
Ġpoj men
ĠUsly Å¡el
Ġroz dÃŃ
Ġtle skal
Ġz ven
ĠplÃ¡ Å¡Å¥
Ġagre ement
Ġpop rvÃ©
Ġanyt ime
ĠmÄĽ ste
Ġcest ovat
Ġdrak ovi
Ġledn iÄįku
Ġsucceed ed
ĠlÃ© k
Ġkalu Å¾e
Ġu Äįili
Ġodola t
ĠPodÄĽli li
Ġboh uÅ¾el
Ġko ÄįiÄį
Ġhez kÃ©ho
r Ã½t
u ll
ĠdÄĽla ly
Ġtra pped
ĠSed ÄĽla
Ġtane ÄįnÃŃ
Ġzna Äįku
Ġwhat ever
Ġtas tes
ĠvznÃ¡ Å¡et
ĠdomÃ¡ cÃŃho
z ek
ĠpÅ¯ du
Ġned ÄĽli
Ġsec rets
Ġd ceÅĻi
nÄĽ t
Ġp y
Ġh l
ĠTÅĻÃŃ let
ĠVyp rÃ¡v
Ġsho pping
ĠpÅ¯vab nÃ¡
ĠobleÄį enÃŃm
ce s
Ġrozb ilo
Ġpro j
nÃ© mu
Ġzvu kem
Ġkon i
Ġuli cÃŃ
ĠNech al
on a
Ġpan ika
Ġvyno ÅĻil
ĠsmÄĽ s
Ġkry sa
Ġlandsc ape
Ch ce
mÃŃ ch
ĠupÅĻÃŃm nÃ¡
Ġsek eru
rad it
Ġapolog ize
ĠkrÃ¡lÃŃ Äįkovi
Ġby d
ĠPom yslel
Ġzlep Å¡
Ġodhodla nÃ½
Ġfale Å¡nÃ©
Ġcut ting
ĠPostav ili
ĠobÄĽ dÄĽ
Ġm Ã½mi
Ġov lÃ¡d
Ġpo Å¡et
Ġvyrob it
ĠdÃŃtÄĽ te
Ġpet s
ĠÅĻ vÃ¡t
ĠnavÅ¡tÄĽv ovala
Mag gie
O prav
Ġved la
Ġigno rovat
a let
Ch ar
O ba
ĠprochÃ¡z et
ĠPr ase
z ala
ĠtrÃ¡v ila
Ġpoz vala
Ġr isk
ĠPouÅ¾ ili
Ġprin ter
ĠnezapomeÅĪ te
Ġstro je
ĠtÄĽs nÃ©
M ike
ĠmÃŃÄį ku
ĠkvÃŃ z
r h
el t
ĠpotÅĻebuje Å¡
Ġdisturb ed
ĠvÅ¡ ÃŃm
Ġtra ffic
ou Å¡ek
Ġvy lou
Ġitem s
Ġbring ing
Ġjde Å¡
Ġp ila
Ġwa ist
ĠBÄĽ hajÃŃ
ĠpÅĻedstav it
Ġplav aly
ĠSÃ¡ hla
Ġran g
iÄį kou
ĠMi i
ĠzaÅ¡ept ala
Ġste el
Ġdokon alÃ½
ĠÃºÅ¾as nou
ĠSt rÃ¡
Ġm ra
Ġoat s
ĠSeb ral
Ġpract icing
Ġpos lala
Ġlepid la
ĠnevÅ¡im l
ĠvÄĽ n
Ġvz ory
Ġchyt ili
Ġdal y
est er
Ġjezd ÃŃ
ĠÄįlun u
ĠzÅ¯ staÅĪ
ĠSt ate
Ġrest ed
Ġexa ctly
ĠsmÃŃ chu
ovol te
Ġle Å¾ela
ĠvymÄĽ nit
Ġjevi Å¡tÄĽ
L ola
ĠS oused
Ġroz k
Ġzamra Äįila
ĠpotÅĻebu ji
Ġs Å¯l
Ġzah ihÅĪ
Ġnamal ovat
ĠÅĻedk viÄį
ict ory
Ġnud a
Ġresc u
C la
ĠostÅĻÃŃ hat
Ġto alet
Ġhlasit ou
ĠprozkoumÃ¡ vat
ĠP amat
ĠKrÃ¡ lov
Ġne sk
Ġroz d
Ġum ÃŃm
T oto
Ġskvr nu
Ġvisit ing
Ġsla b
Ġumy la
Ġzob Ã¡k
Ġbo o
ĠZjist il
L uckily
sob a
ĠpÅĻipoj ili
ĠpÅĻÃŃro du
ĠzÃ¡ vÄĽ
ĠS mÃ¡la
ĠU dÄĽlejme
M ÄĽli
Ġu bÃŃ
Ġuk louzla
ĠPoz orov
Ġoli ves
ĠM lad
ĠpapÃŃ rem
ĠVyb rala
Ġsi sters
Ġus ilovnÄĽ
ĠlÃ©t ali
Ġho st
ĠU k
mÄĽ lo
ĠNe vidÄĽl
Ġle m
Ġsv itu
s ing
ĠpÅĻi Å¡ly
Ġchyt at
Ġkach nami
Ġout do
Ġcost umes
ĠblÃ¡z ni
Ġvl ka
ĠvÃ½jime ÄįnÄĽ
ĠnetrpÄĽli vÃ¡
Ġt ÅĻÃŃd
ĠUtÃŃ kal
Ġsem ena
ĠSnugg les
ĠtÄĽ mi
Ġpolici sta
Ġlit ovali
le e
ÅĻek vap
ĠN ast
IT IT
id es
ĠÅĻ val
Ġram eno
Ġkresl enÃ©
Ġpos ÃŃ
Ġansw ers
r Å¯z
Ġpod p
ĠHod ÃŃ
Ġkuf r
Ġsy na
Ġmost y
Ġprost or
Ġvrace la
S oph
ĠpÅĻin Ã¡
ĠÄįer vy
Ġmraz Ã¡ku
ĠD ej
Ġva Å¡
ĠOtev ÅĻou
ĠPt ali
Ġdovedn osti
s ka
Ġmy Å¡ku
Ġmagick Ã©ho
ĠmÃŃÄį i
ĠzÃ¡ ho
ĠÅ¾lut Ã©ho
Ġraj Äįata
Åĺ ÃŃ
ĠbÅĻi Å¡e
Ġveliko sti
ĠHous enka
b l
Ġunifor mu
Ġbru shed
Ġmouth s
Ġfig ur
Ġciz ince
le st
Ġpo ÅĻ
Ġzvuk Å¯
Ġfas hion
ĠzÃ¡ÅĻi vÃ½
Ġsty le
ĠtlaÄįÃŃt ka
ĠDost ali
ĠkÅĻe sla
ĠneÅĻek l
Ġchlap c
ĠtrÃ¡v nÃŃk
ĠJel en
Ġso ak
Ġnej rÅ¯z
ĠC hodÃŃ
Ġfet ch
Ġmim inko
Ġot ÅĻela
ĠÅ¾ ert
ĠpÅĻe jÃŃt
Ġpr ast
ĠS of
ĠPod aÅĻilo
Ġcu riosity
Ġute Äįe
Ġvy chÃ¡zejÃŃcÃŃ
Ġzat leskal
ĠVy lezla
Ġnepohn ul
ĠR yt
Ġod foukl
Ġlady b
ĠP ob
ĠprÃ¡ v
ĠcviÄį enÃŃ
ne ath
ĠpouÅ¾ ije
om ing
ĠP am
Ġpro hlÃŃÅ¾ela
Ġunder ground
z ely
ĠP ad
Dan ny
Ġzem ÄĽtÅĻesenÃŃ
ĠnÅ¯Å¾ kami
ĠpÅĻiprav ili
Ġown ed
Ġbreak ing
ĠvzruÅ¡en Ã¡
D ÃŃv
it ed
mys lÃŃ
Ġre le
Ġvynd ala
Ġchlupat ou
ĠNas adil
ĠOblÃ© kl
ot Ã½
ĠL ena
ĠBÄĽ hem
VÅ¡ech no
Ġso chu
Ġzap amat
Ġsp rÃ¡sk
Ġpoz val
Ġodp ovÃŃd
ĠnejrÅ¯z nÄĽjÅ¡ÃŃ
Ġp ustit
ĠS im
Ġude ÅĻil
ĠoÅ¡kli vÃ¡
Ġspoluprac ovat
Ġnejrychle jÅ¡ÃŃ
m are
Ġro k
ĠpÅĻÃŃjem nÄĽ
ĠnepotÅĻe buje
Ġben e
Ġbab i
ĠRob by
ĠSnÄĽd li
Ġod lÃ©tÃ¡
ĠzÃ¡p ach
ĠN ick
Re x
lov ala
Ġbene ath
ĠMoh lo
ĠpÃŃskovi Å¡ti
Ġv or
Ġfascin ated
k ovou
Ġle hnout
ĠpÅĻÃŃ zi
Ġrozhod ly
Ġkalend Ã¡ÅĻ
ĠsvÄĽt lem
ĠzÃ¡ roveÅĪ
Ġprom luvila
Ġkn elt
Ã¡Ã¡Ã¡Ã¡Ã¡Ã¡Ã¡Ã¡ Ã¡Ã¡Ã¡Ã¡Ã¡Ã¡Ã¡Ã¡
Ġvy lep
Ġwaff les
Le o
Ġskvr ny
Ġvy kro
Ġvilla gers
Ġnej chut
Ġuni corn
ĠS mÃŃch
ĠdÃŃv kou
Ġchut nÃ©ho
ĠÃºko ly
Ġnail s
Ġteplom ÄĽr
Ġspole Äįnost
Ġpul tu
or az
ved e
ĠznÃ¡m ku
sk Ã©m
ĠzelenÃ© m
ĠdenÃŃ ku
A l
ester day
Ġje mu
Ġsad ness
Ġex i
Ġroz hÃ¡
Ġva Å¡ÃŃ
Ġnesly Å¡ÃŃ
Ġost rou
ep te
ĠstÄĽ Å¾ovat
Ġkdybych om
Ġzavola t
ĠKol Ã¡Äį
Ġpla kali
ĠPro nÃ¡sled
ĠpoÅ¡t ou
Ġhlubok Ã½
Ġk Ã¡vu
Ġunlo cked
ĠK lo
Ġdi ed
Ġcatch ing
ĠS nÃŃ
Ġle ather
ĠKla un
ouÅ¡t ÄĽt
Ġdome Äįek
ĠTyg r
M r
Ġo xygen
Ġukliz enÃ©
Ġzmrzl inou
Ġgrand mother
Ġdown stairs
Ġrecogni ze
Ġpro ta
ĠÃº l
Ġvy lila
Ġstod ole
Ġposlu Å¡nÃ¡
ĠÅ¡Å¥ Ã¡vu
u ry
ĠÅ¡ est
Ġcreat ion
Ġspat ÅĻila
ĠtÄĽ sta
ĠpouÅ¾ÃŃv ali
Ġsouhlas nÄĽ
Ġrozlou Äįit
ĠhraÄįkÃ¡ÅĻ stvÃŃ
R ob
Ġjog ged
Äį ely
Ġps ÃŃ
ĠpÅĻim ÄĽlo
ĠO live
Ġklaks on
ĠTimmy m
ĠZ Ã¡vod
Å¡tÄĽ kl
Ġche f
Ġdokon al
Ġpu pil
Ġnej de
Ġned o
R o
Ġu ne
Ġchla pe
Ġmonst ers
ĠdÃ¡ ve
ĠK u
Ġhru Å¡ku
mÄĽ nÃŃ
Ġeat s
e ars
ĠudÄĽl Ã¡m
Ġko Å¾
Ġnight mare
ĠP ovÃŃd
ĠpÅĻest Ã¡vku
Ġz ku
ĠR abbit
Ġlep Å¡ÃŃm
ĠzÃ¡vod u
Ġsoused stvÃŃ
Ġs loup
Ġset kat
ĠThe se
he z
ĠdozvÄĽ dÄĽla
Ġwant ing
Ġsest rou
is hes
Ġdost anou
klÃ¡d at
Ġplechov ku
Ġdoctor s
ĠlÃ¡s ko
Ob j
ĠshromÃ¡Å¾d ili
Ġkres bu
Ġm Ã³
Ġk lÃ¡
Ġc ape
ĠVel ry
ĠvrÃ¡t ilo
Ġneud ÄĽlÃ¡
ĠtÄĽ Å¡ila
D ÄĽ
Ġchyt ÃŃ
Ġjem nou
Ġv bÄĽhla
ĠL aura
Ġpo b
Ġku Å¾el
ĠD e
Ġnapo ÄįÃŃt
ĠÅ¡ÃŃl enÃ¡
Ġtremb le
ĠzniÄį it
Ġl ung
Ġnastoup ili
Ġso aring
Ġstri pes
Ġtu leÅĪ
ĠÅ¾Ã¡ bÄĽ
ĠschrÃ¡ nce
Ġl vi
ĠdÄĽl Ã¡me
ĠstmÃŃv at
li vÃ¡
ĠBy dle
ĠzmÄĽ nil
ĠHow ever
ĠteplÃ© m
Ġk yslÃŃ
ĠkÅĻÃŃ Å¾
Ġvyraz il
ĠPopad ne
bb led
ĠvÃ½ raz
Ġvy uÅ¾
Ġposkak ovali
ĠNem us
pa cÃŃch
ĠhÃ¡ zeli
Ġd alo
Ġsou st
Ġblueber ry
ĠvypÃŃna Äį
ĠHlasit ÄĽ
ĠDost ala
Ġbater ie
Ġstrugg led
U dÄĽl
U n
ÄĽ stÃŃ
Ġpohy by
Ġroz pacÃŃch
ĠpÅ¯ dÄĽ
Ġpochut nÃ¡
J ednou
Ġp si
Ġfam ili
Ġuklid nit
ĠSlÃŃb ili
ot va
Ġknihov nÄĽ
ĠLucy ina
Ġl Ã¡tky
Ġwonder ing
ĠzaneprÃ¡zdnÄĽ ni
ĠneudÄĽla l
Ġz has
Ġbrou kÅ¯
Ġchy stali
ĠM amin
Ġbleed ing
Ġz bav
id lo
jÃŃ d
Ġpun ished
Ġu bliÅ¾
Ġmamin ko
ĠPouÅ¾ÃŃv ali
Dob rou
ĠMike y
ĠM Å¯j
ĠvÃ½jime ÄįnÃ©
ĠÅ¡ Ã¡lku
Ġlem ons
Ġsouhlas ÃŃ
Ġgain ed
an eme
ĠpÅĻÃŃ leÅ¾it
ĠodpoÄį inu
Ġpro s
ĠvykÅĻi kli
Ġplan ned
ĠPokraÄį ovala
S li
Ġmodr Ã½m
K onec
Ġpanika ÅĻit
ĠÅĻe ka
ĠpÃŃsk em
ĠpoÅ¡et il
ĠSlÃŃb ila
ĠS omething
ĠlÃ© tÃ¡
ĠÅĻe Å¡enÃŃ
Ġnic er
Ġrozp rost
Ġbudouc nu
Ġmiss ion
lÃŃÅ¾ ÃŃ
Ġnechut nÃ©
Ġpras Ã¡tko
lohla vÃ½
Ġhru bÃ¡
Ne bo
Ġholub ice
ĠpÃ³ di
ĠSli buji
ud r
Ġc aut
ot ÄĽ
Ġherb s
Ġna lila
ĠTla ÄįÃŃ
ĠMoh la
Ġguess ed
Ġm Ã¡vÃ¡
F irst
ĠCh ris
Ġlev nÃ©
r ÄįÃŃ
trat ili
Ġchud Ã½
Ġnedost ane
Ġza bal
ĠkrÃ¡s nÄĽjÅ¡ÃŃ
ĠPÅĻines l
ĠuÅ¡ pin
Ġg Ã³
Ġfree ze
B un
Ġsteal ing
Ġexamin ed
ĠO soba
Ġare a
f ÃŃ
Ã¡ na
Ġtrou bu
Ġmach ines
Ġg ro
ĠÅ¡tÄĽnÄĽ ti
Ġpt al
ĠRob ert
Ġmelod ii
ĠF irst
ĠZajÃŃ mÃ¡
ĠzÃ¡suv ky
Ġargu ed
ĠTÅĻe ba
Ġs Ã¡hla
ĠprochÃ¡z ely
Ġhe av
Ġneu vidÃŃ
t nÄĽ
Ġkr bu
ĠrozdÃŃ l
ĠmÄĽste Äįku
ĠV ÃŃte
Ġzmi zet
ĠVys koÄįila
Ġchallen ge
Ġstar Ã½ch
Ġpi les
Ġstir ring
Ġpru hy
S ometimes
Ġpneumati ku
ĠÅ½ el
ĠzaÅ¾ ila
st ing
ĠdokÃ¡Å¾e Å¡
Ġdale kÃ©
du ce
âĢĿ .
ĠZ tratil
Ġri pped
Ġb end
ĠchrÃ¡ mu
Ġzoom ing
Ġst ol
lÃŃ Å¾e
ĠusmÃŃv aly
ĠNeby li
ĠpoÅ¡ krÃ¡
ri end
Ġnud nÃ¡
ĠcÃŃt ÃŃm
ĠsÃ¡ Äįek
Ġmrz utÃ½
rÃ¡t ila
ÅĪ ou
Ġfire men
Ġstud ied
p it
ĠodpovÄĽ dÄĽt
Ġle hla
Ġop iÄį
ĠÅ¡ ept
ĠSt rÃ¡v
ĠVe Å¡la
Ġkv et
Ġrec or
Ġpro letÄĽl
Ġnej hez
Ġtug ged
ĠnÄĽkter Ã¡
Ġst aÄį
ĠÅ¾i jÃŃ
Äį kÅ¯
ĠSmit hovÃ¡
Ġs ud
Ġvyd ra
Ġwag ging
ĠAb i
v ak
ĠpÅĻij dou
Ġnejchut nÄĽjÅ¡ÃŃ
Ġv ictory
ĠU jist
ĠnejlepÅ¡ÃŃ ho
Ġuzd rav
ĠP ol
Ġhro ch
Ġpr Å¡ÃŃ
Ġchy bÄĽ
ov nÃŃk
Ġacc idents
Ġko l
ĠdÄĽli la
Chla pec
ĠD ÄĽl
Ġhon ÃŃ
Ġzast y
Ġreg ret
Ġz alÃŃ
ĠUkaz ujÃŃ
ĠSt ella
Ġmas Ã¡Å¾
M ÄĽl
Ġex it
Ġstar ali
Ġpoklad Å¯
Ġwe b
ĠpÅĻij mout
ĠÅĻidiÄį e
Ġsatis fied
Ġke ÅĻem
ĠmÃ½d lem
ĠB inky
Ġm Ã¡vat
ag ull
ĠOdpovÄĽ dÄĽla
ĠHroz nÄĽ
k nutÃŃ
Ġproper ly
Ġbun nies
ĠmÄĽ nÃŃ
ĠbÃ¡je ÄįnÃ©
Ġb ere
Ġvypad ali
Ġso b
Ġzkontrolov at
ĠP ipp
ĠzÃ¡ pal
J ames
ĠkÅĻeh kÃ½
ĠtÄĽ m
Ġbrou ci
ĠpÅĻÃŃÅ¡ er
ĠhurikÃ¡ n
Ġwin ning
ĠpÅĻi pad
ĠU de
ĠvrÃ¡t ÃŃme
Ġpotre st
ĠodmÃŃt la
Ġke ys
ĠÅ¡iro kÃ©
ĠPomoh li
op s
icha el
ĠUn cle
Ġshiver ing
lo oking
rod uc
ĠpÅĻes un
Ġnut kÃ¡nÃŃ
ĠupÅĻÃŃm nÃŃ
Ġvytrval Ã¡
Ġobrazov ku
Ġsmut nou
Ġnez nal
ĠpÅ¯v odnÃŃ
Ġl vy
B o
ĠO t
vid ÃŃm
Ġkroc an
r ak
Ġincre ase
ĠkrÃ¡snÃ© m
ĠVyd Ã¡vajÃŃ
ĠfontÃ¡ nÄĽ
ĠkÅĻeh kÃ¡
Ġodlet ÄĽli
Ġna Å¡ly
Ġciz ÃŃ
ĠsvÄĽt el
ĠS top
ĠzniÄį il
Ġpocit y
Ġvy ko
Ġnejhez ÄįÃŃ
m us
ali li
ĠHled ajÃŃ
Ġint roduc
Ġsi x
Ġnej sem
Ġkro ky
ĠutÄĽ Å¡it
Ġwre ck
ĠÅ¡ach y
ĠObjÃŃm ali
Ġm ice
ĠrÃ½ Äį
ĠÅ½ ili
Ġgather ing
Ġkru hy
Ġin tro
rad ÄĽji
ĠtrpÄĽli v
ĠSam ova
ĠÄįerven Ã½mi
Ġload ed
ĠÅ¾e lez
Ġte asing
ĠpÅĻe hlÃŃd
Ġwin ner
ĠKrÃ¡lov na
ĠnÃ¡pad em
ĠZak lep
ĠlÃ© zt
Ġzap ÃŃ
ĠklÃŃÄį em
Ġt ouÅ¾
ĠoblÃ© kala
## ##
Ġoutdo ors
ĠloÄı ku
om enou
ĠstrÃ¡ nky
ĠÅ½ Ã¡d
Ġnest y
Ġpist ole
ĠRyt ÃŃÅĻ
Oprav du
chod u
Ġvyro bil
. '
Ġse agull
ĠH vÄĽ
Ġtwirl ing
ĠchrÃ¡ nil
Ġprincez nu
ĠnezÃ¡vis lÃ½
ĠStÅĻÃŃd ajÃŃ
ĠUkÃ¡z ali
ĠZap omnÄĽl
Ġjedin Ã©
ĠPom Å¯Å¾e
Ġvrace li
Ġdecor ated
Ġkou pe
b by
hlÃ©d ne
Ġzelen Ã©ho
ĠskÃ¡ lu
Ġbl Å¯z
Ġv Ã©st
Ġzamra Äįil
Ġsla pped
Ġprst em
ĠD en
ĠzÃ¡ÅĻi vÃ¡
ĠpovÄĽ sit
Ġnad anÃ¡
Ġne Äįek
Ġle zl
Ġlit ovala
ĠLilyin o
Ġflut ter
ĠZ m
Ġpear l
ĠH on
Ġveget able
Ġfiref ighter
Ġneighbour hood
Ġsupp lies
Ġsight s
Ġunder neath
p ÄĽl
ed nes
Ġpro vid
Ġskon Äįilo
Ġsedmi krÃ¡s
ednes day
ĠZ ase
Ġchlad nÃ¡
Ġmal ovÃ¡nÃŃ
Ġdes er
ĠzvÄĽtÅ¡ oval
ĠMi ra
Ġexplo r
Äį eno
Ġyell ing
Ġschov Ã¡val
Ġciz inec
Ġso li
eterin Ã¡ÅĻ
Ġch vÄĽ
M Ã¡te
st ÅĻÃŃ
Ġpan cakes
ĠNas adila
ĠRy an
Ġv loÅ¾ili
ĠdÃŃ rou
ĠvzpomÃŃn ky
Ġpe aches
Ġz lomil
ĠRod iÄįe
Ġticket s
Cht ÄĽl
ĠtÃ¡ bor
Ġpe el
Ġvyb ar
ĠaligÃ¡t or
ĠS Ã¡hl
ro l
Ġub oh
al ph
ĠmÃ¡ s
ĠhlÃŃ d
B ud
Ġpoz nala
Ġzah rÃ¡la
lo nila
ĠPro chÃ¡zel
Ġzavaz adla
ĠÅ¾iv Ã©
ĠS bÃŃ
Ġbe gin
ĠBav ilo
ĠFo x
r Å¾et
Ġta hajÃŃ
Ġrid es
ĠposbÃŃ ral
Ġzas Ã¡hl
U tÃŃ
ho r
Ġprac uje
El la
Ġp ÄĽst
Ġsi ren
Ġna dÄĽji
Ġvy j
zd a
ĠÅĺÃŃ kala
Ġtaj nou
ĠpÅĻÃŃpad ÄĽ
Ġv ow
Ġod chÃ¡zela
Ġvl ÄįÃŃ
ĠD uch
Ġze vnitÅĻ
Ġstop u
Pom Å¯Å¾u
ĠS vÄĽt
ĠtrÃ¡v il
ĠVelry ba
as ter
ĠstÄĽ nu
Ġbur row
ĠpÅĻi jela
bu bu
ĠpocÃŃt il
Ġkr tek
ĠnÄĽk Ã½m
ĠPÅĻe st
Ġcham tivÃ½
ĠÄĮek al
b ur
v oru
ĠbÃ½ k
Ġweig hed
ink ami
Ġmix ing
o of
ĠR ost
Ġos v
Ġrele ased
ĠplÃ¡ Å¡tÄĽ
Ã¡v Ã¡m
ĠnÃ¡pad y
Ġjedno ro
ĠJe li
ĠÃºst ÅĻice
ĠneÅ¡Å¥ast nÃ¡
ĠnadÄĽ je
r k
tÄĽ Å¾
Ġsp ill
ĠsnÃŃ t
ĠTom ovu
ĠlÃŃ nÃ¡
Ġna dÄĽla
ĠU my
Ġhodin Ã¡ch
ĠvÃ½kÅĻi k
Ġst Å¯j
ĠhÃ¡d Ã¡te
ouÅ¡t ÃŃ
Ġbezmoc nÃ¡
ad lu
ĠlÃ¡h ve
i jme
Ġst am
ĠposbÃŃ rala
J oh
Äį tÃŃ
Ġod d
ĠplyÅ¡ ovÃ©
ĠRy b
Ġsne aked
ĠnovÃ© mu
Ġdraw s
ĠnÃ¡sled uje
ĠLove c
Ġzav ÅĻeli
Ġspole ÄįnÃ©
ĠÅ¡pÃŃ nu
ĠPod ÄĽ
ĠzÃ¡ÅĻÃŃ cÃŃ
k ins
Ġho ÅĻÃŃ
ĠPÅĻ is
Ġdrak y
ĠpoznÃ¡ vÃ¡m
Ġneodp ovÃŃd
Ġkla una
Ġnaraz ili
Ġuva ÅĻila
ĠmedvÄĽd em
PÅĻestaÅĪ te
dÄĽ me
ĠPom yslela
ĠnavÅ¡tÃŃv ÃŃ
ĠN Ã¡m
pad ne
ĠvystraÅ¡en ÄĽ
Ġhroz nÃ½
Ġconf ident
Ġkouzel nÃ©ho
ĠpotÃ¡ pÄĽt
Ġreali ze
od d
Ġd am
ĠpÅĻÃŃ prav
ĠnÃ¡ rod
Ġko pl
Ġsc ru
ĠpoÅ¡Å¥ Ã¡k
Ġinstru ctions
P ÅĻÃŃ
Ġmotor ka
Ġvar oval
Å¾e Å¡
Ġsobe ÄįtÃŃ
ĠcÃŃ l
Ġkuli Äįku
Ġsedmi krÃ¡
K itty
ĠNe boj
ĠsvÃŃt it
ĠzmÄĽ nila
ol ÄįiÄį
ĠPoÅ¾Ã¡d ali
ĠpoÄįÃŃt al
ĠprÃ¡zd nÃ©
Ġozdob u
Ġneposlouch ali
Ġs ovÄĽ
Ġru ler
ĠneublÃŃÅ¾ ÃŃ
P es
Ġobj aly
Ġuklid ili
ĠoÄį ist
ĠSammy ho
ĠpohÅĻ b
Ġsp rav
ĠÅłÅ¥ast nÄĽ
ĠpÅĻedstÃŃ ran
Ġspid ers
ÅĻ en
ĠpÅĻÃŃ liv
ĠW ednesday
Ġhrn ci
lÃŃÅ¾ ila
Ġstop y
Ġvyzkou Å¡ÃŃ
Ġpla zÃŃ
Ġintro duce
Ġt im
ĠN est
ÅĻe me
ĠkvÄĽtin Ã¡m
li vÃ½
ĠzdÅĻÃŃm nutÃŃ
ĠzdÅĻÃŃm l
in i
Ġmuff ins
Ġponech at
Ġde ky
Ġz ero
Ġso lut
Char lie
ĠzaÅ¾ il
Ġgor ila
ĠÄįt v
Ġnud it
Ġlimon Ã¡du
Ġbud ge
Ġpin ched
Ġneklid nÃ½
ĠD id
Ġudr Å¾ela
a les
ĠpÅ¡en ici
Ġz epte
ĠRex e
ĠprÅ¯zku mu
ĠÅ¾Ã¡dnÃ© m
ĠzdÅĻÃŃm ne
Ġva ÅĻÃŃ
ĠÄįokol Ã¡dy
Ġchy ba
ĠruÄįnÃŃ kem
Ġnesly Å¡ela
ĠrozÄįÃŃ lila
Ġstudy ing
Ġcompetit ion
ĠE d
Ġb ank
ĠnaplnÄĽ n
Ġkoste la
v aly
Ġodp ustil
Ġkancel Ã¡ÅĻe
ĠzamÄį enÃ©
Ġin ch
Ġlo ving
Ġfar my
ĠkutÃ¡le l
Ġv bÄĽhl
ova cÃŃ
Ġstav ÄĽl
Ġb aked
ĠhoupaÄį ka
ĠkamarÃ¡d Å¯m
ĠSque aky
Ġsk Ãº
Ġrozhod nou
Ġoliz uje
Ġne cho
Ġre lease
Ġprin ted
ĠÄĮe kala
Ġop in
Ġstru ck
Ġpohov ce
Ġklu bu
ĠpouÅ¾ ili
Ġchut nala
Ġpocket s
Ġshould ers
ĠpospÃŃÅ¡ it
Ġstri p
Ġtan ci
Ġraket y
ĠdÃ½ch at
Ġfro sting
ĠtÅĻpyt ivÃ©
ĠsÃ½ rem
Ġodva hy
Ġstar Ã½m
Ġb unch
Ġc rumb
ĠnaÅ¡tv al
Ġbezmoc nÃ½
ĠB rat
Ġl ines
ĠBlue y
Ġods koÄįil
ĠkutÃ¡ let
O r
Ġutr hla
ĠÅ½el va
Ġu cho
Ġpop ÅĻ
ĠÅ¾ivot u
Mil ujeme
p ÃŃ
Ġtry skÃ¡
Ġzat Ã¡hl
Ġodp ustÃŃ
ĠpÅ¯sob ivÃ©
Ġujist ili
ĠÅ¡amp on
ĠSh romÃ¡Å¾d
Ġk omu
ĠHraÄį ky
ĠpÅ¯ da
Ġvyd Ã¡vali
Ġsmy Äįku
Ġdecid es
Ġstud ovat
ra Å¾ÃŃ
Ġnab lÃŃz
ĠnablÃŃz ku
ra ju
ĠpÅĻ Ã¡li
ĠJu dy
Ġjedn ÃŃm
Ġber u
Ġgigg ling
Good bye
Ġpoch lub
Ġpod zem
ĠvychutnÃ¡ vali
ĠNemÅ¯Å¾e me
lo vÃ½
Ġemer gen
Ġbro om
Ġzap ark
Ġdu b
Ġour selves
ĠÄį es
ĠÃºÅ¾as nÄĽ
Ġhrom adÄĽ
Ġup ekla
Ġpal Ã¡c
ĠpÃ© Äįi
s at
sk em
Ġset kÃ¡nÃŃ
Ġva ÅĻenÃŃ
Ġn ory
Ġsam et
ĠvzruÅ¡ujÃŃ cÃŃch
li a
ĠL ike
ĠZap omnÄĽla
ĠAn nou
ĠVÄĽ dÃŃ
P ouÅ¾
ĠhnÄĽd Ã©ho
Ġr ady
Ġmoud rou
Ġzob Ã¡ku
ĠS leÄįna
Nem Å¯Å¾eÅ¡
Ġstoup al
Ġkuli Äįky
ĠUsmÃŃv al
ĠoÄį ich
ĠtÃ½m u
Ġco nes
Ġvytis knout
Ġo Äįek
Äį ena
Ġpo nÃŃka
ĠpÅĻip la
Å½ Ã¡d
at Ã¡
Ġstam ps
ĠPomÃ¡h ajÃŃ
Ġsp anÃŃ
ĠUp ustÃŃ
ĠvrÃ¡t ÃŃm
ĠzvÃŃÅĻe cÃŃ
Ġvez mu
ĠvzlÃ©t nout
Ġt rÃ¡p
end y
ok on
ĠutÃŃ kajÃŃ
l Ã½ch
Å¾ ad
Ġplach tu
Ġdek or
es day
Ġzav ÃŃ
Nem Ã¡m
ĠK iki
Ġzan ed
Ġladyb ug
Ġt ul
Ġneobvyk lÃ©
ĠÄįer nÃ©ho
Ġpro hlÃ©dl
ĠKrab ice
r Å¯
Ġcont rol
Ġstej nÃ©m
ĠD oj
ĠPat ÅĻÃŃ
ĠÃºk ry
Ġst air
ĠneznÃ¡m Ã©
Ġk rt
ĠS y
Ġch ou
ĠTo Äįila
Ġho ÅĻet
ĠV eterinÃ¡ÅĻ
Ġdruh Ã¡
ĠNa jde
ĠVypad ali
Ġchip s
Ġudr Å¾ÃŃ
ĠBude te
ĠzakÅĻiÄį ela
ĠÅ¡ Ã¡lky
Je Å¡tÄĽ
ĠJak Ã½
ĠzÃ¡ Å¾it
ĠdÃ¡m u
ĠÄįt ver
Ġdelf ÃŃ
M Ã¡
Ġch Ã¡
ĠD oz
ĠF u
Ġs ides
Ġzapad alo
ĠvÃŃ ly
Ġst itch
Ġpras ata
ĠFin n
ĠnadÃ½ch anÃ©
Ġscur ried
Ġuvid ÄĽlo
Ġgr ant
Ġmark s
Ġkuku ÅĻice
ĠVysvÄĽt lila
ĠpÅĻevr hl
alu dy
ĠnÃ¡ÅĻ adÃŃm
Ġvy lez
aÄį ka
ĠPÅĻi padalo
ook e
ĠJed ÃŃ
Ġvyhod it
J edn
Ġpru nes
Ġsil nou
ĠblÃŃÅ¾ il
ĠB ar
Ġstr ings
Ġs lÃ©t
Ġpolice j
Ġjedn at
ĠpÅĻi h
Ġstoup Ã¡
Ġztrac enÃ½
Ġdiv adla
ĠdospÄĽl Ã©
ĠÅĻÃŃ dÃŃ
Å¡e jÃŃ
chov at
Ġu dÄĽlejme
ĠpÃ¡n ve
ĠK ry
ou Å¡tÄĽ
Ġf and
Ġnem Ã¡me
Ġpok ing
ĠÄįaj ovou
ĠPÅĻines la
ĠzaÄįÃŃn al
Ġhru di
Ġdoz vÄĽdÄĽl
ĠR over
Ã¡v ka
Ġpe ars
Ġdv Å¯r
arsh m
Ġrepe ated
st ÅĻe
ĠÅ¾ralo ka
Ġt kan
ĠnedÄĽla l
arshm allow
ĠU levilo
Ġlit oval
Ġzkou mÃ¡
Ġluxus nÃŃ
Ġzd ajÃŃ
ĠpoÄįÃŃt ala
Ġb lech
Ġag o
ĠzvÄĽdav ÄĽ
Ġcho vÃ¡
ĠZaÄį alo
Ġkeep s
Ġcla ps
n ÄĽla
Ġvy myslel
Ġzp od
Ġsvobod nÃ¡
er n
ÅĻ enÃŃm
Ġru in
Ġmoc nÃ¡
ĠudÄĽla ly
ĠpÅĻedstÃŃ rÃ¡
ĠnÃ¡m ÄĽstÃŃ
ĠPoz drav
Ġtis kÃ¡r
Ġo chlad
Ġcir kus
Ġbole stÃŃ
ĠutÄĽ Å¡
ĠpÅĻi padalo
ĠFlo p
ĠzaÄįÃŃn ala
Ġro hy
k ot
Ġz le
Ġpo ky
P aul
ru su
ĠpÅĻekvap it
Ġpomoh ou
Ġstra chu
Ġstretch ing
ocho tnÄĽ
Ġz ooke
ĠJack y
ĠmlÃ½ n
Ġo cho
ĠsvÄĽt lu
Ġjisk ru
Ġnaps Ã¡no
Ġfung ovalo
Ã¡d a
Ġbru shes
Ġtr vala
Ġodve zla
ĠS ty
ĠBen Å¯v
H arry
Ġb Ã¡s
ĠtÄĽ Å¡il
Ġa stro
ĠsbÃŃ rali
ĠuvolnÄĽ nÃ¡
ĠPotÅĻeb oval
Ġpro hled
Pom oz
Ġdemand ed
Ġsv at
ĠTu esday
Ġvynd al
Ġfla p
ĠmÃ¡v la
ĠzÃ¡v rat
Ġko ly
Ġspoj it
ĠÃºs il
G race
c or
ĠE li
Ġlab ut
en e
ĠH oli
ĠCh ud
Ġvzp om
Ġmention ed
Ġst ing
Ġlist ÃŃm
Ġkick ing
Ġsurf ace
a cÃŃ
ĠZ em
ĠJan ie
ĠneÅ¡kod nÃ½
Ġzaned louho
ĠzpÅ¯sob ila
ĠvÃ½ro bÄĽ
mi e
Ġzap nout
Ġpat ÅĻil
ĠÅ¡pinav ou
H alÃ³
Ġpo roz
Ġbobu lÃŃ
Ġdych tivÃ½
ĠobrÃ¡z kem
Ġklad iv
Ġvys vit
lov ali
ĠS qu
ĠSÃ¡ ry
Ġto night
sk Ã½ch
Ġprin ts
Ġskrom nÃ¡
ĠohnÄĽ m
Ġvrchol ku
Ġneighbor s
Ġnech tÄĽlo
ĠhrÃ¡ Äį
Ġod lÃ©t
oc hod
v Ã½ch
ĠB ee
ĠÅ¾ aludy
Ġtouch ing
Ġs Ã¡hl
Ġv stoupit
ĠÄįerven Ã½ch
ĠZjist ila
Ġmy Å¡ÃŃ
ĠskÅĻÃŃÅĪ ku
Ġod bÄĽhla
PotÅĻe buji
Ã¡li la
Ġroz dÄĽl
Ġsoup rav
Ġkom Ã¡
ĠzÃ¡v ist
Äįer p
ĠzÃ¡le Å¾ÃŃ
ĠzranÄĽ ni
ĠvÄĽ dom
Ġsk rz
Ġsweet ies
Ġdo r
ĠvypadÃ¡ Å¡
Ġzat an
Ġjem nÃ½m
ĠnÃ¡d raÅ¾ÃŃ
Ġprote cted
ĠrozÅ¡ÃŃ ÅĻily
ĠhlÃ¡ sek
Ġout fit
ĠmÄĽk kÃ©ho
ĠpÅĻitu lila
Å¯ da
ĠneuvÄĽÅĻitel nÃ½
Ġwrit es
are t
Ġslad kÃ©ho
ĠsnÃŃ m
ĠodpoÄįin ul
rÃ¡ vÃŃ
Ġus pÄĽt
ĠpÅĻij el
Ġcomp let
Ġnesk on
v od
Ġzaz namen
av Ã¡
Ġvy jÃŃt
Ġpovz bud
Ġpali vo
ĠvytÃ¡ hli
ĠrozÄįÃŃ lil
Ã½ my
Ġprozkoum ali
ĠPos adil
Ġjahod u
ĠP romiÅĪ
hod ou
in ovÃ©
ĠB ole
Ġpoz vat
lo t
Ġf ab
Ġchlad niÄį
ĠDÄĽla lo
mysle li
Ġdomov Å¯
t ivÃ¡
Ġyou th
ĠD ajÃŃ
Ġprast ar
Ġgood night
ct antly
ĠprodavaÄį e
N ik
Ġobdiv ovat
ter Ã½
Ġbucket s
Ġribb ons
Ġdekor ace
ĠmÃ¡ k
ĠSt rÄįil
Ġustar anÃ¡
Ġzb rusu
Ġboun cy
An nie
ĠÄĮ et
Ġnalez enÃŃ
ĠH oot
Ġodhod lÃ¡n
Ġseh nat
ĠDom a
Ġser vÃŃ
ĠstarÅ¡ÃŃ ho
ĠKam koliv
ĠpÅĻipe v
Soph ie
Ġli Å¡ce
Ġslep ice
ĠÅĺek ne
ĠpronÃ¡sled ovat
U s
ĠNej dÅĻÃŃv
Ġch vÃ¡
Ġpar ked
ĠP or
Ġbare ly
nut Ã¡
ĠpÅĻiblÃŃÅ¾ ili
Ġso aked
Ġprett iest
ĠÅĻÃŃ kalo
ĠsÃŃ ly
Ġcamp ing
Ġk Å¯Å¾e
ĠnÃ¡ ro
Ġsil ou
Ġzah rajeme
ĠMa bel
zel o
ĠhromÃ¡d ku
Ġvzp omenout
Ġroz bÃŃ
ĠtÅĻÃ¡s la
Ġp lÃŃ
ĠzlodÄĽ je
Ġbezpe Äįnost
ĠNav r
Ġup ek
Ġschov Ã¡vala
Ġhorn s
ĠobyÄįej nÃ¡
Ġtem nÃ½
Ġdiscover ing
Ġpos louchÃ¡
ov anÃ©
Ġnep ro
ĠZach rÃ¡nil
Ã¡ve jte
Ġmamin kÃ¡m
ĠP il
blÃŃÅ¾ ÃŃ
Ġplav ky
ĠnÃ¡pomoc nÃ¡
li lo
ĠkrÃ¡ st
Ġpop cor
ĠpÅĻij al
ĠSad ie
ĠkÃ½ v
ĠnezaÄį alo
Ġm arshmallow
ÄįÃŃ te
Ġvelkorys Ã½
ĠvÃ¡ Å¾ÃŃ
Ġkr mit
ĠBa a
Ġzbran ÄĽ
ĠS ure
ri age
Ġpoh rom
ĠChy stal
ĠhasiÄį i
B a
ĠfontÃ¡ nu
Ġot ÅĻel
Ġchod nÃŃku
ÅĪ ovat
Ġpok ry
i ÃŃ
Ġopas ek
j elo
Ġvy ku
ĠPod ala
uj me
ĠH appy
la li
Ġz es
Ġsp adlo
ĠSoph ia
ĠVyd Ã¡vÃ¡
Ġsoust ÅĻed
Ġchlap Äįe
Ġsk Ã³
Ġsbali t
ĠMay a
l nÃŃ
ran ce
Ġpe ÅĻÃŃm
Ġpev nosti
B ÄĽ
oh l
Ġku ÅĻata
Ġod chÃ¡zet
Ġra z
Ġchy st
ĠLily inÄĽ
Ġe ast
Ġsamot ÄĽ
Ġtwink ling
ĠVe Å¡el
Ġneh raje
Ġzkla man
Ġhru bÃŃ
niÄį anÃ©
Ġd ent
Ġsor ting
ĠH lu
ĠnadÅ¡en ÃŃm
Ġprincez nÄĽ
Ġk em
ĠTak hle
Ġuk radl
ĠhasiÄį e
ĠZoe y
ĠoblÃŃben Ã©ho
j nÄĽ
ĠÅ¾ enÄĽ
ĠjiskÅĻi vÃ©
G randpa
ĠP au
ĠÄĮe kajÃŃ
ran ny
ĠT Ã¡hnou
Ġu st
ĠV ej
Ġzmi zÃŃ
ĠÅ¡ed ou
id o
Ġzp om
ovi es
ĠvozÃŃ kem
Ġsoucit nÃ½
ĠM ilo
lÃŃ d
ĠpÅĻedstav oval
ĠS c
Ġwe st
ĠtrÃ©n ovat
Ġvysvit lo
ĠH olÄįiÄį
ĠodmÃŃt l
Ġtext ure
Ġvow ed
ĠtÅĻpyt ÃŃ
Ġga zed
Ġna Å¡imi
ĠmÃ¡s lem
Ġres ult
Ġpur red
Ġv Å¡ÃŃ
Ġled ovÃ©
Ġkot vu
ĠBen ovu
Ġre lu
Ġoprav ili
ĠmotÃ½ lem
ĠnehÃ½ bal
Ġmimo ÅĻÃ¡d
Ġm ovies
ĠD va
ĠLab uÅ¥
Ġtane Äįnice
Ġpej sku
ful ly
Ġdiv o
Ġgu ys
Ġpo lÃŃch
Ġpomoc nÃŃk
Ġztrac enÃ©
Ġkach nÄĽ
ĠHoli Äį
ĠL it
Ġbab ies
r Å¾el
Ġcaut ious
U vidÃŃme
ĠS ouhlas
Ġsed l
ĠÅĻ ÃŃt
Ġod z
ĠÅ¾Ã¡d nÃ©ho
Ġne hody
na ut
ĠdveÅĻÃŃ ch
ĠM or
Ġz opak
ÃŃv ajÃŃ
ĠbabiÄį ko
Ġth ro
ĠjeÅ¡tÄĽ rka
Ġstis kla
x pected
Ġt ek
Ġjisk ry
nad ala
Ġbe ard
Ġu stoupil
Ġho lu
Ġvy zv
Ġpohrom adÄĽ
Ġvy Äįerp
Ġpad ajÃŃ
Ġdrs nÃ©
as m
Ġk udr
ĠoblÃ© ct
ÄĽst n
Ġstud ent
ĠSklo nil
ĠÅ¡ vi
ĠmilÃ¡ Äįku
ĠvÄĽtviÄį ky
ĠhromÃ¡d ky
ĠÅ¾vÃ½ kal
S andy
ĠK ost
Ġgun s
ĠZpÃŃv ali
Ġzkontrolov ala
Ġhra cÃŃ
Ġta hal
ĠVz hlÃ©dla
Ġn u
Ġbubl in
Ġznepokoj en
ĠpÅĻ Ã¡t
Ġent ire
Ġpow ers
Ġprincez ny
Ġapplaud ed
Ġ ĠĊ
ĠuvolnÄĽ nÃ½
Ġpo jÃŃd
Ġsv aly
Ġbar vÃ¡ch
Ġnes la
Ġspoluprac ovali
Ġpe bbles
ĠzdÅĻÃŃm la
ĠpÅĻÃŃ Å¡tÃŃ
Ġdost ateÄįnÄĽ
Ġuvol nit
ĠmazlÃŃ Äįek
la nt
Ġpo ÅĻÃŃd
th ank
ĠnÃ¡hrd el
Ġsil ence
Ġnemoc nÃŃ
Ġlo ose
Ġtick le
l ly
ĠC ho
ĠvÃŃ Å¡
ĠvÃ¡ zy
Ġdovo lil
ĠPoskak ovala
Ġrozum ÃŃ
Ġhra ju
Ġstro pu
ĠneudÄĽl Ã¡m
ile y
ĠvÃ½ bÄĽ
Ġhust Ã½
R Ã¡do
Ġp ustili
Ġsm ar
lÃ¡ nÃŃ
Ġned ÄĽlej
ĠvÄĽtvÃŃ ch
Ġsho ck
ĠvychutnÃ¡ vala
r out
Ġhr bo
ĠpÃ¡chnou cÃŃ
ani ka
Äį at
ĠDÄĽla l
Ġproje ct
hov Ã©
Ġbrosk ve
ĠumÄĽ le
Ġur ged
a je
ĠÅ¡iro kÃ¡
ĠsvÄĽ dÄĽnÃŃ
VÃŃte jte
ĠKar en
S ly
Ġplo tem
Ġhlas y
Ġac ted
Ġvr Äįel
Ġlux ury
ĠV ÃŃÅ¡
Ġroz hlÃŃÅ¾et
Ġdrag ons
ĠÃºspÄĽ Å¡nÃ¡
ĠklacÃŃ ky
Ġdrag ged
Ã¡te m
ĠlegraÄįnÃŃ ho
ane c
ĠzÃ¡suv ku
ĠSbali li
jed e
Ġleb ku
ĠcÃ¡ kali
Ġvy chlad
Ġky mÃ¡
Ġune xpected
Ġf oc
Ġklu ka
ĠhraÄį ce
Ġin sp
Ġneb i
Ġvyno ÅĻila
V ÄĽ
Ġc vak
Ġpapou Å¡ka
ĠÅ¾Ã¡rov ku
nu lo
Ġnakres lil
Ġdolph ins
Ġv rÃ¡
Ġdne m
B rzy
Ġrock ing
Ġpus y
Ġnebude Å¡
ĠNa j
Ġtmav Ã©
Ġcat ches
Ġnes nÃ¡
Ġemergen cy
D ÄĽl
Ġjezd ili
S k
ĠB oh
Z tratil
ĠD elf
Ġzd Ã¡l
Ġtyg ra
Ġpro sil
Ġfab ric
ĠnÃ¡d r
Ġpil u
ĠÅ¾e hli
Ġzavrt ÃŃ
N ina
Ġk vÃ©st
Ġne kou
Ġvy rÃ¡
ĠV Å¡e
Ġos m
Ġchew ing
Ġdovo lit
ĠaraÅ¡ÃŃ dy
r Å¾ela
ĠOdpovÄĽ dÄĽl
nes li
rost y
Ġskute ÄįnÃ¡
Ġm ittens
Ġte hdy
Ġsli z
ĠkvÄĽt u
ĠmotÃ½ lovi
ĠPoz or
Ġzkou Å¡ku
Ġstri ke
Ġvyraz ila
ĠÃºkry tu
Ġcomple ted
gan iz
Obj ali
ĠseÅ¾ rat
Ġcurtain s
Ġu dÃ¡lo
Ġk len
Ġu h
ĠS vÃ©
Ġroz e
Ġmus cles
Ġkysel Ã½
ze jÃŃ
ĠnepÅĻÃŃ jem
ĠVon ÄĽlo
ĠZ ÃŃtra
ĠpovÃŃd ajÃŃ
Ġplu la
Ġves elÃŃ
Ġved e
ĠH avran
ĠtrÃ¡v nÃŃku
ĠvÃ½t ahu
Ġlamp a
ĠsprÃ¡sk la
c use
ĠÅłtÄĽ kal
Ġholub ici
Ã¡v y
Ġtla mÄĽ
ĠrÃ½ Å¾e
Ġstav ÃŃ
Ġdoru Äįit
Ġzazvon il
la n
ĠTim em
Ġpohla dil
g o
Ġc ro
ĠOb je
Ġoblo hy
Ġnosoro Å¾ec
l Ã½mi
Ġastro naut
Ġdire ction
Ġhudeb nÃŃk
Hled Ã¡m
Ġintroduc ed
ĠneÅĻek la
ĠMÃ½ lil
ĠnevrÃ¡t ila
sk Ã©mu
ĠKach ny
ĠAnd ÄĽl
Ġspat ÅĻÃŃ
Ġsoucit nÃ¡
Ġklobou ku
ĠO vce
ĠÅ¡pat nou
ĠklobÃ¡s u
Ġpro hlÃ©dla
Ġste ep
Ġpat ience
Ġpala Äįinky
Ġmatemati ku
Ġse v
ĠA ni
Ġnap il
ĠÅ¾i let
ĠPocho p
Ġimport ance
Vid ÃŃm
Ġne ub
ĠJack ie
k oval
he e
ĠM ÃŃch
Ġkous ne
vit o
Ġnedost ala
Je jÃŃ
Ġrelu ctantly
Ġpom alÃ¡
Ġse ason
ĠD Å¯m
Ġpoh nula
ĠNÃ¡m oÅĻ
Ġvyrob ena
Ġhig hest
Ġtele fonem
Mus ÃŃte
Ġsi rÃ©
Ġodp lou
ĠtÄĽÅ¾ kou
P ÅĻed
Ġd bala
Ġk rou
Ġhad ÅĻÃŃ
Ġchichot ali
kÃ¡ nÃŃm
ĠRob bie
Ġpou Äįit
ĠZÅ¯st ali
Ġfig ured
Ġspre j
Ġmu Å¡lÃŃ
ĠvÄĽ ÅĻila
Ġvyb ere
Ġpohy bujÃŃ
Ġdis k
Ġshiver ed
hh hh
Ġpilul ku
or ts
Ġtr vat
Ġzahanb enÄĽ
ĠZaÄįÃŃ nÃ¡
Ġele g
Ġsolut ion
Ġmoud rost
ĠHra Äįka
ni ct
Å¯leÅ¾it ÄĽjÅ¡ÃŃ
ĠobjÃŃm ala
R emember
Ġzelen Ã½ch
mu se
Ġko Å¡tÄĽ
ĠzÃ¡vod ili
Ġohledupl nÃŃ
ĠVola la
ĠstrÃ¡v it
Ġkohout ku
Ġo le
Ġk aÄį
ust ed
Ġplane tu
ĠUp rostÅĻed
Ġlibr arian
a ÅĻÃŃ
ĠTÃŃm to
V el
Ġf lat
Ġrock ed
mys let
Ġtaj nÃ½
ĠK ro
Ġchut nal
ĠfontÃ¡ ny
Ġshel ves
Ġch ases
Ġcon test
Ġmuff iny
ĠB oj
Ġscream ing
ĠlÃ¡s ka
Ġhon ila
Ġhroz nÃ¡
Ġpotrav inami
Ġjednoduch Ã©
Ġfro zen
Ta hle
Ġve Å¡k
Ġjar o
Ġne muse
Ġbarev nÃ©ho
Ġne zd
Ġso cha
Ġta hle
Ġdruh Å¯
Ġschov ali
Ġzlom ila
ĠdÅ¯vÄĽ ÅĻ
S po
Ġpour ing
Ġjedine ÄįnÃ©
Ġob lak
Ã¡ lit
Ġu chopil
Ġtr hala
ĠtÅĻpyt ivÃ½
Ġrozma z
Ġrep la
ĠodpovÄĽ dÄĽlo
ĠpÅ¡en ice
ĠS lu
ĠP i
ĠpÅĻek on
Ġkon trolov
Ġo lej
ĠM in
ĠK oza
ÃŃn ky
ĠuÄįite li
Ġur ÄįitÄĽ
ĠzmenÅ¡ ovat
ĠkÅĻÃŃ du
ĠPro chÃ¡zeli
ĠpÅĻid ali
ĠV Å¯
Ġmou dr
Ġh ihÅĪ
ap omeÅĪ
ĠA sh
ĠoblÃŃben Ã½m
ĠHod ila
Ġw ound
Ġhor kÃ©ho
u Å¡
ĠprÃ¡v nÃŃk
me lia
ĠNe ustÃ¡le
Ġpra chu
b ly
Ġru bbing
Ġsty dÄĽla
ĠK Ã¡men
Ġstar ing
Ġtheir s
ĠvÃ½t vor
ĠvÃ½bor nou
ĠstrÃ¡v il
Ġw ed
J deme
ĠnÃ¡d rÅ¾
ĠÃºst ÅĻici
Ġup out
ĠbÄĽ hu
ĠstÅĻÃŃ let
Ġs nesl
Ġposkak uje
Ġdojed li
ĠPÅĻe s
ĠhvÄĽzd ami
ĠzazpÃŃv at
ĠSklo nila
ĠtlaÄįÃŃ tek
ĠbalÃ³n kÅ¯
Ġneb Ã½t
Ġdostat ek
ĠmÃ½ lil
V Å¾dy
An n
Ġsigh s
ĠvÄĽd ro
Ġz eptÃ¡
ĠZÅ¯ stala
ick Ã½
Ġhug ging
Ġpob ÅĻe
Ġkajak u
Ġnavr hnout
Ġpopad li
Ġpokoj Å¯
Ġuzd ravÃŃ
Ġro aring
ĠnÃ¡p oj
Ġbah no
ĠOd vÃ¡
.. ."
ĠPÅĻ im
Ġsty dÄĽl
Ġdouf ali
ĠsmÃŃch at
Ġdri ves
ĠmÃŃchÃ¡ nÃŃ
Ġbaculat Ã½
Ġsor ted
Ġneboj te
Ġoli vy
Ġst are
led ge
ĠÅ¾iraf a
ĠprÅ¯vod u
Ġkudr nat
ĠpodÃŃv Ã¡me
Ġsna il
ĠvytvÃ¡ ÅĻel
Ġeff ort
Ġlo v
ĠMe g
Ġlaskav osti
ĠpÅĻÃŃÅ¡ ery
ĠD okÃ¡zal
Ġvyb alit
n us
Ġde j
he w
ĠzÃŃ skÃ¡
Ġinclu de
Ġnaps al
Ġostro vÄĽ
ĠS padla
ĠletÃŃ cÃŃho
Ġran ger
Ġop ravÄĽ
ÅĪ u
ĠT odd
Ġe ight
ĠstÅĻe Å¡e
ĠbonbÃ³ n
ĠA no
Ġsm rdÃŃ
ĠostraÅ¾it Ã½
ĠEm m
ir ts
es ome
Ġgre et
Ġvr ak
Ġsaf er
Ġsitu aci
Ġpo klid
Ġhoup ou
i Å¡ti
Ġvy jde
Ġdivok Ã©ho
Ġspl nit
Ġw ink
Ġne ochotnÄĽ
Ġzem ÃŃ
ĠPÅĻedstÃŃ rala
lÃ¡ Äı
Ġspad ly
Ġkomet u
ĠtuÅ¾ kou
Ġimp oz
ĠÄįist it
mi li
ĠPÅĻines li
ĠJed l
Ġplane ts
Ġsty l
E llie
ĠpÅĻim ÄĽl
P odÃŃv
Ġta Å¡kou
e Å¡el
it a
Ġsk lep
ĠNemoh ou
Rozum ÃŃm
Ġbal onek
ĠrozdÄĽ lit
Ġpy Å¾
v ÄįÃ¡tko
mÃ½ Å¡li
ĠpÅĻi von
ĠPan enka
Ġsitu ation
ĠcviÄį il
ĠspÄĽch ala
Äį ÃŃme
Ġvz tek
ĠotevÅĻ enou
Ġmotor ce
ĠMad die
ĠmÃ¡m in
rr r
ĠnÃ¡ hodou
Ġpolice man
y ing
ĠnavÅ¡tÃŃv ila
ĠOblÃ© kli
Ã¡ Äįku
ant ha
Ġpohod lÃŃ
bu Äıte
ĠChla pci
ro vÃŃ
Ġhad ice
ĠSt voÅĻenÃŃ
Ġosv obod
ry ch
Ġmagick ou
Ġpro t
Ġfood s
ĠZa z
Ġcur ly
ĠUdÄĽl Ã¡
Ġmost u
Ġknow ledge
ĠzachrÃ¡ nili
Ġnech ajÃŃ
ĠvydÄĽs ili
ĠPÅĻe stal
Ġnehod a
Ġmil Ã©ho
Ġvyle ze
Ġvyfot it
re y
ĠobtÃŃ Å¾nÃ©
Ġusu al
la sh
ĠdÄĽ kuje
Ġaw esome
ĠM ichael
be j
ĠMed vÃŃd
Ġkomet a
ĠnÃ¡ byt
Ġma Å¡lÃŃ
ĠJedn o
Ġzv one
Ġreg re
VÅ¡ ichni
ĠzÃ¡vrat ÄĽ
Ġhrom ady
ĠpÅĻibliÅ¾ oval
ĠzaÅ¡ept al
Ġpo sk
un ik
ĠVypad ajÃŃ
ĠÅ¡tÄĽnÄĽ tem
ĠUsly Å¡eli
Ġsh ined
ĠH us
Ġpass ing
ĠÅ¡lo fÃŃ
ĠSled ovali
am as
Ġmi zÃŃ
K o
Ġex ha
Ġnep ouÅ¾
Ġflag s
Ġryt mus
ĠU klid
ĠBess ie
ĠSim on
Ġbri lant
ĠpolÃŃb ili
Ġmok r
ĠDÄĽ kujÃŃ
ĠZa Å¡ept
Ġd ared
ĠSt av
Ġpen ci
ĠpobÃŃ hat
Ġbalan cing
Ġk Ã¡Äį
Ġchyb ÄĽl
VÃŃte j
ĠblÃŃÅ¾ ila
m ot
ĠD iv
Ġmat ched
ĠpÅĻe mÃ½Å¡li
hlÃŃÅ¾ ÃŃ
ĠSnÄĽ hul
Ġsw oop
Ġpl enty
ĠpobÅĻe Å¾ÃŃ
ir m
Ġvaf li
Ġcibu le
ĠkrÃ¡ le
Ġtow els
ĠprÃ¡zd nou
ĠpÅĻe ce
ĠPod ÄĽl
ĠÄįep icÃŃ
Ġb les
ĠtÃŃm to
ĠublÃŃÅ¾ il
Ġzmat enÃŃ
Ġku cha
ĠPap ouÅ¡ek
Ġsli my
Ġmrak u
ĠuklÃŃ zela
ĠnepoÅĻÃ¡d ku
Ġkorun ku
ĠvlÃ¡ Äįek
ĠSp ÄĽch
ĠochrÃ¡ nit
P os
ĠNech ala
ĠlepÅ¡ÃŃ ho
ĠpÅĻÃŃro dÄĽ
ĠumÄĽ nÃŃ
ĠplÃ¡ Å¾e
Ġdrah ou
ul ts
Ġl h
Ġzb lÃ¡z
Ġnaj du
ĠnavÅ¡tÄĽv oval
Ġjach tu
Ġzamr kal
Ġpolicej nÃŃ
O ops
Ġhe el
ĠZ lo
Ġli ed
Ġsko ÄįÃŃ
Ġslav nÃ¡
D ouf
Ġvyp tÃ¡
Ġnebude te
ĠF rosty
i jte
ĠmÃ½d la
ĠslunÃŃ Äįko
ÃŃ ku
ĠA m
oj o
Ġhome work
th ough
Ġzlat ou
ĠzÅ¯st alo
Ġnajde te
Ġmamin kami
Ġcheer ing
ĠChud Ã¡k
l enÄĽ
ĠÅĻe Äįeno
Ġovoce m
Ġv nu
ĠW endy
Ġnapl nili
ĠC hodil
vÃŃ c
ĠbÄĽÅ¾ ely
Ġstar ost
Ġvl nÃ¡ch
ĠV Ã¡le
ĠpÅĻi jeli
iv u
pÄĽ ch
Joh ne
Ġod dÄĽ
ĠmedvÄĽd e
Ġpretend s
Ġbra very
Ġdelf ÃŃna
ĠpÄĽk nÃ©ho
Ġodm l
Ġbo jÃŃm
ĠdÅĻe zu
ĠzÃ¡ sob
Ġpomoh ly
ĠP ut
j amas
ĠC iz
Ġtru ly
Ġmag ii
ĠchrÃ¡ m
in Ã©
Ġu ÄįenÃŃ
ĠV stal
Ã¡ve j
o jÃŃ
Ġnezap omenou
Ġwed ding
ĠodpovÄĽ di
ĠplÃ¡Äįe Å¡
ĠSdÃŃle jÃŃ
mi es
ĠZaÄįÃŃ najÃŃ
ÄĽ je
ĠP on
Ġencou rag
Ġs raz
Ġrainbow s
Ġoc el
Ġpostar at
To by
Ġhraje Å¡
ĠzÃ¡h adu
ĠZ bytek
Ġvlaj ka
ĠP rom
Ġgo als
Ġrozes mÃŃv
Ġhodnot u
Ne z
ĠÄįet li
Ġdisk ut
Ten hle
ĠobzvlÃ¡ Å¡Å¥
ĠjeÅ¡tÄĽ rku
Ġklid nÃŃ
Ġvzdy chla
Å¾e jÃŃ
Ġko Å¾eÅ¡
ĠnÄĽk de
Ġzooke eper
rÃ¡v at
m ur
ĠzmÄĽ nilo
po jÃŃ
Ġsaus ages
ĠÅ¡lofÃŃ ka
ĠÅ¡tÄĽnÄĽ te
ĠudÄĽl Ã¡te
ĠnÃ¡dob a
Ġfotograf ie
hov ali
J est
Ġru ko
ĠÅ¡tÄĽd rÃ¡
NÄĽk dy
ĠNechÃ¡p ala
Ġpok rÄįil
Ġspat ÅĻili
Ġch ang
Ġholi Äįi
flow ers
Ġzmat enÄĽ
Ġth reat
ĠN enÃ¡
Ġrest ing
ĠnaÅ¡ ich
Ġ1 0
Ġaccompli sh
om ile
ĠOd vedli
Ġfil mu
Ġnarozenin ovou
ĠvajÃŃ Äįko
Ġdobro ty
Ġp Ã¡t
ĠpodÃŃv aly
ĠkÅĻÃŃd ou
Ġpep ÅĻ
Ġvyrob ili
ĠF or
ĠOto ÄįÃŃ
Ġpat ted
Ġset kali
et a
ĠÅ¡pat nÃŃ
Ġled ovÃ½
ĠzÃ¡ b
Ġca used
Ġpaint ings
Ġrad ishes
ĠpÅĻe z
Ġh nus
Ġk les
ĠpÅĻiprav il
ol ine
ĠzÃ¡bav nÃŃ
ĠKni ha
od e
Ġde ch
Ġnej radÄĽji
Ġreach ing
Ġzahanb enÃ½
Ġsamolep ky
Ġvzpom ÃŃnek
Ġse ri
Ġzelen ina
ĠdokÃ¡z ali
Jest li
z ni
Ġk ami
ĠS ou
Ġjin Ã½mi
ĠtrÃ¡v ili
D ruh
ch l
ĠPos adila
Ġplaz it
ane ÅĻÃ¡d
Ġjas nÄĽjÅ¡ÃŃ
ĠKo lem
Ġmis ce
Ale x
ĠÅ¡ ac
ĠA unt
Ġpohov ky
le l
Ġpack ing
ĠzÃ¡ ÅĻilo
Ġuk ry
or ganiz
ka cÃŃ
ĠV stala
ĠkrÃ¡lÃŃ Äįku
ĠDo Å¡li
ĠpovÃŃd ala
Ġbloom ing
Ġargu ing
Ġko lech
Ġtlap ky
Ġz aneÅĻÃ¡d
H mm
ĠJ istÄĽ
ĠkÅĻÃŃd lem
Äį ovat
en ci
Ġkap ky
Ġbasketbal ovÃ½
ĠkÅ¯l ny
S h
ĠpovÄĽ sila
Ġzu ÅĻi
ĠPok ou
ĠpobÃŃ hali
Ġchichot ala
n ak
Ġgrow ling
ĠKry sa
Ġstud ny
Ġrost ou
Ġmok ro
Ġporan ila
ĠM on
ion a
ĠobyÄįej nÃ©
Ġbohat ÃŃ
Ġspray ing
Ġodve zl
ĠPÃŃ Å¡e
ĠzÅ¯st aly
Ex cuse
Ġnajde Å¡
Ġten kÃ½
Ġfla vor
Ġpoli c
ĠVel kÃ©
ĠpostÃ½l ky
ĠpolÅ¡tÃ¡ ÅĻi
Ġpolov inu
ĠpoÅ¾ ad
Ġklen ot
Ã¡v Ã¡nÃŃ
ĠpÅĻikÃ½v nou
Ġty Äįin
Ġpostav a
Ġkart on
ĠAl ways
ÅĻÃŃz nout
ĠÅ¾lut Ã½m
Ġplach t
ĠspÃ¡ nek
Ġsko Äįili
usÅ¥ te
ĠKro kod
Ġtv Ã½mi
ĠkolÃ¡Äį Å¯
Ġexha usted
Ġwait er
Ġzim u
z ou
Ġt ÅĻÃŃdit
Ġdoprav a
Ġz jistÃŃ
Ġmamin Äįinu
ĠDot kla
ĠÅĻek nu
Ġsweet s
ĠpouÅ¾ÃŃv ajÃŃ
ĠÅĻed kev
Ġmark ers
Ġvynd at
Ġstrugg le
Ġod loÅ¾it
ĠvytvÃ¡ ÅĻeli
ĠOli z
Ġmot ion
Ġtr val
ĠrytÃŃ ÅĻi
Ġvz nesl
Ġjel o
Ġnez kus
ĠmÃŃr nÃ½
Ġkneel ed
Ġkap el
Ġsund ala
ĠPor an
Ġpou Å¾it
Ġpovzbuz ovali
ĠChy b
ĠVyt vÃ¡
Ġzasek l
ĠvozÃŃ ku
Ġz ÅĻÃŃt
ĠH olly
ĠvÃ½t ah
ĠvyrÃ¡b ÄĽt
Ġm Ã¡vajÃŃ
Ġstick ing
Ġklu ci
Ġrozko Å¡ÃŃ
Ġuniverz itu
Ġh ÅĻÃŃv
ous y
Ġbezpe ÄįnÃ¡
Ġwork er
Ġst ÅĻedu
Ġu stoupila
Ġpad al
Ġse men
ĠBenny mu
ĠmÃŃch al
Ġp Ã½ch
Ġpo vol
ÅĻe jÃŃ
ĠlÃ© Äį
Ġnez ran
Ġpo kaz
Ġpras kl
k Å¯m
ri ket
Ġpad dled
Ġneobvyk lÃ½
D okÃ¡zali
v ÄĽl
ĠtÄĽs nÄĽ
P at
h rÃ¡l
Ġa li
Ġsp ike
ĠzvÄĽdav Ã©
Ġchy tÃ¡nÃŃ
Ã ĵ
Ġd vou
Ġm Ã½ch
Ġtrou bÄĽ
ĠgÃ³ l
ĠR ay
ĠsbÃŃ rÃ¡
Ġkoupel nÄĽ
Ġs way
ue st
M io
Ġdost alo
ĠSeb rala
Ġbo la
Ġpostar ala
Ġdole va
ĠdÅ¯ vod
Ġps Å¯
ĠUtÃŃ kÃ¡
Ġzap oj
ĠpapÃŃr Å¯
Ġu hod
Ġman e
ĠkamarÃ¡d it
Ġstart led
hel lo
Ġtravel ed
Ġkuf ru
Ġdek ou
ĠprozkoumÃ¡ vÃ¡nÃŃ
ĠpÅĻÃŃÅ¡ eru
ĠzprÃ¡v y
ad ly
ĠhadÅĻÃŃ kem
Ġne chod
ĠChy bÃŃ
Ġsuperhrd ina
Ġhrub Ã©
Ġrescu ed
ĠtalÃŃ ÅĻi
el ka
Å¯Å¯Å¯Å¯Å¯Å¯Å¯Å¯ Å¯Å¯Å¯Å¯Å¯Å¯Å¯Å¯
Ġsou dce
Ġbubl inu
Ġsr stÃŃ
Ġpavu Äįinu
Y e
Ġhlad ovÄĽ
Ġt rat
Ġkroc ana
Ġnemus el
Ġodstran it
Ġvelry bu
Ġwr itten
Ġchud Ã¡
ĠUcÃŃt ila
i j
Ġinvit ing
Ġcub es
ĠPÅĻedstÃŃ ral
Ġsund al
Ġkap itÃ¡n
Ġprod Ã¡val
Ġzna Äįky
Ġza uj
Ġex pected
Ġmatch ing
ĠknÃŃ rek
ĠNab ÃŃd
is ky
Ġved l
ĠKr tek
ĠpÅĻe letÄĽl
Vz ala
Ġob Ã¡lky
ĠF ido
Ġzav Ã¡
Ġcut s
iv Ã©ho
Ġbott les
ĠcÃ¡ kat
Ġdust y
ĠspÄĽch al
Ġvyzv ednout
ni ck
ĠlÃ© to
ĠmÃ¡ sla
ĠR uth
Ġrestau raci
Ġbe ad
Ġsing er
Ġreve al
Ġp ili
ĠTan Äįila
A ha
ĠskvÄĽl Ã©ho
ĠpobÃŃ hal
ĠblÃ¡t o
ĠD u
kÃ¡ Å¾ou
ĠZat la
Ġpos lal
ĠpokraÄįoval y
Ġlv ovi
Ġregre tted
Ġkou ÅĻe
Ġzku Å¡en
Druh Ã½
ĠpÃŃ Å¡e
Ġmou cha
Ġchut nÃ½ch
ĠzazpÃŃv al
Ġg uest
ĠsoutÄĽÅ¾ ivÃ½
ĠneodpovÄĽ dÄĽla
ĠHus a
la Äįit
ĠMart ha
Ġprac ujÃŃ
Ġsy m
ĠPos louch
che t
ĠdobrodruÅ¾ nou
ĠÄįist ÃŃ
Ġlearn s
ĠSest ra
Ġprincess es
Ġblo omed
ĠbalÃ³ nu
ĠstÃŃ ny
Ġtremb ling
b et
ĠmÄĽ ÅĻit
Na Å¡la
ce mi
Ġkole jÃŃ
Ġcreat ing
ĠDod Ã¡vka
Ġzap nula
Ġfu zzy
Ġospal ÃŃ
ĠH a
ĠmÄĽ dÄĽ
Ġkop nout
ĠFu zzy
Äįka li
Ġhlas u
ĠSÃ¡ÅĻ ina
Ġp alu
Ġarri ve
ĠUcÃŃt il
ĠpÅĻ ednÃŃ
are v
Ġch uck
ĠPro hled
Ġodved li
Ġpencil s
Ġs lou
ne se
ĠmoÅ¾ nost
Ġrecor ded
Ġrepla ced
ĠCiz inec
ĠtÅĻpyt il
ĠpojÄı te
Ġpoku sech
p ite
Ġmar riage
Ġspl nÃŃ
ĠSled oval
Ġkrevet y
Ġkem p
ĠT ÄĽ
ĠZ p
Ġjin ÃŃ
ĠkoÅ¡ ile
Ġostr Ã½mi
ĠFlop sy
ĠU kÃ¡Å¾u
ĠnevÅ¡im la
ĠPo Äį
ac hen
Ġvyp liv
Ġscho dy
ĠvÃ¡Å¾ nÃ½
ĠodpoÄįÃŃv al
Ġk achen
ĠsluneÄįnÃŃ ho
ĠDot kl
n joy
is ies
Ġcitro ny
Ġob dob
ĠzpÄĽ vu
Ġtla Äįila
Ġpoch mur
ĠUm ÃŃm
ĠZavrt ÄĽl
Ye ah
Ġop ravÃŃ
ĠjÃ¡s ala
ĠUte kla
Ġro b
Ġpostar al
Ġinclu ded
oz em
Ġobser ved
ĠB Ã½
Ġpokla du
Ġhrom ada
Ġtet u
ĠZkou Å¡ela
Ġza Å¡
Ġbud ovÄĽ
ĠVz ru
ĠmedvÃŃd kovi
Ġzm ÃŃn
Ġhloup ost
ĠPojÄı te
ĠNe vidÄĽla
Ġdisag ree
PÅĻÃŃ Å¡tÄĽ
Ã¡ ru
ne me
Ġvyb rali
Ġnezap omnÄĽli
Ġple Å¥
Å¾ ovala
Ġkres lili
Ġu loÅ¾il
ĠG or
Ġmas ter
Ġcuk rovÃŃ
ĠpÅĻipe vnit
lo bÃŃ
Ġobrazov ce
Ġpro dej
ĠzÃ¡bavnÃ© m
Ġm lÃ¡Äı
ĠtÄĽ Å¡ili
Ġmagick Ã½
Ġpoto ku
Ġk omÃŃn
Ġg est
Ġjin am
Ġsed adle
ĠblÃŃz kÃ©ho
Ġto Äįili
Nep laÄį
ne Å¡
ĠklÃŃ Äįe
ĠVon ÃŃ
o te
ti vÃŃ
ĠpÅĻe py
Ġda isies
ĠVytÃ¡ hli
Ġf irm
hy b
ĠUp ustila
Ġpar Ã¡d
Ġri pe
Ġpray er
ĠNÃ¡sled ovala
Ġpo ts
nÃ¡ Å¡el
Ġskluzav kÃ¡ch
ĠPrac ovala
Ġtim er
Ġs chou
Ġzved at
Ġfou kÃ¡
Ġact ivit
ĠpÅĻevlÃ© kÃ¡nÃŃ
K ate
ĠG ina
Ġpa jamas
ĠÃºklid em
Ġactivit ies
Ġroztomil Ã©ho
Ġtles kÃ¡
ĠKou zel
ĠCh rist
Ã¡d ali
lu la
ĠbaÅ¾ inÄĽ
Ġdark ness
Ġps anÃŃ
Ġzem ÅĻel
Ġblech a
R y
Ġh rou
y ou
Ġz by
ĠÅ¡at nÃŃk
Ġplo dy
ĠD ny
ĠzvÄĽtÅ¡ ovala
Ġwork ers
Ã¡r ny
ĠzamÃŃ ÅĻil
ĠR alph
Ġwor ries
Ġneklid nÃ¡
Ġpoch outek
Ġvon ÄĽl
bo tem
Ġdop rostÅĻed
ĠzajÃŃmav ÄĽ
ĠzmÃ¡Äį knout
Ġobru ÄįÃŃ
Ġroad s
en Ã½ch
Ġrem oved
Ġpolici e
Ġobrov skÃ½m
Ġkom Ã¡r
Ġorganiz ing
ĠMÄĽ sÃŃ
nÄĽ ji
Ġhor a
ĠpotÄĽ Å¡ilo
ĠvÄĽ ÅĻil
PotÅĻe buje
ĠmÃŃrumilov nÃ©
ĠN an
ĠpoÄįÃŃt Ã¡nÃŃ
Ġvent ured
ĠrozzÃ¡ ÅĻil
ĠdÃŃ l
Ġwi res
Ġchyb ÄĽt
ĠPovÃŃd ali
ĠvÄĽ Å¡Ã¡k
Ġpoz o
Ġhru Å¡ky
Ġrelie f
ĠÅ¡vest ky
Ġus es
Ġroz to
ĠDo Å¡el
ĠDelf ÃŃn
Ġmag ie
Ġencou rage
Ġtoalet u
Ġnez lobÃŃ
mm ed
Ġcomplet ely
M rs
Ġneb Ã¡li
Ġvypla t
ĠBo jÃŃ
Ġzam raÄį
ĠM Ã¡val
ang led
n k
P olly
rov ali
Ġcountry side
ĠzamÄį enÃ¡
Ġcrow d
Ġm luv
lÃŃ te
Ġdokon alÃ©
ĠPro chÃ¡zela
Ġfair ies
ĠSte jnÄĽ
ĠVy Äįist
Ġkuf ry
ide y
Ġopen ing
Ġvol nÃ¡
Ġvychut nat
Ġzmrzlin Ã¡ÅĻ
Ġwas ted
Ġle ap
Ġo mÃ¡Äį
vÃ¡ nÃŃm
Ġstore keeper
ĠpÅĻiprav ovali
Ġvez mi
ĠMe gan
nÄĽ jÅ¡ÃŃm
Ġtv ory
Ġown ers
Ġkli kat
ĠnevÄĽ ÅĻila
RÃ¡d a
ĠpÄĽ Å¡ky
Ġry bÄĽ
Ġvy stav
Ġuvid ÄĽly
Ġnejd Å¯leÅ¾itÄĽjÅ¡ÃŃ
ĠZOO M
M ohu
ÃŃ ÅĻil
Ġsv ol
Äįe jÃŃ
ĠzajÃŃmav Ã½
Ġimpoz antnÃŃ
Ġtr hat
Cht ÄĽla
Ġst Ã©
ĠzvÄĽtÅ¡ uje
Ġc ott
ĠNÃ¡sled oval
ĠsnÄĽhulÃ¡k ovi
ĠV oj
Ġnefung uje
Ġunav enÃ©
Ġjas nou
ĠlaviÄį ky
Ġodz nak
Ġne vÄĽdÃŃ
ĠdÃ¡r kÅ¯
Ġme Äįem
ĠdÃŃ lo
Ġbot a
ĠvaÅ¡e ho
Ġprost oru
ĠA Å¾
ĠNech ali
ĠblÅ¯z u
Ġjas nÃ½mi
te kla
ĠVy letÄĽl
Ġneh rÃ¡l
Ġzlom it
Ġpochod oval
Ġtwink le
ĠpÅĻe je
Ġjevi Å¡ti
ĠZ ara
ĠÃº terÃ½
Ġbel ly
Ġfa ult
ĠSad ly
z il
Ġner ada
Ġklack Å¯
Ġdo kÃ¡Å¾u
Ġzlat Ã½
E w
ĠplÃ¡ nem
ĠÅ¡ Ã¡l
Ġvod ÃŃt
ĠkÅĻup avÃ©
Å¯ ra
Ġopera ci
Ġvy myslet
Ġfar ma
ĠneÅ¡kod nÃ©
Ġproj ekt
ok Ã½
Sli buji
Ġz rych
ĠPÅĻis koÄįil
L illy
Ġpoli shing
ĠuÅ¡ k
F uj
Ġo ka
Ġzd Ã¡la
ĠstrÃ½ ce
Ġmal oval
Ġnepos lechla
Ġobcho Äı
ĠVyp liv
ĠpapÃŃrov Ã©
Nech t
Ġna Å¡lo
Ġbo om
Ġuzd ravit
ĠuÄįin it
ĠÃºtÄĽ k
ĠV la
Ġun f
Ġverand u
ĠkrÃ¡s ou
Ġquack ed
v ka
Ġus mÄĽjÃŃ
Ġzv y
Ġsklouz la
ĠO ut
Ġnad anÃ½
ĠpÅĻe Äįte
Ġlead er
ĠuÅ¡k lÃŃb
v Ã½mi
ĠV loÅ¾ila
Ġp Ã©ct
low ly
ĠzÃ¡vod ÄĽ
Ġvy stoupili
Ġdol lar
Mus ÃŃm
ĠzÃ¡b rad
ĠvÃ¡ za
ĠÅ¡piÄį kÃ¡ch
ĠpÅĻeÄįet l
Ġrozes mÃ¡l
ĠK ap
ĠmyÅ¡ ce
Ġsez nÃ¡m
ĠSt an
Ġrozesm Ã¡t
m il
ĠUtÃŃ kala
Ġbobu li
ĠkÃ½ch at
Ġbec oming
ĠpÅĻes vÄĽd
Ġplach tÄĽ
Ġstro p
ĠkrÃ¡ Äįel
Ġjedin Ã½
Å¡t ro
ob ody
ĠSkÃ¡ kala
ĠknÃŃ Å¾ku
ĠnadÃ½ch anÃ½
ĠzvÃŃÅĻ Ã¡tko
ĠBir dy
Ġst ern
ok y
Ġzlob ivÃŃ
c a
Ġco py
Ġsees aw
Ġobnov it
ĠDave y
Ġnez a
Ġob ula
Nem Å¯Å¾e
Ġtajem nÃ©
Ġtmav Ã¡
mÃ¡ lo
M ittens
Ġvid ÄĽnÃŃ
ĠznÃ¡m ky
Ġb lÃ½
Ġstu hy
Ġkit es
Ġtlu stou
ĠKous l
Ġhot ovo
Ġkrab iÄįce
Ġnet vor
Ġplaz il
ĠPÅĻi stoupÃŃ
Ġfla mes
Ġpolici st
ĠvytvÃ¡ ÅĻet
Ġtrat i
Ġhor nÃŃ
ĠBy e
Ġspolehli vÃ©
ĠpÅĻÃŃjem nÃ½
Ġautobus em
Ġroztr hl
ĠsÃŃt i
After wards
ĠPt ala
Ġne ÅĻÃŃ
Ġla mb
ĠhÃ¡ zÃŃ
Ġvyrost la
ĠuÅ¾ ije
ĠV Ã¡
ĠU vidÃŃme
Ġtajem nÃ½
z val
ĠOb div
S te
Vypad Ã¡Å¡
Ġstav bu
kÃ¡t nÃŃ
Ġum oÅ¾
ĠuvÃŃ z
ĠdodÃ¡v ku
Ġfa ced
Ġnebud eme
Ã¡ lou
ĠPÅĻ itu
ĠtovÃ¡r ny
Ġgro cer
Ġevery body
k om
lÃ© zt
Ġta Å¡ka
Ġslo ny
Ġnerad i
Ġhl inÄĽ
Ġpoz nÃ¡m
ĠnepÅĻi Å¡la
Ġskon ÄįÃŃ
Ġmel ting
ĠoblÃ© kli
Ġpoem s
Ġs ovy
le ze
Ġzlom enÃ©
Ġpengu ins
Ġagre es
J ess
ĠBlo ky
Ġa hoj
ĠD Ã¡m
bot nice
How ever
Ġko Å¡i
Ġzb ar
ĠRo cky
ĠR Å¯Å¾
Ġposk lÃ¡d
Ġhop s
ĠpÅĻedn Ã¡
Ġna kup
ĠnevrÃ¡t ÃŃ
Ġod tr
Ġun t
rÃ¡ k
Ġkro kÅ¯
ĠvÃ½t v
ĠHolub ice
rÃ¡ ce
Ġch ar
lou red
Ġvan ish
ĠS un
Ġsk louzl
Ġhru d
Ġzmi zely
Ġzlob ivÃ©
Ġlimet ku
vo la
ĠtÃ¡ bo
Ġpap r
Ġklo k
ĠÅ¡ Ã¡lou
Ġsil Ã¡ch
allow een
Ġpolet oval
Ġsque aled
Ġkladiv em
Ġsl z
Ġpl nÃ½m
Ġleskl Ã½m
Ġryt mu
Ġvrace t
ĠbÃ½ ka
ĠZ eb
ĠkrÃ¡lÃŃ ci
Ġfold ing
ĠPÅ¯j deme
ĠS pe
Ġsc ales
ĠUn fortunately
Chce me
lÃŃ Å¡
Ġvid ÄĽlo
Mil lie
Ġnou zi
ĠsilnÃ½ m
ĠnedalekÃ© m
ĠdÃ½m ku
Ġpot ÃŃ
Ġsla p
ĠkÅĻi Å¡Å¥
ĠkoÄįiÄį ÃŃ
Ġhod ili
Ġvlo Äįky
ĠTÅĻÃŃlet Ã½
ĠB oth
ĠÅ¡ et
ĠKat y
ĠBou ÅĻe
Ġvyd ajÃŃ
Ġzd ravÄĽ
Ġlit ovat
Ġcrab s
Ġheal ed
ĠS pat
ĠkrÃ¡lÃŃ kem
ĠtÄĽÅ¾ Å¡ÃŃ
ĠstrÃ¡ Å¾ce
ĠoÅ¡kli vÄĽ
ĠskÃº tr
M ed
R ose
iÄį kami
ni f
ĠZav ÅĻeli
ĠpÅĻedmÄĽt y
Ġz h
Ġsanit ka
Ġskon Äįit
ĠUdÄĽla lo
Ġopin ion
ĠÅ¡ i
Ġnepod aÅĻilo
Å¡ iro
Ġpr k
Ġnep Å¯j
ĠzÃ¡ ÅĻily
Ġdlouh Ã½mi
ĠBub ba
Ġve jde
ĠRy by
Ġhelmet s
Å¡iro ka
ĠotevÅĻ enÃ¡
ĠleÅ¾ÃŃ cÃŃ
ĠpÃ½ch ou
Ġhel my
Ġ 2
Ġus ually
Ġlog s
Ġhistor ii
ĠpÅĻes koÄįit
ĠFred die
ĠNej ste
ahu je
ĠLe ave
Ġvytvo ÅĻenÃŃ
Ġpovzbuz ovala
ĠStÃ¡ l
ll en
Ġthro at
ot or
ĠpouÅ¡t ÄĽt
Ġnezastav il
ĠHolÄįiÄį ce
Ġkost Ã½my
ĠmedvÃŃd ky
ÃŃÅĻ ili
ĠÄįtv erec
ĠN arazil
Ġcrumb s
ĠH alloween
Ġko Äįko
Ã¡n ÄĽl
ĠzÃ¡brad lÃŃ
ĠPolÃŃb ila
ĠÅ¡tÄĽ kot
Ġtra ctor
Ġdi pped
Ġc ash
rÃ¡ m
ĠslunÃŃ Äįka
Ġnebezpe ÄįnÃŃ
ĠChy stala
Ġkoup at
ĠBud ou
ĠtÅĻpyt ily
Ġbyl inky
le sk
ĠmÅĪam ka
Ġlollipop s
ĠkrÃ¡ lem
Ġvod nÃŃ
ĠkvÄĽtin ou
Ġnat Ã¡hnout
ĠmedvÄĽd ÃŃ
ĠF ollow
ĠÃºtul nÃ©m
ĠVyd Ã¡vali
ĠPil ot
ĠpÃŃ skal
Ġteac hes
Ã¡t kem
ĠzvlÃ¡Å¡tnÃŃ ch
ĠpÃ¡s ky
ĠKrokod Ã½l
Ġukou sla
Ġzes ÃŃ
Ġply nuly
ĠsoutÄĽ Å¾i
ĠRost l
ĠPov zd
M ay
ĠO w
Ġsc ra
ĠrÅ¯Å¾ ovÃ©ho
ĠÅ¾el vu
el ÃŃky
Ġseem s
Ġkb elÃŃky
on nie
Ġgrocer ies
ĠnaÅ¡tv at
Ġode Å¡ly
Ġzavr Äįel
Ġdent ist
Ġzakous l
ĠzÃŃs kala
ĠpÅĻÃŃleÅ¾it ost
Ġs leÄį
ĠA melia
Ġzlat a
v in
Ġus adil
ĠpÅ¯j Äįil
Ġbole sti
ĠPat ch
ĠNakres lila
ĠSil nÄĽ
ild a
ĠNas adili
c enÃŃ
Ġs ak
Ġstay ing
Ġpamat ovali
Ġvybar v
Ġne buÄı
P od
Ġmod lila
Ġtab let
ÅĻe z
Ġhra vÃ¡
ĠvyrÃ¡b ÄĽla
n ÄĽl
u k
ĠN ovÃ½
Ġpoli shed
ĠVzru Å¡enÄĽ
J u
Ġzah rab
Ġf anou
Ġme z
ĠnÄĽ Å¾nÃ½
Ġpeek ing
ĠklÃ¡ dy
Ġto ss
Ġhun t
Ġrozvese lit
Ġprovid ed
Ġrep ly
ĠLou ise
H rÃ¡li
Ġosam ÄĽle
ĠprodavaÄį i
Ġjazy kem
Ġg eni
oraz ili
Ġexi stuje
ĠS vou
ĠP Å¡tros
Ġosla vit
Ġknight s
Ġo ku
ven Ã½
T ina
dÄĽ kuji
ĠneudÄĽl Ã¡me
Ġpra Å¡t
Ã¡d ou
Ġrozhod lo
ĠV r
ĠSt roj
Ġnes pat
Ġmajitel ka
ÅĻ ely
ĠPÅĻ ÃŃtel
Ġsn akes
Ġvalu ed
Ġhra jeme
Ġinterest ed
ĠdotÃ½ kala
ĠÅ¡kÃ¡d lit
Ġty hle
Ġpist olÃŃ
Ġblow s
mys lÃŃm
ĠposbÃŃ rali
Ġbrokoli ce
Ġcautious ly
Ġy um
Ġpod Ã©l
Ġsanit ku
Ġskryt Ã©
Ġmat Äįin
ĠW atch
Ġnas koÄįil
Ġkancel Ã¡ÅĻi
S hh
Ġtax ÃŃk
ĠpÅĻÃŃ stroj
ĠE va
lov Ã©
Ġpal Ã¡
Ġfla v
ĠÄĮek Ã¡
ozem Å¡Å¥
v lÃ¡d
m as
Ã¡ ny
Ġo ve
ÅĻ enÃ©
ĠR Ã¡no
ĠuÅ¾ ijÃŃ
Ġtla mu
y pala
ĠmÃŃ ru
Ġcra cked
ĠdÃŃtÄĽ tem
Ġplo d
Ġvy hodil
Ġus nuli
Ġrub s
ĠzahlÃ©d l
Ġchov ala
Ġp Å¡tro
Ġodraz il
ĠnepÅĻe stal
Ġtul enÄĽ
al ÃŃt
ĠA ng
ĠZastav ili
B av
ĠNos ÃŃ
Ġsym bo
ĠcÃ¡ kal
Ġr ings
ĠmlÃ½ na
ara way
Ġun ited
ĠÅ¾ab Ã¡k
ĠH ro
ĠKo lo
Ġchle bem
Ġpopcor nu
ĠV ÄĽt
ĠpÅĻed vÃ©st
jÃŃÅ¾ dÄĽt
ula tÃ¡
ĠdÄĽt skou
ĠmedvÄĽd i
ĠsilnÃ½ mi
ĠÄį aje
ver s
Ġos vÄĽ
ĠhnÃŃ t
ev in
ĠSp idey
Ġwin ked
? !"
Ġpart ic
ĠzlatÃŃ Äįka
Ġn astav
ĠHvÄĽ zda
Ġf araway
ĠJ ojo
Ġkocou ra
hlÃ©d nou
Ġprotect ing
ĠparÃ¡d nÃŃ
Ġf reed
Ġob tÄĽ
Ġtu Å¾ka
ĠpÅĻe h
Ġdes ert
Ġdosp ÄĽlÃŃ
ĠfaleÅ¡ nou
Ġpoky ny
he b
Ã¡le Å¾ÃŃ
Ġmar ked
Ġstav bÄĽ
Ġigno roval
Ġbalan ced
Ġmou ky
Ġzoom ovat
ĠS orry
Ġtla my
Ġmiss es
Ġkli ku
dÄĽ j
Ġno Å¾em
ĠhÃ¡ zel
ol ky
ĠPod al
Ġposlouche jte
ĠJ di
ab by
Ġsw allow
Ġhlu p
ĠÅ½ ralok
Ġnej p
ĠRoz bila
Ġsp on
ech li
Ġukli dÃŃ
Ġyoung er
ĠO bula
Ġdom ek
Ġclos es
ĠstrÃ¡ Å¾
Ġfaz oli
ĠnÃ¡ru Äįe
K at
Ġd vÃŃ
ĠN Ã¡p
Ġru ÄįiÄį
Ġzap omenout
ĠÃºsil ÃŃ
Ġbrilant nÃŃ
ĠV bÄĽhla
Ġzam ÅĪou
Ġzaklep al
Ġkost ka
Ġmu la
ĠvytvÃ¡ ÅĻenÃŃ
el ÃŃm
on i
Ġfore head
Ġsing le
Ġw rist
Ġvyro bila
Ġpas u
ĠOto Äįili
Ġch a
ĠVy rÃ¡b
Ġchuck led
Ġdo Å¡lo
Ġzelen Ã½mi
Ġkom p
Ġwander ing
ĠMedvÃŃd ek
ab el
Ġk ovu
Ġlisten s
ĠVrÃ¡t ÃŃ
Ġvy mal
ÄįÃŃ cÃŃ
Ġmou chu
Ġvyp il
Ġsign ed
ÃŃÃŃÃŃÃŃÃŃÃŃÃŃÃŃ ÃŃÃŃÃŃÃŃÃŃÃŃÃŃÃŃ
ob us
ĠdomÃ¡cÃŃ mi
ĠV loÅ¾il
Ġzam ÄĽstn
ĠzvÄĽdav ost
am o
Ġstar Ã©m
Ġkulat ou
ĠBÄĽÅ¾ ely
Ġbled Ã½
ĠzÃ¡ pÄĽ
ĠPÅĻi j
Ġenerg ii
Ġz organiz
Ġpot kali
ence s
ĠzvÃŃÅĻe ti
Ġspla shes
ĠhvÄĽzd ou
Ġzdvo ÅĻi
ĠHÃ¡ zeli
Ġpartic ular
Ġkalu Å¾i
ĠNechÃ¡ pal
Ġsed adla
ĠnablÃ½sk anÃ©
Ġpast ries
ĠPla vali
ĠNesly Å¡eli
ĠBÃ½ k
ĠChut nalo
ĠnaÄįechran Ã½
Ġbead s
ĠStÅĻÃŃd avÄĽ
Ġzaklep ala
Ġpodiv nou
ĠkrokodÃ½ la
ĠpÅĻÃŃprav ou
Ġstra Å¡nÄĽ
id s
Ġro ses
Ġhow ever
M i
Äį enÃ½
Ġhoup Ã¡nÃŃ
Ġact ions
z enÃ©
ĠzÃ¡pÄĽ stÃŃ
Ġza jist
pÄĽ Å¡
Ġml ze
Ġtlust Ã©
Ġjas nÃ©ho
ĠochrÃ¡ nÃŃ
Ġdire ctions
p ÄĽla
ĠAl ly
ĠD Ã¡l
Ġdob rot
Å½Ã¡d nÃ½
Ġknih ou
fou kal
ĠknoflÃŃ kem
ĠT Ã¡hli
Ġmnoho krÃ¡t
Ġnem otor
Ġtanc ovala
Ġcrack ers
ĠRoz bil
ĠvÄĽtve mi
ĠPotÅĻebuje te
ĠzaneÅĻÃ¡d ÄĽ
Ġobdob ÃŃ
Ġit chy
Ġvy stoupila
Ġzdrav ou
Ġholu ba
Ġo heb
ĠzÃ¡ pla
ĠpÅĻe stÄĽ
Ġpozor ujÃŃ
ĠNased li
ĠVyro bili
Ġu stal
ĠBou nce
Ġc ough
ĠPÅĻi prav
ĠMolly ina
ĠPÅĻedstav ovala
Ġmil ovanÃŃ
ĠEl le
ĠÃºzko stli
ĠpÅĻÃ¡tel skÃ½m
Ġmil ovanÃ¡
Ġcho p
ĠVytvo ÅĻili
ĠzÃ¡z rak
Ġr ip
Cht ÄĽli
t ud
Ġs leÄįnÄĽ
Ġc ous
Ġobjev ovali
ĠChy tÃŃ
Ġroot s
ĠpÅ¯j du
ĠÅ¾ÃŃ zni
Nej sem
ĠslÃ©t l
Z aÄį
ĠNap adlo
p ers
Ġa vo
ĠT oto
is hy
ĠZ tratila
Å¡ kem
Ġkuf ÅĻÃŃk
Ġodeh nat
ad ily
ĠA by
al ovat
Ġod v
Ġvychut nali
Ġk elÃŃm
Ġrych lost
ĠÄįe lit
Ġy esterday
ĠÅ¡ ik
Ġus ch
ĠBav il
ĠniÄį emu
ĠF riend
P ak
ĠÅ½ vÃ½
Ġpikni ku
Ġfill ing
Ġchobot nici
ĠMad dy
P oz
ĠÅĺÃŃ kal
ĠZpÃŃv Ã¡
Ġs otva
Ġobje vÃŃ
Ġvy u
Ġustar anÃ½
ĠpÅĻitu lil
ĠplÃ¡ c
ĠseÅ¾ ral
Ġnes p
B ad
Ġdeli very
ĠpostÃ½l ce
Ġb ÅĻit
ĠS es
ĠvÄĽ Å¾i
ĠhraÄį kÃ¡ch
Ġklu bÃŃ
Ġvyzdob it
ĠS padl
ĠTles kali
t v
rov ou
Ġztrat ili
ĠDan i
Å¡e ÅĪ
Ġzas adit
Ġsak o
ĠpÅĻÃŃ stÅĻe
Ġsnowball s
Ġvy ru
ĠÅ¾lut Ã½ch
ĠPÅĻe jÃŃ
ĠPodÄĽ kujÃŃ
Ġ X
ru sh
ĠpÃŃs m
Ġrest ored
ĠEl ly
ĠHled Ã¡
ĠbrÃ¡ ny
Ġveterin Ã¡ÅĻ
Ġbak er
ĠPop ros
Ġswoop ed
Ġt ÄĽla
ĠV bÄĽhl
Ġb lÃŃÅ¾e
Ġvy dÄĽla
ÅĻÃŃ zenÃŃ
Ġref le
us ing
ĠbÄĽh aly
ĠJezd ÃŃ
Ġste m
Ġpos un
Od p
ĠPÅĻe stala
Ġum ÄĽla
ĠZah rad
Ġavo id
Ġvy myslela
ĠpÅĻÃŃ zÃŃ
Ġmarshmallow s
?" ,
Ġga ze
Ġwigg led
ĠPotÅĻe buji
rat u
ĠVidÃŃ Å¡
Ġrozesm ut
ĠZ tratili
ĠohÅĪost ro
Dnes ka
Ġflut tered
Ġkraj inu
ĠCho botnice
Ġchyt ÅĻejÅ¡ÃŃ
Ġroll s
ĠVoj Ã¡k
Ã¡l ce
ĠM no
Ġnas adit
ĠVyd ra
ĠKni hov
Ġgeni Ã¡lnÃŃ
ĠH lad
Ġrozzlob enÃ©
Bob o
ĠpapÃŃ ÅĻe
ĠÅĻ adu
Ġpotrav iny
Ġphoto s
V e
ky nÄĽ
ĠodvÃ¡Å¾ nÃ©
Ġtr pÄĽt
Ġvyb ud
ĠNelÃŃ bil
Un fortunately
ĠSlu ne
M illy
Ġot c
ĠtrÃ¡v it
ĠveÄįe ÅĻÃŃ
Ġcup cakes
Ġskute ÄįnÄĽ
Ġnalo Å¾it
ĠosvÄĽ Å¾
Ġjin Ã©m
ov ers
Ġtlap ou
ĠnevÃŃ te
ĠP anda
ĠDÄĽla la
ĠÅ¡Å¥ ou
Ġoz valo
Ġsuit case
ĠÅĻ ady
ĠZem ÄĽ
Ġram en
Ġtvor Å¯
ĠNevÅ¡im li
Ġpodla hy
Ġmas a
Ġbump y
Ġc ik
Ġop ustil
ĠÅłtÄĽ kÃ¡
Ġorganiz ovanÃ¡
Ġtip to
Ġsome body
Ġvyp ila
Ġtem per
ĠvychutnÃ¡ val
ĠvyleÅ¡t it
ĠStrÃ¡ Å¾nÃ½
Ġv stoupili
ĠpÃŃs men
Ġstav ÄĽla
Ġumy l
ĠVÄĽ Å¾
Ġspokoj enÃ©
ĠPos adili
Ġhe b
Ġkluz kÃ©
ĠzÃŃs kali
Ġpo ÅĻÃŃdit
let ÃŃ
Äįel o
ĠpÅĻij ala
ĠkrÃ©m em
ĠH oney
ĠskvÄĽl Ã½ch
ĠDÄĽ kujeme
Ġrozmazl enÃ¡
Ġza chÃ¡zet
ĠW ally
Ġhud bou
klÃ¡d al
ĠÅ¡ ep
Ġukou s
Ro ar
ĠChrist mas
Ġsvol enÃŃ
ĠplachtÄĽ nÃŃ
ĠÃºspÄĽ chu
Ġml hu
ĠlÃ©ka ÅĻi
ĠÅ¡ac hov
Ġhlu chÃ¡
ĠlÃŃz Ã¡tka
Ġs lezl
ĠUdÄĽl Ã¡m
i jeme
ĠpohÃ¡d ali
ĠpoÅĻ ad
Ġpoch vÃ¡
ĠvytvÃ¡ ÅĻÃŃ
ĠsmÃŃ chem
ĠVyprÃ¡vÄĽ li
lad Å¡ÃŃ
Ġnakou kla
Ġpo loÅ¾
Ġpo ct
ĠR aket
ĠknÃŃ r
Ġcelebrat ion
dÄĽli li
Ġdoktor a
S ome
Ġs leÄįna
ĠprÃ¡d el
Otev ÅĻeme
ĠobchoÄı Ã¡ku
Ġram ÃŃn
H od
ĠK otÄĽ
ct ar
Ġpastel s
Ġachie ve
li vÃ©
Ġpodzem ÃŃ
ĠvydÄĽÅ¡en Ã©
ĠcÃŃ lovou
ĠMot or
ĠlÃ©ka ÅĻe
iz it
Ġboj oval
ĠZlo dÄĽj
ĠMa isy
ĠÅł pat
Ġrozpla kali
Ġvylep Å¡it
ĠomÃ¡Äį kou
Ġped als
ĠzÃŃv l
C ÃŃt
ĠbalÃ³n kem
ĠSkÃ¡ kali
ĠÅ¡pinav ÃŃ
Ġnezmi zela
Ġnez b
Ġsla vit
ĠosamÄĽl ÃŃ
Ġnedovo lila
m at
Ã© Å¾
Ġz ral
rÃ¡ nit
ĠZ lÃ½
Ġtri ps
ĠPostav il
V room
ĠÅ¡pat nÃ½m
Ġfro ze
ĠpirÃ¡t y
Ġletad le
ĠOm luvil
Ġtal lest
A h
Ġback ed
Ġschop nosti
ĠvzpomÃŃn at
Ġsop ka
Ġcash ier
ed ou
Å¾ nÄĽ
Ġvz hled
Ġaw ake
Ġbac ulatÃ¡
ĠÅĻedkviÄį ky
Ġroztr h
Ġk riket
ĠzvÄĽtÅ¡ ovat
ĠuvÃ¡z at
Ġdo Å¡iroka
Ġus nout
Ġklack em
Ġtw in
Ġtou lal
Ġkv Ã¡d
Ġbud ova
ĠkyslÃŃ k
mÃ¡ ly
Ġklouz al
Ġcere Ã¡li
Ġplane ty
Ġc ause
Ġdokon alÃ¡
Ġkol ena
Ġtmav Ã½
ĠsedmikrÃ¡s ku
ĠtÅĻe Å¡
Ġstodo lu
Ġhou by
ĠnavÅ¡tÃŃv il
ĠNÃ¡p is
Ġnepo kus
ĠudÄĽl Ã¡Å¡
mÄĽ me
Ġhlu ÄįnÃ¡
ÃŃÅ¡ nÃŃk
Ġur ÄįenÃŃ
Ġdark er
ĠPÅĻe je
ĠLilyin i
Ġdeterm ination
Ġod rÃ¡
Ġl ined
Ġtr valo
Jack u
ĠbÃ¡je ÄįnÃ½
Ġsec ure
ode ÅĪ
Ġne bav
Ġp ran
Ġrem ote
ĠAut obus
Douf Ã¡m
ĠJe ÅĻÃ¡b
Ġoblo hou
Ġned ÄĽle
Ġmrt vÃ©
Ġne ctar
ink le
rov na
ĠPopad li
Ġspe aking
ĠschrÃ¡ nka
ĠÅ¾iraf y
Ġz nÄĽlo
ĠMa e
ĠpoÄįÃŃtaÄį i
ĠpÃ³di um
ay s
Ġom luv
Ġzlep Å¡ÃŃ
ĠVraÅ¥ te
Ġnerozum ÄĽl
ĠBir thday
vÄĽ dÄĽli
Ġods koÄįila
i vÄĽ
an Ã½m
Ġkoupe li
ĠnehÃ½ be
s ure
ĠmÄĽ nit
ĠKe ep
ĠnesnÃ¡ zÃŃch
ĠP ochod
rov nÃ¡
ĠVypad Ã¡Å¡
iv ou
ĠbabiÄį Äįin
ĠNÃ¡moÅĻ nÃŃk
ĠzÃŃ ral
ĠvyÄįist ila
ĠPohyb oval
ĠP u
Å¡en Ã¡
ĠNe vy
ĠPro zkou
ĠznÃ¡ mÃ½
ĠM any
Ġpod ob
Ġboj ovali
Ġnek t
Ġblo ku
lez ou
Ġlh Ã¡t
Ġoc en
ĠvÃ¡le l
ĠÅ¡Ã©f ku
Ġcompla ining
A b
ĠpalÃ¡ ce
ĠvlÃ¡ Äįkem
Ġkne es
Ġstu hu
Ġvon ÄĽlo
: "
Ġb edn
Ġb ars
ĠOd letÄĽl
ĠmÃ½t inu
Ġnez namenÃ¡
Ġklouz ala
Ġklou Å¾e
Ġpoz nal
Ġdinosau ry
lÃŃ me
cit ed
Ġl vÃŃ
Ġnep ÅĻ
Ġhlubok Ã©m
ĠHo lohlavÃ½
Ġry bÃŃ
ĠprovÃ¡z kem
ĠstraÅ¡idel nÃ½
ĠchvÄĽ je
or man
ĠM luvÃŃ
Ġjab lo
Ġrecord ing
ĠhÅĻebÃŃ ky
Ġoliz oval
ĠpozvÃ¡ nku
Y ummy
Ġposlech li
ĠSnÄĽhul Ã¡k
F ine
Ġpro va
ĠD ory
Ġact ing
Ġschop nÃ¡
ĠklubÃŃ Äįka
Ġk az
Ġpo n
Ġno Å¾
ĠJed inÃ©
ĠOd nesla
ĠA ligÃ¡t
Å¡en Ã½
ÅĪ uje
Ġel f
ĠM el
Ġzav ÄĽ
Ġple asure
ĠzÃ¡Å¾it ek
Jedn a
Ġzah r
Ã¡h lo
Ġnaraz ilo
ĠFro ggy
P tÃ¡k
T Ã¡ta
ĠD Ã¡vala
Ġnech yt
ĠzÃ¡m kem
R un
Ġply n
Ġmok rou
Ġob al
Ġheal th
Ġbrambor u
Ġsil ent
ĠpomÃ¡h Ã¡te
ĠÅ¾id lÃŃ
Ġo kus
Ġsil nÃ©ho
Ġoprav ila
ble sk
Ġsne aky
Ġvide os
ĠNer ada
ĠhrajÃŃ cÃŃch
Ġrozhod nutÃ½
Ġced ule
ĠTan Äįili
Ġli qu
Ġzp o
Ġbu Å¡e
Ġnez tratil
Ġent rance
Ġch Å¯
Ġpro hlÃŃd
ĠZ vÄĽdav
je z
ĠSt ÅĻÃŃ
ĠzvÃŃÅĻe te
Ġdych tivÃ¡
Ġlet ÄĽlo
Ġba hen
ĠHo pe
ĠskoÅĻÃ¡p ky
ĠP ÅĻekvap
Ġset ÅĻela
Ġkop Ã¡nÃŃ
Ġp iggy
ĠS nila
es mer
Ġz hor
f ted
Ġroz lÃ©
ĠkoÅĻenÄĽ nÃ¡
Ġuhas it
ĠplÃŃ ce
ĠpolÅ¡tÃ¡ ÅĻem
Nik dy
ic ÃŃch
ara zÃŃ
Ġpochod ovali
ĠVyb ral
Bude Å¡
y ond
Ġn an
Ġkrout it
ĠV zd
ĠH Å¯l
Ġdomov em
âĢ Ķ
bo at
ĠBav ila
Ġfotbal ovÃ½
Ġprobud ÃŃ
ro vÃ¡nÃŃ
Ġg lee
Ġne Å¡
Ġco loured
ĠE njoy
ĠvznÃ¡ Å¡ÃŃ
ĠB al
Ġmatem at
Ġobjedn at
Ġli li
ĠSam antha
Ġkry su
Ġub rÃ¡nit
Ġchichot ajÃŃ
ĠDÄĽl Ã¡te
ĠÄį est
ĠblÃŃz kÃ©
ĠMod rÃ¡
Ġzbav it
Ġm esmer
Ġzv Ã¡
ĠÅ¾iv Ã©ho
lot te
ĠPozor nÄĽ
ĠP h
Ġop iÄįka
Ġwe ars
ĠpÅĻip omnÄĽl
ĠlegraÄį nÃŃm
Ġdeliver ed
Ġjak Ã½m
Ġzvon ÄĽnÃŃ
Ġsta ÅĻ
ĠZaz pÃŃv
b arev
ĠsuÅ¡en Ã©
Ġnap ila
Ġrocket s
Ġosob u
Ġre ci
Ġno on
Ġpan u
ĠÄįarodÄĽj nici
Ġforg iv
ĠzachrÃ¡ nÄĽ
Ġboj ujÃŃ
v room
Ġle zenÃŃ
Ġkous ku
ĠJo an
Ġpal Ã¡ci
Ġpoli Äįce
ĠzalÃ© vala
Ġod jet
Ġchat u
Ġsk lenÄĽ
Ġmi les
ĠAnn in
Ġvysko ÄįÃŃ
ĠC rab
Ġset kÃ¡
Ġsbali li
Ġcheek s
ĠMno ho
K rÃ¡
Ġtis knout
ĠZm rzl
Ġv izit
Ġot voru
ĠBe ing
Jak Ã½
Ġven k
Ġtri cked
Ġvlast nit
Ġmuze u
ĠbÃ¡s nÄĽ
ĠnemÃ¡ Å¡
Ġpru dce
ĠSled ovala
stu jÃŃ
ĠprochÃ¡z ÃŃ
Ġzat vÃ¡
Ġokam Å¾iku
Ġpon ur
W hee
Ġbe yond
rov Ã©
Ġsbali la
ĠzavÅĻ enÃ©
ÅĻÃŃ zl
Ġbydle la
ĠVytÃ¡ hne
Ġoslav ili
od ob
ĠsuÅ¡en ka
ĠtÅĻpyt ilo
ĠD ÄĽk
ik atu
ĠdozvÄĽ dÄĽli
ĠÄĮer v
Ġinsect s
ĠVrt ÃŃ
Ġand ÄĽla
ĠJ deme
ku te
Ġsed ne
ĠL ia
ĠP en
se qu
Ġafter wards
Ġspl nilo
Ġdo lar
Ġch icho
Ġglass es
ĠJon ny
ra ff
Ġram eni
Ġlech t
p Å¯l
ĠzÃ¡ dy
ĠtÄĽ le
Ġcho vÃ¡nÃŃ
ĠNÃ¡sled ovali
? '
Ġu loÅ¾ili
Ġhis sed
Cla ra
Ġkon tro
Ġov ci
Ġnejde Å¡
Ġsn at
ĠVydÄĽ sil
Ġcon sequ
ĠHlu k
Ġstay s
Ġvej pÅ¯l
ĠLÃ© kaÅĻ
ĠP a
Ġunav il
Ġstol en
ĠkvÄĽtin Ã¡ch
Ġprovaz em
ĠzvÃŃÅĻ Ã¡tka
Ġbasebal lovÃ½
s ie
iz on
ĠtÅĻpyt ivÃ¡
echan ik
Ġdojed l
Ã¡ nem
Ġop ustili
Ġbowl s
ĠNot hing
ĠmimoÅĻÃ¡d nÄĽ
Ġroz jel
Ġtick led
ĠpÅĻi chÃ¡zel
Ġnav lÃ©
Ġpla vit
Ġle sy
ĠC viÄį
Ġneopatr nÃ¡
Ġko stÃŃ
Ġnov ÄĽ
Ġtra Å¥
ĠÅ¾lut Ã½mi
Ġstr un
Ġvlaj ky
Ġjok ing
ĠH raje
Ġfar ther
ĠF iona
Ġneu k
Ġlepka vÃ©
raff es
Ġex pect
Ġvyt Ã©
ĠmaliÄį kÃ½
ĠPÅĻi bÄĽhnou
Ġscar ing
ĠplyÅ¡ ovÃ½mi
ĠzmenÅ¡ uje
Ġso bbed
Ġcolor ed
Ġkorun a
Ġmraz Ã¡k
Ġzkontrolov al
Ġbur st
Ġvys lov
Ġne hyb
ĠJane y
ĠsprÃ¡v nÃ½
Vez meme
ak tor
r Å¯st
lÃŃ ku
je Å¥
Ġuct ivÃŃ
te Äı
ĠÅ¡iro kÃ½mi
Ġneu vÄĽdom
Ġsen se
Ġrod in
Ġtri cky
Po kud
ĠV Ã¡Å¡
Ġfale Å¡nÃ¡
PotÅĻe bujeme
Ġmas ks
ĠpotÄĽÅ¡en ÃŃm
ho w
Ġsandcast les
ĠA u
ĠN et
Ġatt ack
DÄĽl Ã¡m
ĠÃº ct
ĠPotÅĻe bujeme
B olÃŃ
lu l
ĠodpoÄį ine
Ġumyv adlo
he ll
ĠmotÃ½l Å¯
Ġpozdrav ili
c ak
Ġsli buji
ĠrÅ¯Å¾ ovÃ½mi
lem Ã½
ĠstÅĻÃŃ hat
Ġkohout kem
Ġv lezl
is kla
Ġmotor u
DÃŃv ka
Ġsmradla vÃ½
Ġru le
T u
p ro
chÃ¡z ely
ĠhoupaÄį ek
Ġinst rum
ĠruÄįnÃŃ ky
Ġ Å¥
Ġperf orman
ĠvÄĽ dÃŃ
Ġsk ill
Ġgi raffes
ĠBe cky
Ġorganiz ovanÃ½
Ġc overs
Ġten kÃ©
L u
j edn
ĠB il
ĠK elly
ĠLe a
Ġsoused ka
ĠJan ina
ĠMod rÃ½
ĠÃºhledn ÄĽ
V ÃŃÅ¡
ab l
Ġchut nat
ĠotevÅĻ ou
ĠstÄĽ Å¾ÃŃ
H o
Ġp ause
ĠÃºtul nÃ¡
Ġdojed la
ĠM ina
Ġran Äį
Ġnaj dÄĽme
Ġst Ã¡nku
ĠÄį ase
ĠotevÅĻ enÃ½
ĠhÅĻe ji
Ġosla vÄĽ
Pom Å¯Å¾eÅ¡
ĠpolÃŃb il
ĠDÄĽ de
ĠO mlouvajÃŃ
ĠdÃŃv aly
Ġost rÃ¡
ĠNeposlouch al
Ġf ack
Ġhor izon
Ġochut nali
ĠvzÃ¡c nou
ï¸ı ï¸ı
D ovol
Ġvy stoup
Ġhand ful
Ġim po
Ġstra chy
ĠsbÃŃ rÃ¡nÃŃ
il Ã¡t
Ġg ri
Ġbou ÅĻ
Ġsebe vÄĽdom
Ġcalm ed
ĠmÃ¡v l
Ġchou lost
ĠhelikoptÃ© ru
Ġcel Ã©ho
s nÄĽ
Ġnik Ã½m
ĠSt Ã½skalo
bud il
Ġvyro bÃŃ
ĠnepÅĻest Ã¡val
f la
Ġtv orov
Ġvysok Ã©m
Ġzachyt it
Ġzabali l
Ġtalent ed
otÃ½ kejte
ĠpÅĻepy chov
l ler
Ġt angled
Ġpod ni
Je jich
Ġhroz n
Ġods ud
M alÃ¡
Ġz de
nÃ¡ Å¡ÃŃ
Ġcand ies
Ġsmar ter
Ġuvid ÃŃÅ¡
Ġbud ÃŃk
Ġkov ovou
ĠUsly Å¡ela
ĠBel le
Ġli Å¡
ĠosamÄĽl Ã©
Ġ Yes
Ġhra vÃ©
ajÃŃ malo
ĠÄįÃŃ sel
ĠGor ila
at Ã©
Ġnemoh ly
Ġscho vÃ¡
ĠLÃŃ bily
ĠÅ¡plouch nutÃŃ
Ġs udu
Ġml Ã¡t
Ġadd ing
ĠZeb ra
Ġzlom enou
Ġtrav nat
ĠTla Äįil
PÅĻip raven
Ġsh irts
ĠSt rÄįila
Ġknihov na
klÃ¡d ala
Ġo chran
Ġvysok Ã½ch
Ġscar ves
ĠRyb Ã¡ÅĻ
ĠmedvÄĽd ice
Ġsoused ovi
Ġind eed
ĠostraÅ¾it Ã¡
Ġna Å¾
ĠsbÃŃ rku
Bud eme
ĠS vÃ½m
Ġpo ledne
Ġpa cient
ĠpÅĻibliÅ¾ ovat
ĠmedÃº za
ĠMoud rÃ½
ven ÃŃm
Ġchyt al
Ġhled Ã¡nÃŃm
ĠbezpeÄįnÄĽ jÅ¡ÃŃ
ĠzniÄį enÃ©
Ġvola nt
mÄĽ te
ĠdodÃ¡v ka
Ġachie ved
Ġma je
ĠlÃ©t aly
ĠDruh Ã¡
Ġpohled em
Ġchoice s
Ġodk utÃ¡lel
ĠÄįas ovaÄį
Ġzven ku
ĠBrat r
Ġd ip
ÄĽ jte
Ġde al
Ġmrk v
Ġo Å¾
st em
ĠV Ã½
Ġroz tÃ¡hl
ĠTv Å¯j
Ġschod Å¯
Ġtw eet
Ġhlubok ou
Ġroz zu
Ġmr zelo
okÃ¡ Å¾u
Ġraj Äįat
Ġzamr kala
ĠB ow
xt ure
Ġji stÄĽ
Ġzoo log
ĠdeÅ¡tÄĽ m
ĠJ ax
ĠÄįokolÃ¡d ovÃ©
ĠÃºle vou
Ġko pala
ĠPÅĻ it
ĠÅ¡p louchÃ¡
Ġp Å¯l
ĠB ri
ÅĻÃŃ klad
Ġztrac enÃ¡
Ġliqu id
S u
Ġup raven
Ġtv ora
ĠkolobÄĽ Å¾ku
ĠobtÄĽ Å¾ovat
Ġt ho
ĠD Ã¡Å¡
Vid ÄĽl
Ġzap nul
ĠudrÅ¾ ovala
Ġto ot
ĠpÅĻi pojÃŃ
ĠnÄĽÄįem u
ĠZa ÅĻ
Ġbehav i
Ġconsequ ences
Ġyour selves
ĠOd nesl
ĠÅ¾iv o
Ġsrd ÃŃ
ĠbrÃ¡ na
Ġlead ing
Ġv letÄĽl
Ġst ain
Ġnes et
Ġvy ma
Ġvypad l
Ġkr b
Nej dÅĻÃŃv
ĠM echanik
ĠK le
ĠOp ÄĽt
ĠvÃ½ lo
Ġpras knutÃŃ
Ġbatter ies
ĠTv rdÃŃ
Ġhesit ated
Ġmlad ÃŃ
ĠÅ¾Ã¡r lil
ĠNeboj te
ĠnevÅ¡im li
P r
Ġom luvÃŃ
Ġbump s
Ġimpo ssible
Ġso chy
Ġten kÃ¡
Ġchyt r
ĠTw o
ĠRaket a
ad lem
Ġdovol eno
ĠÅ¾ilet ku
ĠvÄĽ Å¾ÃŃ
ĠMa g
Ġread s
ĠState ÄįnÃ½
Ġbad ge
Ġmarmel Ã¡du
Ġroz hlÃŃÅ¾eli
Ġzak rÃ½t
ĠChyt ila
ĠÅ¡Å¥ast nÃ©ho
Ġpot u
ĠZ el
Ġnez vlÃ¡d
Ġnakou kl
Ġtek ut
k tu
ick ou
ĠÃº ni
ĠSt ra
VÅ¾dy cky
Ġmno Å¾
Ġpad dle
v zd
ĠZ ala
Ġmon th
ĠNelÃŃ bila
at ure
Ġvo lat
Ġkreat iv
W oof
ĠpÅĻek ro
ĠnÃ¡pomoc nÃŃ
te ÅĻ
Ġs lezla
Ġmel ou
ĠnedÄĽla la
Ġh i
ĠpÅ¯vab nÃ½
ĠjiskÅĻi vÃ©ho
Ġzvu ku
ĠkrÃ¡lÃŃ ky
Ġtem nÃ©m
J dou
ĠVy chÃ¡zelo
ĠpÅĻemÃ½Å¡le jÃŃ
ĠT voje
Ġje h
ĠcÃŃt ily
Ġmi xture
ĠkamarÃ¡d Å¯
ĠÄįer no
Ġjabl ky
ĠD Ã¡val
Ġmoc nÃ©
ĠsvÄĽt ly
Ġsed m
Ġmin ul
ĠVyprÃ¡v ÄĽla
ĠT ess
Ġzd Ã¡t
ĠmedÃº zu
Ġexplor ers
Ġse ven
ĠObÄĽ ma
ĠpÅĻivÃŃt ala
Ġp Ã¡li
Ġclown s
ĠpouÅ¡t ÄĽl
ĠPol Ã©
Ġdar ling
ĠRoz hlÃŃÅ¾el
Ġpro hlÃŃÅ¾eli
Ġci hly
Ġd oup
ct s
Ġcest oval
Ġvp ÅĻed
ĠPipp a
ĠbrÃ¡ Å¡ka
Ġsamot nou
is hing
ĠvznÃ¡ Å¡ela
Kat ie
Ġzv Ã½
Ġmagne ts
ĠMamin ce
ĠpÄĽk nÃ½ch
ĠÅ¡iro ce
ĠmyslÃŃ te
Ġvoz idlo
Ġcho o
ĠpÅ¯ dy
ĠsnÄĽhov ou
Ġpar ap
Ġkick s
Ġstud enou
ĠbabiÄį ÄįinÄĽ
ĠprozkoumÃ¡ val
ĠKaÅ¾d Ã©mu
in t
Ġg ar
ĠA len
ĠG et
Ġgor il
Ġopravd ovÃ¡
ĠpÅĻ ÃŃt
ĠâĢ ĺ
g s
ar Ã¡d
ĠvÃ½chod u
ĠomÃ¡ Äįky
Ġzapamat ovat
Ġplane ta
ĠodpoÄįin ek
Ġspoj ili
n ers
ĠpÃ¡s kou
ur ry
Ġbu ÅĪ
ĠÅ¾alud ek
Ġpovol enÃŃ
er vÃŃ
ĠZ lob
Ġru Å¡it
ĠdotÃ½ kal
Ġweep ing
L iz
Ġses koÄįil
Ġrecommend ed
Dob rÃ©
Ġcvr Äįka
v ili
Ġpochlub it
rÃ¡ vÃ¡
ĠVys koÄįÃŃ
Ġrozko Å¡nÃ½
Ġseas hell
B oo
Ġgu y
Ġnevr lÃ¡
Ġpolic aj
Ġnap lÃ¡n
Ġuklid ÅĪ
ĠJohnny ho
Ġpupp et
Ġm Å¾iku
ĠpÅĻim ÄĽla
chu Å¥
Ġpat ÅĻila
ĠÄįin nostÃŃ
Ġgraceful ly
ĠpÅĻeÄįet li
ĠkolobÄĽ Å¾ce
Ġk lÃ¡dÄĽ
ĠK evin
aÄį ce
Ġrad ÄĽji
Ġmodr Ã½ch
Ġhmy zu
ro ved
ĠvzÃ¡c nÃ¡
Ġaccomplish ment
Ġko stra
Ġran Äįi
Ġbak ery
ĠbezpeÄįnost nÃŃ
ĠcereÃ¡li ÃŃ
ÅĻ ÃŃme
Ġfla pping
Ġpamat uj
Ġseek er
Ġfascin ovÃ¡n
Ġoh Ã½
ĠnÃ¡byt ku
ĠÅ¡Ã©fku cha
Ġza ÅĻÃŃzenÃŃ
Ġstar oby
ĠlÃ© kaÅĻ
Å¡ÃŃm u
Ġsal ty
Ġtlap kami
Ġvyhod ila
b rush
nÃ¡ mila
ĠpÅĻÃŃ chuÅ¥
Ġimp roved
ĠtÄĽÅ¾ ce
Ġvever kou
ĠPep per
T hose
lo ng
vÃ¡ k
ĠNesly Å¡ÃŃ
Ġsch Å¯zku
co at
ĠSp lash
ĠstÅĻÃŃ kat
ĠvyÅ¡pl hala
Ġnes ed
Ġchy tÃ¡
Ġsl Ã¡vu
Ġvystup ovat
h lo
Ġho ÅĻe
Ġde ka
bÄĽh lo
Ġeleg antnÃŃ
Ġsw ept
Ġra cho
es sa
ĠPla kal
Ġlaskav Ã©ho
ĠzazpÃŃv ala
Ġrozmazl enÃ½
Ġt Ã¡hla
Ġzd Ã¡
Ġnev z
ĠhvÄĽ zdÄĽ
ĠPotÅĻe bujÃŃ
Ġb uc
Ġhlad ovÃ©
Ġvyp l
Ġplamen y
Ġpla chet
Ġro hem
let ÄĽli
ĠtÃ½d nech
Ġfirefighter s
ĠneznÃ¡ mÃ½
Ġdla nÃŃ
ĠÅ¡lÃ¡ pl
ĠHe z
ĠptÃ¡ Äįkem
ĠPÅĻi k
Ġstran ou
Ġvyt a
Ġzat ÅĻÃ¡sl
ĠjÃŃzd a
ĠrÃ© vu
Ġdeser ve
Ġhraje te
ĠvylÃ© Äįit
ĠsedmikrÃ¡ sky
Ġps al
Ġcham tivÃŃ
ĠVyÅ¡pl hal
ĠzaÄį ÃŃnajÃŃ
yÅ¡ l
ĠCest a
Ty hle
ĠHÃ¡d ali
Ġna zÃ½
Ġhou ba
Ġnechce me
ĠpÃŃsm ena
ĠzÃ¡ blesk
Ġstro ked
Ġwip es
Ġvylou Äįen
Å¾ enÃŃ
Ġlo d
Ġswim s
Ġute klo
ĠkrÃ¡t kÃ©
Ġzla tÃ¡
Ġcompla ined
Ġbegin ning
Ġw ad
ĠzvlÃ¡d la
Ġpokou Å¡el
Ġvyd Ã¡valy
ĠodpovÄĽ dÄĽli
Ġsou roz
Ġzasek nutÃ½
Ġleb ka
nÄĽ nÃŃ
ĠPÅĻ in
Ġprav ÃŃtko
Ġprov oz
ĠAligÃ¡t or
Ġt rad
tt y
Ġmushroom s
Ġbled Ã¡
ĠZ mÃ¡Äį
ĠpÅĻÃŃ chut
ĠHro ch
Ġnez nala
Ġkuli Äįkami
ĠÅ¡ÃŃl enÃ©
Ġzpo ÄįÃ¡tku
Ġvy vÃ¡
Ġvystra Å¡il
Ġumy li
bud ila
Ġv hod
ĠstÅĻe hu
SnaÅ¾ ÃŃm
Ġt Ã¡hl
ri gu
Ġhid er
Ġc ust
ĠH ned
ĠJack Å¯v
le ts
ĠVy bÄĽhli
ĠtÅĻ ÃŃt
Ġpyt li
ĠZak ous
Ġkalho t
Ġtho rn
Ġre z
viÄį ka
ĠÅ½ lut
ĠhoupaÄį kou
ĠcÃ¡ kala
Ġhu ÅĪ
Chy t
Ġvyzkou Å¡ela
Zkus ÃŃme
ĠtrÃ©n oval
ĠpronÃ¡sled ovala
ĠochrÃ¡ nil
ĠstÃ¡ nek
Ġpokor nÃ½
ĠBole lo
ĠudÃ¡lo st
ong o
Ġlep en
Ġspole ÄįnÃ½
Ġobject s
ĠpoÄį kal
B ill
Ġpo top
ĠJack em
ĠskrÃ½ vat
ĠS vÅ¯j
Ġvyd alo
Ġobjev ili
Ġkno cks
Ġpurp u
ĠotÃ¡ Äįela
Ġtkan iÄįky
Ġstru ktu
ĠstÃ¡ je
ĠSam Å¯v
Ġposlouch ajÃŃ
ĠÅ¡ep ot
ĠZ o
ĠBude Å¡
Ġcirkus u
Ġcan s
Ġnah radit
Ġpavu Äįiny
Ġp ustÃŃ
Ġvide a
SÃ¡ ra
Ġth ird
Ġli ghter
Ġzah rÃ¡d
su it
Ġborov ici
Ġocit l
Ġte ased
ĠhrajÃŃ cÃŃho
Jak Ã©
ĠPrince ss
ek l
ĠÄį elo
Ġdiv nÃ½
sp ÄĽ
ĠnaplnÄĽ na
Ġzepte jte
Ġti Å¡ÃŃ
Ġvis ÃŃcÃŃ
Ġtravel led
Ġon o
Ġzn al
Ġste er
Å¾el o
Ġpohodl nÃ½
ĠÅ¾Ã¡d ala
Ġst aÄįÃŃ
ĠO Äįi
Ġex kom
ĠMal ÃŃÅĻ
Ġbas ement
Ġpono Å¾ka
Ġexkom unik
D ays
vÃŃ dÄĽ
Ġsku nk
ĠdÄĽde Äįkovi
Ġpok rÄįila
ÅĪ ovÃ½
ĠmyÅ¡len ka
ĠV loÅ¾ÃŃ
Ġtig ers
Tak Å¾e
ĠVydÄĽ sila
Ġho re
ĠvÄĽ jÃŃ
Ġpom al
ĠpÅĻipraven o
klad nÃŃ
i al
ri e
ĠEm mÄĽ
Ġrozzlob it
ĠÄįÃ¡ ry
Ġpohyb ovalo
Ġtrhl inu
ĠD in
Ġpart ies
Ġtree house
F rank
ĠR ad
Ġpom alÃ©
Ġuvid ÃŃm
Ġhear ing
Ġsnu ck
ĠV racÃŃ
Ġhead ing
ĠvÄĽt rem
Ġvysko Äįili
Ġleh kÃ½
ĠÅ¡ ir
Ġrain coat
Ġjisk ra
ĠStis kla
Ġne Å¡el
Ġste h
Ġsecond s
Ġpotre stat
Ġot isk
ĠlÃ¡ ka
Ġcust om
d ili
ĠneudÄĽla la
ĠD op
Ġpozd ravÃŃ
ĠÄįerst vÃ©
ĠpÅĻivÃŃt al
bl ings
lu jÃŃ
Ġdo ts
Ġdo hod
ĠukÃ¡z alo
ĠlÃŃst kÅ¯
Ġod dÄĽl
Ġmark er
c ome
Ġt Ã¡hne
Ġsi blings
ĠJe an
ĠHod iny
Ġpras kla
Ġruko jeÅ¥
D okÃ¡zal
ĠNo soro
Ġfe ver
Ġdrum s
Ġlah vÃŃ
ĠbaÅ¾ iny
ĠÄĮarodÄĽj ka
Ġnat o
Ġmys l
Ġfro n
ĠsalÃ¡t u
ĠsouÄį Ã¡st
Ġart ist
ĠM l
Ġup ustÃŃ
Ġrozes mÃ¡la
Ġslz ami
T vÅ¯j
chov al
ĠPos bÃŃ
Ġslav ili
rÃ¡t it
Ġyell s
Ġflutter ing
dÄĽ jÃŃ
ĠzÃ¡ soby
ĠsestÅĻiÄį ka
Ġperforman ce
Ġs Ã¡hnout
Ġpov odeÅĪ
Ġkluz kÃ¡
Ġdok t
ter s
illi am
ĠskÅĻÃŃÅĪ ky
ĠmanÅ¾el stvÃŃ
ĠÅ¡tÄĽt ce
ĠDani el
Ġdo sa
Ġhall way
Ġrozp ly
Ġzlo dÄĽji
Ġlepid lem
Ġjedine ÄįnÃ¡
Ġbe am
ĠtÄĽ lem
ĠSt aÄįÃŃ
st ep
ĠTom ovo
Ġsto lem
Ġsmile y
ĠodliÅ¡ nÃŃ
Ġocho t
ĠL uckily
Ġvytvo ÅĻÃŃ
Ġsnat ched
Ġr amp
ĠC hodili
ĠU t
ĠÅ¾ ily
Ġskv rn
ĠNos ila
Ġsop ku
ĠkomÃ¡ ra
ĠkaÅ¾d Ã©m
ĠZam ra
ĠskuteÄį nostÃŃ
Ġexkomunik ovÃ¡na
Ġt Ã¡hnou
Ġpro tÃ¡hnout
ĠZ nÃŃ
Ġbed time
Ġset mÄĽlo
Ġrost ly
ĠsÃŃt ÃŃ
Ġbahen nÃŃ
Å¯ h
ĠkachniÄį ka
Ġru ining
ĠnÃ¡sled ujÃŃ
Ġjacket s
chla z
ĠKlo kan
Ġnev adÃŃ
Ġvl h
ĠnaÅ¡ em
ĠpyÅ¾ amo
ĠV olÃ¡
ĠsbÃŃ rky
ĠvÃ½z vu
Ġnemuse la
ĠSpe edy
Ġra ind
Ġbuy ing
ĠrÅ¯Å¾ ovÃ½ch
ĠstÅĻÃŃd ajÃŃ
P amat
ĠpÅĻedstÃŃ rÃ¡nÃŃ
Ġpo lit
Ġpro vol
ĠzÃ¡vod ÃŃ
Ġopravd ovou
ĠÅ¡kÃ¡d lil
rov Ã½
ĠMi ina
ĠÅ¡Å¥avnat Ã½
Ġsp ali
Ġzklaman ÃŃ
Ġu mÃ½
ĠS koÄįila
Ġfamili es
Ġpo Äįkej
bÄĽ hat
ĠvÃŃ na
Ġkach nÃ¡m
Ġrov nou
ĠS lowly
vid ÄĽt
ĠnÃ¡ lez
ĠtÅĻe Å¡eÅĪ
ĠNemus ÃŃte
Ġpos adÃŃ
ĠhÃ¡ zenÃŃ
Ġchat y
ĠstÅĻÃŃbr nÃ½
Ġukryt Ã½
Ġlev nÃ½
Ġkar ikatu
it ches
Ġla na
Ġhla vola
ĠN i
ĠNe cÃŃt
Ġborov ice
Ġh usu
Ġryb Ã¡m
Ġkost el
Ġgem s
rÃ¡t ili
ĠPÅĻe Å¡la
Ġstro ji
Ġsuk nÄĽ
Ġgril u
Ġan no
Ġnak lonil
Ġdrs nÃ½
Ġkaka a
a a
ĠtuÅĪ Ã¡k
ĠzamÃŃ ÅĻila
ĠKap itÃ¡n
Ġne ither
Ġsk rÃ½v
Ġlit ujÃŃ
Ġpom ale
Ġcon cer
Ġst Ã½
ĠWith out
Ġsouprav u
ÃŃ p
ĠW ater
ĠRozhod ne
ĠÅ¡ kod
Ġcelebrat ing
Ġunav enÄĽ
ĠaligÃ¡t ora
ĠznudÄĽ nÃ½
Ġlet iÅ¡ti
ĠuÅ¾ite ÄįnÃ©ho
ĠzniÄį ila
Ġpay ing
ĠvyuÅ¾ ÃŃt
m ÃŃt
Ġv stup
Ġscru bbed
ĠNest ar
ĠblÃ½ ska
Med vÄĽd
rigu ed
tt uce
Ġno Å¡enÃŃ
Ġva je
ĠvÃ½bÄĽ r
N aj
Ġle ttuce
ĠM ÄĽly
Ġza zÃ¡
Ġry bou
Ġpupp ies
Ġr umble
Ġschov Ã¡vajÃŃ
Ġslab Ã©
ĠS bohem
Ġroz Äįil
ĠÅ¡per kÅ¯
ĠKoup ili
ĠsluneÄį no
ĠSeb rali
ĠkrÃ¡lÃŃ Äįkem
ĠJezd il
Ġomot ala
ul nÃŃk
Ġzept alo
Ġhloup ou
ĠvzpomÃŃn ku
Ġlv em
ĠhÃ¡dan ku
P Å¯j
Ġdoll house
Ġam ong
Ġcream y
ĠkÅĻÃŃd el
ĠVyÅ¡pl hala
Ġj inde
ĠTu leÅĪ
Ġkap ela
Ġoto Äįili
en ing
Ġko zu
Ġde f
Ġledn iÄįce
Ġzatles kali
ri ver
Ġdri fted
ĠhvÄĽzd Ã¡m
Ġci hlu
Ġdovol enÃ©
Ġkapel u
c ery
as ka
ÅĻe le
Ġriver s
ĠNav zÃ¡jem
ĠdvÃŃ ÅĻka
ĠR av
ĠÅ¾vÃ½ kala
ĠdÅ¾ÃŃ pu
ĠÄĮerven Ã¡
Bo jÃŃm
lemÃ½ Å¾
Ġpeaceful ly
b and
ĠF ran
Ġbrou Äįek
v em
Ġmo jÃŃ
Ġzlat Ã©
en ech
Ġwid ened
Ġd cery
Ġobjev it
Ġwra pping
ĠpÅĻikrÃ½v ka
ĠnaÅ¾ ivu
ĠF ou
Å¡et ÅĻit
Ġscrat ches
F in
Ġne vÄĽdom
Ġkous nutÃŃ
Ġped Ã¡l
ĠDob ÅĻe
Ġroz pad
Ġhlubok Ã©ho
ĠuÅ¡ ima
ĠujiÅ¡Å¥ oval
ĠM eli
ĠV Å¯z
Ġkouzel nÃŃk
ĠÅ¾ eny
Ġvyrost l
app ing
Ġvys ly
Ġord ina
ĠtÅĻe se
âĿ¤ï¸ıâĿ¤ï¸ı âĿ¤ï¸ıâĿ¤ï¸ı
Ġnam az
ĠvyrÃ¡b ÄĽli
Chla peÄįek
Å¯ d
ĠpÅĻedstav ila
ĠpolÃŃb ÃŃ
ĠOm luvila
ĠtryskÃ¡ Äį
V Ã¡Å¾
Ġhr st
c ers
r un
ne te
Ġpra cemi
Ġplav il
Ġmim ozemÅ¡Å¥
Ġposkyt nout
ĠdÃ¡ve j
Ġtas ks
Ġpyt lem
ĠPoh lad
Ġzu ba
ĠzdvoÅĻi le
i ppy
Ġzr Å¯da
Ġprincez nou
Ġzasty dÄĽl
Ġhid es
Ġkap su
ĠU dr
Ġtr aktor
ĠQuack ers
Ġmarmel Ã¡dou
Ġnepohodl nÄĽ
Ġnapl nilo
ĠnabÃŃd ku
ĠStis kl
Ġdot kli
ĠzÅ¯st anou
Ġvlaj kou
Ġrust y
Ġbehav ed
Us mÃŃv
Ġhe j
Ġplay ers
Ġnez tratila
Ġcvr Äįek
ĠPotÅĻeb ovala
Ġw ins
Ġexp er
ĠskÃ¡ la
T am
Ġpop lÃ¡c
ĠkoÅĻenÄĽ nÃ©
ĠO chut
Ġocas u
ĠvlastnÃŃ ho
Ġu letÄĽl
Ġop l
ĠEvery body
ĠFin ny
Ġo hlÃ©dl
Ġod jela
Ġkam koliv
Ġodp ouÅ¡tÃŃm
ĠpÅ¯j Äįila
ĠsmÃŃch ala
Ġod bÄĽhl
Ġnech ceÅ¡
raz it
ĠTam my
ĠvÄį elÃŃ
ĠM Ã¡vala
ot nÃŃ
ĠA va
ĠRo ger
ĠÅ¾ehli Äįku
ĠkrÃ¡ Äįela
Ġlu p
ĠzÃ¡had nÃ½
Ġnamo Äįit
Ġcudd ly
Ġhlad it
mer ing
ĠQu ick
N es
Q ue
re jme
Ġg lu
Ġpl Ã½t
ĠplÃ¡Å¡tÄĽ nku
ĠchvÃ¡ lili
Ġk ina
Ġpo hu
Ġvy lil
ick ed
ĠRu dy
Ġnepohn ula
Äį nosti
sk Å¯
ĠhÃ½ be
Ġodpla vala
ĠKres lÃŃ
C ar
T w
T voje
Ġne Å¡la
Ġnas edli
ĠzvÃŃÅĻe tem
ĠmlÃ¡Äı ata
Ġopl Ã¡tku
Ġlo wer
Ġbah na
b ami
Ġchlad nÃ©m
Ġreward ed
Ġslon ovi
M imi
Z tratila
ĠS mÄĽje
Ġhru bÄĽ
ĠNapl nila
ĠpÅĻ ilo
Ġsn ili
Ġzved Ã¡
Ġnast art
Ġodst rÄįil
ĠseznÃ¡m il
f all
ĠÅ¾Ã¡r lit
ITIT ITIT
ĠpoÅ¡etil Ã½
ĠMÃ¡v la
J du
ĠJ abl
Ġwill ing
Ġneed les
ĠLet ÄĽla
ĠStÃ¡ lo
Ġzeb ru
ouÅ¡tÄĽ jÃŃ
Ġje ÅĻÃ¡
Ġpodiv nÃ©ho
ĠzavÅĻ enÃ¡
ĠubÃŃ haly
ĠB alÃ³
Ġst Ã¡li
ku ren
Ġtvo jÃŃ
ÃŃ Å¡e
Ġe cho
ĠvlastnÃŃ mi
ĠnepÅĻi bliÅ¾
Ġzaplat ila
ĠzmÃ¡Äį kla
Ġsmradla vÃ©
Ġvykro Äįil
Ġhad icÃŃ
Ġcreat ivity
Ġtem nÃ©ho
ĠmlÃ© kem
Ġneh rÃ¡la
ĠtÅĻÃŃlet ou
Ġdovo lÃŃ
Ġarrow s
ick Ã¡
ĠÄįas y
ĠNos il
Ġshrink ing
ĠPat ty
Ġpochod u
ĠStrom y
w k
ĠVy Å¡tÄĽkl
Ġvys u
Ġryb ku
ĠpronÃ¡sled uje
Ġrepair ed
Ġinclu ding
Ġsw irl
Ġdu bu
Ġkrt ka
Ġlet u
Ġvr Å¡ek
Ġukaz ovat
Ġsour ce
Ġzala pali
ĠpÅĻevr hla
Ġbydle l
ĠVyprÃ¡vÄĽ jÃŃ
ĠNast oup
ĠpÅĻehlÃŃd ku
O p
Ġu dob
Ġlo sing
ĠhÅ¯l ka
ĠknÃŃ Å¾ek
Ġtle sk
Ob jÃŃmajÃŃ
Ġoslav ovali
ĠpÅĻedvÃ¡d ÄĽl
Ġnedos Ã¡hl
Ġposyp em
R uby
Ġfe ars
ĠOb ul
Ġpass en
Ġcen nÃ©
Mar ia
ĠÄį ich
ĠG ranny
ĠkrÃ¡li ÄįÃŃ
Ġvy chÃ¡zet
ĠBav te
ĠD ÄĽlÃŃ
om ÃŃ
Ġpo Äįkala
ovÃ¡ ni
ĠnejvÃŃ c
Ġc or
ĠsvÄĽt lÃ½
ĠskÃ¡ kacÃŃ
Ġpro Å¡el
ĠZ kontrolov
Ġskluzav kou
ĠobÄĽ da
ĠhelikoptÃ© ra
ĠB Ã½t
UtÃŃ kej
Ġvaje c
Ġh av
ĠhrajÃŃ cÃŃ
ĠMe zek
ie ce
Ġzn alo
Ġhlasit ÃŃ
Äį uji
ĠK y
ĠNan cy
ĠNer oz
Ġl out
ĠNas adÃŃ
UdÄĽl Ã¡me
T ru
k ovÃ©ho
Ġprac ovaly
ĠpÃ© ÄįÃŃ
Ġkysel Ã¡
ar ma
ĠknÃŃ Å¾ky
Ġlaborato ÅĻe
Ġnecho Äı
Ġkam eru
Ġskup iny
ĠzÃ¡suv ce
Ġrad ovali
ĠbezpeÄįnÃ© m
ĠChar lotte
Ġgrand par
ĠmaÄį kat
ro ps
Ġpoklad nÄĽ
ĠtrpÄĽliv ost
ĠC hoo
Ġpole vu
ĠD okÃ¡zala
ĠPÅĻe sto
J ed
Ġzm ok
ĠSli bujÃŃ
Ġpok lep
Ġnebezpe ÄįnÃ©ho
ĠÅ¡krÃ¡b anec
Ġml hy
ĠPokus il
Ġzam yslÃŃ
ĠJedn u
Ġtipto ed
ĠC he
Ġcreat ions
ĠnÃ¡vÅ¡tÄĽ vÄĽ
i ven
Ġg ross
Ġnedost ali
ĠEd die
Ġpohu p
Ġsn Å¯
ĠÅ½ i
Ġzapla til
Ġsmut nÃ©ho
Ġbater kou
Ġpro Å¡la
Ġmas ky
ĠoÃ¡ zu
Ġnut ÃŃ
Ġvyzkou Å¡el
ĠKvÄĽt iny
Ġvy nadala
Ġpom od
ĠkoÅ¡ÃŃ kem
Ġsled ujÃŃ
Ġlek tv
ĠZat Ã¡hl
ĠtÄĽch to
Ġt apped
Ġroz hov
Ġpr arod
Ġkom ÃŃ
ĠsvÄĽt u
Ġmap a
Odp ouÅ¡tÃŃm
B lue
ĠcÃŃt ÃŃÅ¡
Ġgrass y
Ġnesly Å¡eli
Ġminer als
Zkus me
Ġv rat
Ġr ising
ĠRoz tr
Ġba a
ĠpodÃŃvej me
ĠpÅĻikrÃ½v kou
Ġzach raÅĪ
ĠGood bye
ĠzkoumÃ¡ nÃŃ
Ġvyt ÅĻe
Ġnab rala
Que en
ĠhorkÃ© m
Ġsepar ated
Ġhub enÃ½
Ġsprink led
D ÄĽti
Ġvr ÄįenÃŃ
ĠzkaÅ¾ enÃ©
ĠchladniÄį ku
Ġr ud
ade ÅĻ
ĠE x
ĠPÅĻi blÃŃÅ¾il
Ġprom o
Ġrozzlob enÃŃ
Ġchef s
ĠskÃ³ re
ĠSammy mu
Ġnas adÃŃ
ĠpÅĻez ku
Ġby st
Ġvytr hnout
ĠvÄĽdom ÃŃm
Ġuk louz
ĠpÅĻednÃ¡ Å¡ku
ĠS vÃŃt
Ġnej s
Ġimag ining
Ġtur nÃ©
ĠkutÃ¡le la
ĠW oo
ĠH rd
Ġcli ck
Ġbubl ina
Ġzlom enÃ½
ĠzÃ¡clo ny
ĠV st
Ġtr amp
vÃ¡d ÃŃ
Ġgrant ed
G reat
ak rÃ¡t
Ġpoz vali
ola l
ĠEl sie
Ġpochod ovala
ĠmedÃº zy
Ġcha ot
ĠDÄĽde Äįek
Ġdv akrÃ¡t
ĠokvÄĽtnÃŃ ch
ĠpÅĻe p
Ġar en
Ġrozt ÅĻÃŃd
Ġnar Ã¡
Ġchov ali
Ġa ud
ĠÄįes ala
st ru
Ġko ch
ĠÅ¡ed Ã©ho
ĠÅ¡vi h
ve le
ĠR ud
Ġv ousy
ĠL y
ĠNe hÃ½
Å¾ ely
lu d
ĠNas bÃŃ
Ġigno rovala
Ġozdob it
Ġpad aly
Ġrozk vet
T ent
ĠV Äįely
ĠsvÃ© zt
ĠG eor
ĠvÄĽ ÅĻÃŃ
ĠTo Äįil
ĠÃºspÄĽ Å¡nÃŃ
Ġtext u
s kala
el Å¡ÃŃ
ĠucÃŃt ili
ĠPob ÃŃ
ĠM Ã¡vali
Ġnep oz
Ġpopel nici
Ġt iss
Ġpost rÃ¡d
Ġoto ÄįÃŃ
Ġlabut ÄĽ
Ġkouzel nÃ©m
ĠNep ÅĻe
ĠZak op
ho g
Ġchlad nÃ©ho
Ġnedovo lil
Ġo rel
Ġodp usÅ¥te
ĠSund ala
ĠVola l
ĠL a
mÃ½Å¡ lÃŃ
Ġvin nÃ©
ĠSof ie
ed s
Ġli lie
Ġvy chÃ¡zelo
Ġswim suit
ĠzaneprÃ¡zdnÄĽ n
ĠVyprÃ¡v ÄĽl
Z ap
Ġli mes
Ġfial ovÃ©ho
Ġneohrab anÃ¡
ĠÃºspÄĽ Å¡
Ġsyn ovi
ĠNosoro Å¾ec
ĠzÃ¡ kaz
ĠS w
ĠL es
po ledne
Ġmy Äįku
Ġraket ou
Ġdecor ating
Ġscrew d
Ġumyv adlu
Ġpout ed
ĠVÅ¯ bec
ĠmÃ¡ lo
Ġnemrav nÃ©
ĠC u
Ġpan s
Ġped Ã¡ly
ĠtÄĽs nÃ½
ĠZe mi
Ġc oup
Ġmamin Äįin
Ġstom ped
Ġsv it
he ra
ÃŃ r
Ġzlep Å¡ilo
ĠO lÃŃzl
Ġback wards
Ġdcer ou
Ġnit ÃŃ
ĠAnna bel
Ġzas mÄĽje
Ġprobud ili
ĠpolÅ¡tÃ¡ ÅĻek
raci e
Ġzvone Äįek
Ġnes nÄĽd
Ġzt u
Ġsty dÃŃ
Ġse zenÃŃ
ob ÄĽ
ĠBen ovo
ÅĻÃŃ zla
Ġroz dÄĽla
H ave
Ġli Å¡ky
Ġmr am
Ġpostav u
Ġuklid nil
ĠzvÃŃÅĻ Ã¡tky
Ġhesit ant
Ġdam age
Ġsty dÄĽt
Ġopraven a
c p
ĠSt rÃ½
Ġrozt omile
ĠotevÅĻel o
ĠHel en
ĠStrÃ¡v ili
nÄĽjÅ¡ÃŃ ho
Ġzavola li
ĠrozsvÃŃt ila
Ġon ions
Ġvl nÄĽ
Ġkolen i
Ġpep pers
Ġkrout il
ĠG reen
ĠvÄĽt r
Ġgrabb ing
Ġstro ll
Ġneub liÅ¾
Ġole je
ĠÅ¡ Ã¡ly
Ġbubl ink
Ġuchop ila
Ġzven ÄįÃŃ
Ġto d
ĠDÄĽlÃ¡ Å¡
Ġsk lÃŃ
aÄį ky
Ġzam ot
Ġsquare s
as hed
ell ing
Ġosu Å¡ila
ĠÄįerno bÃŃ
it ude
Ġst ung
Ġzat rou
ĠSdÃŃle li
Ġna Å¡tÄĽstÃŃ
Ġpl nit
Ġprin ting
ĠPouÅ¾ÃŃv al
ĠdÅĻevÄĽ nou
Ġzap rÃ¡
Ġfavor it
Ġpiz zy
Ġzapad Ã¡
A d
ĠzÃ¡ lud
ĠÅ¡p ÃŃna
Ġunpack ed
ĠT erry
ĠDom Å¯
Ġnut ila
Ġzeb ry
Ġutr hl
star ost
ĠsedÃŃ cÃŃ
ĠFrank ie
Ġbyd lÃŃ
PÅĻed stÃŃ
ff ord
ĠZved li
Ġudr Å¾eli
ĠÄįlovÄĽ ku
ĠtÄĽstov in
ĠutÄĽÅ¡ ovala
ĠpÃŃs nÃŃ
ĠÄįist ÄĽ
Ġst oh
Äįet nÄĽ
ĠÄį len
Ġdiv ing
ĠSpark le
Ġnap ÅĻÃŃklad
ĠkutÃ¡ lÃŃ
Ġe arn
Ġplan ning
Na Å¡li
Ġjach ta
Ġznamen at
zer o
Ġroz haz
Ġdost aneme
ĠVy lezli
PÅĻ Ã¡l
f ly
Ġde jte
Ġslow er
Ġdoh nat
ĠCrab by
k lÃ½
ĠpyÅ¡ nÄĽ
Ġmeda ile
Äį ast
ĠÃº pat
ĠsuÅ¡en kami
ĠnepÅĻe stala
Ġplechov ky
Ġheav ier
ĠÃºpat ÃŃ
ĠzaÄį Ã¡tek
mÄĽ v
ĠvÃ½lo ze
Ġm er
ĠNe ÅĻek
ĠoÅ¡kli vou
ĠZpÃŃv ajÃŃ
Ġtrumpet u
k nu
Ġz Ãº
lÃ¡ ch
ĠCht ÄĽlo
D ost
M at
ĠA lici
Ġtu Å¡enÃŃ
up em
Ġbel oved
Ġnaj edli
vali l
lovÄĽ k
Ġkop ÃŃ
ĠrytÃŃ ÅĻe
ĠlÃ©Äį bu
Ġzvon it
out o
ĠSkÃ¡ Äįe
ĠZpÃŃv al
Ġlaskavost ÃŃ
Ġsamot nÃ©ho
Ġgrowl s
Ġraind rops
Ġlu kem
ĠPotÅĻe buju
ĠD ovolte
Ġkancel Ã¡ÅĻ
MÅĪ au
Ġp ekla
ĠzvlÃ¡ Å¡t
b ro
Ġm ent
ĠvÃ¡ Å¾nÃ¡
ĠbÃŃ lÃ½m
Ġmateri als
ZaÄį ali
ĠT rÃ¡v
ĠB ongo
Ġvy Å¡tÄĽkl
Ġroztomil ou
Ġcen ter
ĠchÃ¡p u
Ġnalep ila
ĠÅ¡et ÅĻit
ko Äį
ĠR emember
Ġcow bo
ÃŃÃŃ ÃŃ
re st
ing er
Ã¡h ly
Ġzam ÃŃÅĻili
Ġjas nÃ½ch
ĠNam al
Ġh ale
W h
Ġsp ice
Ġza bÄĽhat
Ġmrt vÃ¡
Ġrych lo
Me ow
ĠKu ÅĻe
nd ed
it ÄĽ
ĠpÅĻe jde
Ã¡Ã¡Ã¡Ã¡Ã¡Ã¡Ã¡Ã¡Ã¡Ã¡Ã¡Ã¡Ã¡Ã¡Ã¡Ã¡ Ã¡Ã¡Ã¡Ã¡Ã¡Ã¡Ã¡Ã¡Ã¡Ã¡Ã¡Ã¡Ã¡Ã¡Ã¡Ã¡
N G
ĠS chou
ĠhvÄĽzd Ã¡ch
Ġsail boat
Ġum ÃŃÅ¡
ĠnabÃŃd nout
h art
Ġn alÃŃt
Ġpo Å¡kod
Ġzn ala
Ġujist ÄĽte
ĠruÄįnÃŃ ku
ÃŃm u
v oj
Ġsnow men
Ġleskl Ã½mi
ĠnedotÃ½ kej
ĠÅ¡roub ovÃ¡
ÄĽ nÃŃm
Ġprom ises
aj n
Ġchlape Äįku
Ġchut naly
ĠSchov al
Tweet y
ĠI zzy
ĠD vÄĽ
Ġru Å¡
blÃŃÅ¾ ili
ĠdÃ¡ Å¡
ĠvzlÃ©t l
Ġreci pe
Ġscrewd river
Ġv ÄįetnÄĽ
Ġne tu
Ġsh nil
Ġpoin ty
ĠpÅĻedstav il
ĠgarÃ¡ Å¾
Ġroztr hla
ĠomÃ¡ Äįka
Ġsurround ings
ĠZo omy
Ġdo j
ĠbÃŃ lÃ½mi
ĠskrÃ½ vÃ¡
Ġrust ling
Ġv lezla
Ġroz ev
Ġsho r
ĠÅ¡tÃŃ tek
ĠodpoÄįinu la
Ġdrahou Å¡ku
ĠN Ã¡d
y es
Ġh nal
Ġvy stoupit
st ÅĻi
Ġna vÃŃc
ĠpÅĻest aly
te kl
ri ck
ĠsnaÅ¾ ilo
Ġuvol nil
Ġcous in
Ġza ho
Ġmal Ã¡t
Ġforg iven
Ġvytvo ÅĻily
Ba by
Ġu Å¡ÃŃ
ĠS ob
ĠpÅĻe Äį
Ġzav ÅĻe
ĠZav ÅĻou
Ġkost ru
Nej si
Ġmo o
Ġaud ience
luzav ka
ĠPÅĻi bliÅ¾
Ġdivok Ã½ch
iÄį ko
to ku
Ġosla va
Ġupe Äįe
ss a
Ġtou lala
enÄĽ jÅ¡ÃŃm
ĠkaÅ¾d Ã¡
Ġkom ÃŃna
ĠdÅ¾b Ã¡nu
Ġjak Ã©ho
Ġhra jme
Ġhrad em
ĠrozlouÄį ily
Ġrozp ouÅ¡tÄĽt
Ġtrub ky
Ġhodnot a
Ġnej dou
ĠPÅĻe Å¡el
Ġdop ÅĻ
ĠodvÃ¡Å¾ il
ĠH udeb
Ġgo bbled
ĠVidÃŃ te
Ġneighbour s
T ato
ĠdÃ¡r kem
Ġpla t
Ġsop ky
ola la
Ġtan Äįily
ĠzÅ¯st Ã¡val
Ġkous at
ĠuÄį es
M nÄĽ
Ġob ul
Ġsto ol
ĠÅ¾Ã¡r lila
Ġm am
Ġvyd Ã¡valo
Ġweek end
K im
r Å¾ÃŃ
Ġt outo
ĠptÃ¡ ku
ĠJoe ova
Ġblock ing
Ġslice s
ĠotevÅĻ enÃŃ
ĠprÅ¯zkum nÃŃci
ĠvÃŃ k
Ġkoup ala
Ġnenech al
ĠÅ¡Ã¡l kÅ¯
Ġs lÃ©zt
Ġme Äįe
Ġnah rÃ¡v
Ġvelkorys ÃŃ
Ġko pe
Ġmus ely
ale k
Ġmiluje te
ap a
cho vÃ¡
Ġcest ovala
Ġnas ervÃŃ
ĠzÃ¡had nÃ©
Ġwip ing
Ġnah rÃ¡t
ĠklobÃ¡s y
Ġexper im
A rrr
p Ã½t
ĠJak Ã©
ĠdodÃ¡v ky
ĠPochop ila
Ġtemper ature
Ġsm aj
Ġwind y
Ġtr ampo
kon tro
Po ppy
Ġvyst ÅĻi
Ġexist ovalo
Ġvylou Äįena
Ġtramp oline
Ġtrampo lÃŃ
ĠZaÅĻ val
F ajn
Ġroz tÃ¡
Ġuvid ÃŃte
ĠpÅĻipad ala
Ġper lu
ĠpÃ¡s ek
ĠSÃ¡ÅĻ in
ĠjÃŃdel nÃŃ
F or
Ġod nese
Ã¡l nÄĽ
Ġnen araz
ĠT una
Ġrozp lÃ¡
ĠnervÃ³z nÄĽ
Ġstrome Äįek
ĠB ro
Ġhelp ers
ĠDouf Ã¡me
Ġdiscus sed
B et
Ġh Å¯
ĠNe buÄıte
ĠKam arÃ¡d
utÃ¡le la
ĠÄįerst vÃ©ho
Ġsp ÄĽ
Ġar ran
Ġuklid nila
ĠodvÃ¡Å¾ nÄĽ
ĠTla Äįili
Ġwob bled
ĠJmen uji
ĠpÃŃp nutÃŃ
ĠtÄĽlocviÄį ny
ab ly
Ġbub nu
Ġdo padl
ĠnÄĽjak Ã½m
ÃŃn ala
Ġnezmizel o
- -
ĠE arth
ĠVy kou
Ġzd ÃŃ
ĠEm mu
ĠAmy ina
ĠvyrÃ¡b ÄĽl
Ġhedge hog
Ġlap top
ĠnÃ¡d hera
Ġkole Äįka
ĠdrÃ¡t y
Ġstez ce
ĠkÅĻeh kou
ĠsdÃŃle l
ĠstÃ¡ ji
Ġbles ky
Ġcoup le
ĠzranÄĽ nÃ©
ĠDon ut
Ġchat ÄĽ
ilÃ¡t or
ĠvÃŃk end
ĠpÅĻi bÄĽhli
ĠtouÅ¾ il
Ġop ustila
Ġbu bÃŃ
ĠSt itch
ĠMi ou
Ġsy nu
Ġdesig ned
ĠpÅĻekon at
is c
ĠstÅĻÃŃbr nou
it ÃŃm
ĠB Ã¡li
ĠvlÃ¡ Äįky
ĠAm anda
ĠÅ¡la pat
jÃŃÅ¾ dÄĽli
ĠvaÅ¡ ich
Ġfe ast
Ġzd arma
Ġlahod nÃ½m
Ġsklo nila
ĠPÅĻist Ã¡l
Ġnos es
Ġdream t
Ġcorn ers
Ġkakt usu
C hoo
ĠpÅĻipraven Ã©
chov ala
ĠkamarÃ¡d e
Ġznamen alo
ĠV p
ĠnevÄĽ ÅĻil
Ġskrom nÃ©
ĠzaneÅĻÃ¡dÄĽ nÃ½
a hoj
ou nt
Ġk aret
Ġtru hly
Ġkrout ÃŃ
Ġornam ents
p c
Ġsh im
Ġpe cked
Ġlet nÃŃho
Ġnebezpe ÄįÃŃm
Ġsla mmed
ĠuÄįitel ce
ĠLee ovÃ¡
Ġhore Äįku
ÅĻel o
Ġkap it
ĠÅ¡iro ko
ĠodmÃŃt al
Ġinkou stu
ĠNeb ude
ĠG ary
Ġcvrli kÃ¡nÃŃ
ĠkaluÅ¾ÃŃ ch
ĠSvÄĽt lo
Ġu kaÅ¾
ĠÅ¡vest ku
Ġzn ak
Ġper em
ĠmÄĽk kÃ½m
ĠÄĮ as
Ġsklo nil
Z lÃ½
ĠOd loÅ¾ila
Ġa fford
ch ild
ĠpodÄĽkoval o
xi stuje
Ġhroz nÃ©
ni kud
ĠpÅĻÃ¡tel ÃŃch
Ġvyp ÃŃt
Ġswan s
Ġdes ku
Ġ Queen
ĠLe hl
ĠproblÃ© mu
ĠPr as
u Å¡tÄĽ
Ġg e
raz ila
Ġvyp nout
ĠprodavaÄį ce
ĠdÃ¡ve jte
T ony
ĠM Ã¡vajÃŃ
Ġnap rav
ĠMi in
ĠvzdÃ¡l enÃ½
ĠPostav ila
ĠZ ÃŃv
Ġsto li
Ġprst Å¯
Ġmraven cÅ¯
ĠZach rÃ¡
Ġt ran
sk Ã½mi
ĠtÅĻÃŃlet Ã©ho
Ġspor ts
at ou
ĠtÅĻe Å¡nÃŃ
ĠUde ÅĻil
rÃ¡ na
Ġpla Å¡e
Ġtru hla
Ġnas kyt
ĠO liv
mÃŃ st
ĠUkÃ¡z alo
ĠPÅĻedstÃŃ rÃ¡
ĠpÅĻestaÅĪ te
bÄĽh ly
ĠstraÅ¡idel nÃ©
ĠB ug
ĠzÃ¡ vidÄĽl
Ġprom luvÃŃ
Ġkon f
ĠRe xi
ĠVyp rÃ¡vÃŃ
Ġroz lila
ĠÅĻÃŃ dila
ĠpÅĻed la
ĠSÃ¡ rou
Ġspl nil
Ġhit ting
iv a
Ġnapl nÃŃ
ĠvÃ½z nam
Ġpodla ha
Ġmet ra
ĠTi Å¡e
ĠSou dce
Ġstreet s
Vel kÃ½
Ġd Ã¡le
as y
Ġnov in
ber te
ĠJimmy mu
Nem us
Ġtiss ue
ra jme
Ġag e
ĠSp okoj
Ġchyb ÄĽla
Ġnerozum ÄĽla
ĠPad Ã¡
Ġpod aÅĻÃŃ
Ġnad Ã¡le
ĠdobrÃ© m
Ġposkak ujÃŃ
Ġdivok ou
ĠbrÃ¡ nou
Ġod chodu
Ġzm rz
Ġgum ovou
ĠPÅĻid ala
Ġch vil
ĠkamarÃ¡d kÃ¡m
ĠR ain
zd oby
!âĢĿ .
ĠÅ¡iro kou
Ġtajem nou
Ġpohled u
Ġpo hledn
ĠM ami
ent ly
Ġbez starost
ĠVyd Ã¡val
Ġnosoro Å¾ce
Ġodt ok
#### ####
ĠÅĺ e
Ġra cco
Ġodplu la
ĠrozhÃ¡ zenÃ©
Ġvy rÅ¯st
Ġschop nost
ĠPolÃ© vka
Ġv teÅĻ
ĠD Ã¡me
ĠÅ¡Å¥avnat ou
ĠzÃº Äįast
Ġsm rdÄĽ
ĠnedotÃ½ kejte
Ġnestar al
ĠAsh ley
Ġta hala
c her
ĠÄĮerven Ã½
ĠVy zkou
Ġas ide
Ġchlad nou
ĠKop al
ĠMor Ã¡lnÃŃ
Ġdad s
len ÃŃm
Ġzaslech li
ĠpÅĻin ut
Ġsbali l
louche jte
Ġkudrnat Ã©
Ġne se
Ġne vid
ĠA mber
Ġrequest ed
D ucky
Ġmy Äįky
lÃŃ kem
ĠÅ¡ko lu
bec ca
Ġnevzd Ã¡vat
Ġskup inÄĽ
Ġme als
ee ee
Ġkro kem
ĠPi rÃ¡t
ĠsoutÄĽÅ¾i vÃŃ
Ġfor ks
Ġac he
Ġnes dÃŃ
ĠÅ¾Ã¡ bou
ĠPÅĻe stali
ĠzamÃŃch at
ĠtÄĽlocviÄį nÄĽ
ĠJe zero
ĠskoÅĻÃ¡p ka
ĠE ric
Å¾i je
ĠOm ot
ĠsdÃŃle la
UdÄĽla li
i les
Ġschop ni
ĠSnow ball
Ġbuc lat
ĠsvÃŃ Äįka
ĠmilujÃŃ cÃŃ
Ġzasek la
ĠhÅĻÃŃv u
Ġprost ÅĻed
ĠLÃ©t al
Ġdor tem
ĠD es
Ġcurious ly
ĠHod ili
ĠoddÄĽ lit
Ġt Ã¡hnout
ch yt
ĠnÃ¡ po
ĠChla pc
Ġmet rem
ĠpoÅ¡ ko
Ġrefle ction
ĠrÃ¡ me
iÅ¡tÄĽ nÃŃ
Ġspon ge
M ad
ĠS aru
ĠSam ovu
Ġkam ÃŃnek
Ġwarn ings
ĠdÅ¾ung lÃŃ
Ġsitu ace
ĠhÅĻ mÄĽnÃŃ
ĠPÅĻ ilo
Ġpopad ne
Ġruka v
Ġdrob ky
Ġduck ling
Ġnamal ovala
Vz al
Ġz chlad
Ġzt rÃ¡
Ġspark s
ĠmÄĽ ÅĻenÃŃ
ĠRozum ÃŃm
ĠneznÃ¡m Ã©ho
Ġsun flowers
hlÃŃ Å¾ejÃŃ
Ġci hel
Ġodst r
B ang
Ġroz vÃ¡z
Ġstar ajÃŃ
tÄĽ s
ĠvysvÄĽt lili
Ġsne ch
ĠvzÃ¡c nÃ©ho
ĠOd vedl
Ġplan s
Ġbow s
ĠS ky
Ġpou Å¥
ĠtÃ½d nÅ¯
PotÅĻebuje Å¡
Ġnan es
Ġtvorov Ã©
it ched
Ġpot ru
ĠUp ustili
U m
Ġfix y
ĠobrÃ¡z ku
ĠTu ÄįÅĪ
ĠU blÃŃÅ¾il
Ġuk on
ĠZahrad a
B unny
Ġsnow fla
c Å¯m
ĠvÄĽt rÃ¡k
Ġdovo lili
ĠDokÃ¡Å¾e Å¡
ĠBydle l
Ġvan illa
ĠsvaÄį inÄĽ
Ġshap ed
Ġlean ing
ĠzÃ¡chran u
Ġkami onu
ich l
Ġnej men
Ġtail s
Ġzlep Å¡il
Ġobru Äįe
ĠobliÄįe ji
ĠjÃ¡m ÄĽ
ĠkÃ½v la
ĠL ina
Ġcele ru
Ġfamili ar
Ġsa mÃ½
ĠA na
Ġvan il
Ġvon ÄĽly
z adu
Ġze zadu
Ġpro hlÃ©dnout
Ġtre f
ink em
Ġpastel kou
ĠmÃŃch ali
ĠVysvÄĽt lil
ĠpromÄĽ nila
ĠznudÄĽ nÃ¡
ĠmÃŃ stu
hov i
ĠuÅ¾ÃŃv ajÃŃ
Ġkov ovÃ©
Ġf Ã©
Ġsp ol
ĠNÃ¡sled ujÃŃ
Å¥ Ã¡tko
ĠBob ova
Ġad ult
Ġdance s
lom ila
ĠpÅĻik ry
ĠSchov ala
Ġinkoust em
Ġdokonal ou
Ġned oz
ĠkolejÃŃ ch
Ġwr ink
Ġble chu
ĠVyd ali
ĠdospÄĽl Ã©ho
ĠhÅ¯ ÅĻ
Ġd un
ce ss
Ġod jezd
ĠpÅĻe Å¡li
Ġvol Ã¡nÃŃ
Ġbreat hed
ĠumÃŃst ili
s en
ĠT rou
ĠpÅĻi vedla
Ġcolor ing
Ġseb rat
Ġpostar Ã¡m
ĠList y
Ġremember ing
Ġos vÄĽt
Ġbrambor a
Ġnastoup ila
Ġnesouhlas il
l ings
Ġvz adu
Ġzak rÃ½
Ġpohyb ovaly
pr il
pt Ã½
ĠH ud
Ġzlom enÃ½m
ĠnejoblÃŃb enÄĽjÅ¡ÃŃm
ly n
ĠVy nd
Ġspread ing
ĠjezÃŃ rka
ĠC hu
Ġdinosau ÅĻÃŃ
Ġvez meme
Ġsa le
ĠUs poÅĻÃ¡d
ĠuÄįitel ku
Nech ceÅ¡
Ġdollar s
Ġcvak nutÃŃ
ĠZaÅ¡ept ala
ĠOd ve
Ġgreet ed
D okÃ¡Å¾e
Ġvykou kla
Ġstadion u
Ġvy kop
ĠVys okÃ½
ĠDob ÄĽ
Ġlepka vÃ¡
ĠW illiam
ĠsnÄĽ hem
ĠÄįokolÃ¡d ovÃ½
ĠzamÃŃch ala
Ġfack u
Ġpo pe
ĠH ihÅĪ
Ġsho ps
ĠkrÃ¡ vÄĽ
ĠpÅĻij ede
Ġude ÅĻila
i an
Ġnez by
Ġbrou Äįka
Ġnep odÃŃv
ĠdÄĽlÃ¡ nÃŃ
Ġnedale kÃ½
Ġint rigued
Ġspou sty
ĠmotÃ½ li
ĠdokÃ¡Å¾e me
ĠNes m
ĠJeÅ¡tÄĽ rka
bubu bubu
Ġmed em
Ġcho sen
Ġtane Äį
ĠSally ina
ĠvÄį era
Spo te
Ġtw ice
ĠNak ou
Ġkr mila
Ġroztomil ÃŃ
Ġpray ing
Ġgrand child
ĠT hose
ĠpÅĻ iÄį
Ġprod al
ĠJ illy
Ġth rown
ĠP ovÄĽ
tt en
Ġko ÅĻenÃŃ
Ġprett ier
Ġhroz nÅ¯
ĠPÅĻikÃ½v la
Ġc ena
led y
Ġforget s
ĠhezkÃ½ ch
ĠpÃ¡ ra
ĠSk luzavka
Ġscrew s
ĠS to
ĠL amp
Ġvy haz
ĠOb chod
ĠnÃ¡klaÄıÃ¡k Å¯
Ġspravedli vÃ½
Ġsoused Å¯m
Ġsurf ovat
Ġse ver
ĠBob bie
Ġkou z
Ġodpad kÅ¯
Ġrozum ÃŃm
ĠzÃ¡had nou
Ġvizit ku
ĠP sala
ĠmÃŃ le
Ġkon kuren
ĠvÅ¯ nÃŃ
ĠptÃ¡ Äįci
ĠnÃ¡dher nÃ©ho
Ġtunn els
Ġhou r
ĠvykÅĻi kne
Ġzapl nila
Ġprovol Ã¡vali
Ġpot ion
Ġnud ÃŃ
Jak ou
Ġkuli Äįka
Ġvoj Ã¡ka
ĠR icky
ĠÄįokolÃ¡d ovou
ĠSm ut
ĠPomÃ¡h ala
S urpr
ĠO ran
ĠhoÅĻ kÃ¡
ce pt
Ġze br
Ġodp ovÃŃ
Ġnepod ÄĽli
Ġv nit
Ġv ÅĻele
Ġpod vo
Nem o
ĠVraÅ¥ me
Ġpokryt Ã½
Ġlaborato ÅĻi
Ġzakry l
ĠolÃŃz la
Ġst ÅĻel
ĠJ ason
Ġpe c
Ġkam ÃŃnky
ĠG us
lÃŃÅ¾ ili
ĠLe opard
ĠNap sala
ĠvÃ½tv ory
Ġt Ã¡hli
Ġtou ches
ĠÄĮ lovÄĽk
ĠnÃ¡dr Å¾e
Ġpotru bÃŃ
av ÃŃ
Ġre ason
ved lo
lep Å¡ÃŃ
Ġobj ekt
ĠÄįaj ovÃ©
Ġkalu Å¾
Ġenthusi asm
ĠÅ¾Ã¡rov ka
ne jte
od Ã¡l
be e
ĠPotÅĻeb ovali
Ġnov ÃŃ
Ġsail ors
Ġsword s
Ġhus band
Ġmod lil
ĠnedalekÃ© mu
ĠÅ¡ok ovanÃ¡
DÄĽ kujeme
Ġd aring
Ġoves nÃ©
Ġn ine
Ġnej ste
Ġgarden er
ĠNÃ¡sled uj
ĠfontÃ¡ na
Ġ et
Ġb lÃ¡
Ġsv et
ĠOb zvlÃ¡
Ġgau Äįem
ĠFriend s
st ick
ĠRoz p
Ġkou zla
Ġzelen Ã½m
ĠSk louz
ĠshromÃ¡Å¾d ila
Ġus mÃŃ
Ġvz hlÃ©dli
ĠOd loÅ¾il
Ġhlad kou
Ġvl n
ĠnecÃŃt ÃŃ
ĠBird ie
Ġakt ivit
ĠT eta
Ġtv are
Ġspoon ful
Ġkabel ky
Ġsuperhero es
Ġhrbo lat
ĠJ ÃŃd
Ġhla vami
rat ion
ĠDo Å¡la
up er
ĠZas mÃ¡li
Ġfestiv alu
Ġcacht ali
Ġcor re
M iss
ara c
Ġdu hov
Ġled ovÃ¡
ĠProdavaÄį ka
ay la
Ġre ass
ĠÅ¾ Ã¡k
Ġlet nÃŃ
Ġwis hing
ĠsklÃ¡d Ã¡nÃŃ
Ġz ipping
ab ra
ĠmÃŃst nostÃŃ
ĠEl sa
Ġrece pt
ĠzahÅĻ Ã¡l
ĠVes niÄįanÃ©
Ġdo pad
ĠThank s
Ġminut u
Ġlaborato ÅĻ
w ow
Ġvtip k
Ġukaz ovali
ĠÅ¾i vÃŃ
Ġsvobod u
ÄįÃŃ Å¡
ĠrÅ¯Å¾ ovÃ½m
Ġoble ku
z zed
Ġpe stro
ĠpÅĻikrÃ½v ek
ĠkoÅĻ eny
t he
Ġf light
ĠTim ovu
Ġle ast
Ġobla cÃŃch
Ġv oru
Ġpro Å¾ili
ĠPÅĻÃŃ bÄĽh
h ions
ra jte
ĠDÃŃv ce
Ġkus Å¯
Ġdrahokam y
ĠÅ¡pÃŃ nÄĽ
ĠO ur
ĠvÃ½ stav
hl t
Ġtax ÃŃku
Ġchang ing
Ġsp ikes
Ġmag ician
Ġforget ting
Ġdostane te
Ġgrandpar ents
g a
ĠN obody
ĠÅ¡p ion
Ġhust Ã¡
ĠY um
Ġbole la
ĠF eli
Ġnech Ã¡m
Ġste ady
Ġset kajÃŃ
ĠLe Å¾el
ĠpouÅ¾ÃŃv Ã¡nÃŃ
Ġkot va
Ġzvon u
Ġc ert
Ġpo loÅ¾it
Ġnakres lÃŃ
ĠpÅĻichÃ¡ze jÃŃ
ĠnÃ¡moÅĻ nict
Ġro tten
Ġpop ovÃŃd
ĠHudeb nÃŃk
Ġpoh rÃ¡t
Ġpen s
Ġborrow ed
Ġbod ies
ĠrÃ© va
ĠVyh rÃ¡l
Ġflav ors
Ġdost aly
ĠOdst rÄįil
Ġo tÃŃ
ĠjÃŃ zdy
Ġbub ny
ĠPÅ¯j du
ĠvyÅ¡pl hal
ĠpÅĻÃŃ rod
Ġnez trat
ĠdokÃ¡z at
Ġbli kajÃŃcÃŃ
Ġv Ã¡lka
ĠÄįerven Ã©m
Ġva Å¡imi
Ġcoun ts
Ġhope ful
Ġnah rad
ĠdeÅ¡tnÃŃ kem
Vz ali
ĠSlune Äįnice
Ġzas Ã¡hla
Ġopak oval
ĠvÃ¡h a
n ced
Ġlou ky
ĠbuÄı me
ĠSkÃ¡ la
ĠtuÄįÅĪ Ã¡ka
ĠShe lly
ke jme
Ġslo nice
Ġnas koÄįila
Ġsty d
Ġvidli Äįky
Ġb alit
ĠB onnie
ob il
Ġmas ÃŃ
umb ling
ĠpoÅ¡t a
Ġukliz enÃ¡
ĠmÃ¡v nutÃŃm
Ġto aster
Ġchyt ali
ĠTe hdy
ĠpapÃŃrov Ã½
ĠZkus me
ĠpochutnÃ¡ vali
Ġb om
Ġroz lil
ĠnÄĽjak Ã©ho
Ġdu ze
Ġsklouz ne
Ġzanech al
Mi ra
Ġtod d
Ġd et
Ġm unch
Ġch r
Ġpos adit
arm er
ĠvÃŃ Äįko
Ġzip em
Ġdne Å¡ek
ĠvÃ½ prav
Ġhloup Ã©ho
ĠÄĮarodÄĽj nice
ad abra
Ġmat race
ĠSpot Å¯v
Ġnez ah
Ġprav Ã©
Ġnevy d
Ġbillboard u
ĠPep pa
Ġposlouche j
Ġm ysle
Ġch arac
od en
ĠN ovÃ¡
Å¡Å¥ Ã¡k
Ġvidli Äįkou
ĠvystÅĻe lil
Ġguest s
b ird
ÅĻ icÃŃ
ĠsprÃ¡v ce
Ġj du
ÄįnÄĽ jÅ¡ÃŃ
ĠNe bav
Ġdouf Ã¡
ĠpÅĻibliÅ¾ uje
Ġmoudr Ã©ho
Ġmesmer ized
ĠCh lupat
Ġsend ing
ĠSbali l
Ġh rot
Ġpot om
Ġmusel o
ĠDost anou
nÄĽ me
ĠD Å¾
ĠprÃ¡ vnÃŃ
ĠpostÃ½l ku
Ġas i
ĠU vidÃŃ
Ġnaj edl
ĠLi Å¡Ã¡k
Ġtu p
ĠobÄįerst venÃŃm
Ġonemoc nÄĽt
Ġodplu l
Ġnekt ar
v ÄĽlÃ¡
ĠV room
ĠlÃŃb ÃŃÅ¡
Ġpobav ili
ĠvystÅĻe lit
Ġop odÃ¡l
Ġhroz en
ĠzÃ¡vod il
ĠnavÅ¡tÃŃv ili
Ġneh Ã¡dali
ĠRozlou ÄįÃŃ
Ġsnugg le
Ġheb kou
ĠmnoÅ¾ stvÃŃ
Ġo zdoby
ven ÄĽ
bÄĽ jÃŃ
Ġhero es
Ġdotkne te
hu jÃŃ
ĠzaÅ¾ ÃŃvala
Ġzkoum at
Ġneat ly
Ġpoto ce
Ġvzp omnÄĽli
ĠÄįek Ã¡nÃŃ
ĠpovÃŃd al
Ġlad nÄĽ
ĠV loÅ¾ili
udd les
Ġok raje
Ġzas y
Ġvrt ÄĽt
Ġsea w
Ġtem nou
ĠÅĻedk viÄįku
ĠFro g
ĠkaÄį er
m s
Ġbu zzed
Ġpoh nulo
Ġpole vou
Ġveterin Ã¡ÅĻe
Ġvenk ovÄĽ
ov it
Ġohledupl nÃ½
ĠÃº div
Ġneve zme
ĠkachniÄį ku
NemÅ¯Å¾e me
O ur
Å¡ ÃŃme
Ġpo dÄĽla
Ġpos pÄĽÅ¡
Ġlaska vou
Ġjach tÄĽ
Ġtodd ler
ĠBu Äı
ĠMou se
Ġautomob il
ĠPh il
Ġpi jÃŃ
Ġpro z
ĠpÅĻe Å¾
ĠCh ick
Ġak ci
ĠtrÃ¡p ÃŃ
ĠvÃ½ zdob
Ġtvo ÅĻit
UdÄĽl Ã¡m
Ġ *
Ġhra bali
Ġzav olÃ¡
Ġgrow s
Ġwra ps
ĠProto Å¾e
PÅĻip ravit
J erry
ĠS lep
ĠvdÄĽ ÄįnÃ©
ĠnÄĽkolik rÃ¡t
ko l
Ġpod rÅ¾et
ĠW igg
ĠPÅĻi jdou
ĠloÄı ka
ĠkvÄĽtin Ã¡
ĠCÃŃt ÃŃm
ĠpÅĻekvap ila
Ġprobud it
Ġje hla
Ġnep la
ĠotÃ¡ ÄįÃŃ
Ġtich Ã½m
ĠsklÃ¡d ala
Ġupek li
ĠVy chut
Ġlep enky
ĠStÃ¡ la
Ġmrt vÃ©ho
ĠUn til
ĠVy ko
Ġchod nÃŃk
Ġfeed ing
Ġodve zli
Ġnenech ala
o Å¾nÃ©
ĠpÅĻest Ã¡v
Ġjogurt u
en ich
Ġpokle kl
Ġracco on
Ġj dÄĽte
Ġop at
Ġodpla val
ĠU bliÅ¾
Ġhands ome
Ġvyb al
ĠpoÄįÃŃt ali
Ġg rumb
ÅĪ me
ĠpotÃŃ Å¾e
ĠMr zÃŃ
voj Äįata
f us
chÃ¡ nÃŃ
Ġmus cle
Ġdos Ã¡hli
Ġvola jÃŃ
Ġpapri ku
ĠvÄĽn ovala
ĠHud ba
D e
k lÃ¡
ĠV Ã¡no
Ġco nd
Ġsho o
ĠpÅĻemÃ½Å¡ lenÃŃ
ĠDob rou
Ġdla nÄĽ
ĠoÅ¡etÅĻovat el
ru p
ĠcÃŃt ÃŃte
Ġbarev nÃ½m
ĠvÃ½ kon
Ġva ÅĻil
ĠBobby ho
ĠÅ¡lÃ¡ pla
ĠM an
Ġjim i
ĠZam Ã¡vali
ĠvÄĽtviÄį ek
Ġodraz it
le h
ĠO sla
ajÃŃ m
Ġoprav ovat
Ġlicen ci
ĠzajÃ¡s ali
ĠPen elope
f orm
la red
ĠM ÄĽlo
ĠpÅĻip ravÃŃ
ĠnÃ¡v rh
Ġdeliver ing
ĠzÃ¡clo nu
ĠBri an
Ġk d
ĠM itten
Ġcom m
Ġstan ice
Ġpodep sat
Ġnevypad al
Ġvyplat ila
D avid
Ġvis el
ĠkrÃ¡lov nou
ĠM am
Å¯ vÄĽ
ÅĪ Ã¡k
Ġpolit ely
Ġdo hodli
Ġdi ved
r ÄįitÄĽ
Ġp ruh
Ġukaz ujÃŃ
Ġkapes nÃŃk
Z av
ĠneuvÄĽÅĻitel nÃ©ho
ÅĻ Ã¡n
Ġdoko ÅĻÃ¡n
c ake
ÅĻ te
ĠÃºko lem
ĠpÃ¡ ru
Ġzahanb eni
ĠVez mu
ĠpÅĻÃŃ pit
ĠzÃ¡bav ou
Ġhlu kem
ĠPt al
Ġsuffer ing
Ġzhas la
ĠWoo ly
ĠT ig
Ġsp ustil
ĠpÅĻekvap ilo
ĠNÃ¡sled uje
Ġleh kÃ¡
Ġfotoapar Ã¡tem
Ġali en
ĠohÅĪostro je
Ġc Ã¡k
Ġon ward
Ġmagick Ã¡
Ġbo ji
Ġsed ÄĽly
ĠMÃ¡v l
ĠpÅĻ elÃ©
ĠD i
raz ili
di venÄĽ
s adÃŃm
oh lo
Ġlamp y
ĠjÃ¡s al
ich la
ĠSt ud
Ġmin ts
ĠvyÅĻe Å¡il
ĠSbali la
ĠFo xy
Ġob d
Ġde vÄĽt
ĠU vÃŃ
ÅĪ ujÃŃ
Ġpad ou
Ġpohodl nÃ¡
Ġl Ã¡t
ĠPÅĻe staÅĪ
ĠÄĮ ÃŃm
Ġpa Å¾ÃŃ
ĠotÃ¡ Äįel
ĠpouÅ¡t ÄĽla
Ġrostl inÄĽ
Ġnakres lili
Ġsvobod nÃŃ
ĠLou ÄįÃŃ
Ġpodep is
Ġnap kins
ĠvytÃ¡ hne
ĠÄĮerven Ã©
Ġfron tÄĽ
Ġva Å¡ÃŃm
Ġodhali l
ĠpohÅĻb ÃŃt
ĠUte kli
Ġspr chu
ĠnÃ¡ z
ĠpomÃ¡h Ã¡Å¡
Ġsnee zing
Ġzebr as
y ears
Ġk Ã¡vy
po s
Ġpat ÅĻit
Ġhro cha
ĠVyb rali
ĠpromÄĽ nit
ĠmoÅĻ skÃ©
Ġnesm ÃŃÅ¡
ĠzahihÅĪ ala
Ġk l
Ġji stÃŃ
Ġnap ro
Ġslo ni
ĠpolÅ¡tÃ¡ÅĻ Å¯
Ġplu cked
Ġsez nÃ¡mila
ĠDÄĽk ovali
Ġmi lejÅ¡ÃŃ
Ġwarm er
Ġspad li
Ġnud ili
ĠzÃ¡pis nÃŃku
ĠZavrt ÄĽla
ĠneÄįek anÃ©ho
ĠpÅĻe skak
ĠUÅ¾ ila
ĠÄįokolÃ¡d a
ÅĻ enÃ½
Ġby to
Ġod toku
ĠzaÄį Ã¡tku
ĠPod ÄĽlÃŃ
ĠÅ¾Ã¡d al
Ġpad ajÃŃcÃŃ
Ġnen ud
ĠdodÃ¡v ce
Ġs louÅ¾ÃŃ
Ġod chÃ¡zejÃŃ
Ġvyh rÃ¡li
ĠdÄĽli ly
Ġhon ked
Ġz ÃŃt
ĠO tÃ¡
Ġo mlouv
Ġbu ndy
Ġzam il
Ġnas koÄįili
Ġdome Äįku
Ġpran ÃŃm
ĠDot Ã½
Ġcras hing
Ġst ÅĻed
ĠblÃŃÅ¾ ilo
Ġbath s
ĠMÃŃ st
ĠPau la
Ġsp is
ĠN alo
Ġde fe
Ġham bur
ĠZ mÄĽ
ĠMar ii
Ġpo va
ĠPla kali
Ġletad el
Ġvzdy ch
ĠLamp a
ĠpÅĻed al
Ġsou d
Ġodhod lÃ¡
Ġleopard a
Ġchatr Äį
! -
Ġo kla
ĠB la
pe te
ĠzniÄį en
ĠtovÃ¡ rnÄĽ
Ġmatemati ky
Ġroz dÄĽlili
ĠnadÃ½ch anÃ¡
ĠNÄĽ koli
ĠPoran il
ĠB ÃŃ
Ġkor Ã¡lky
ĠNed ovo
Ġzast r
ĠblÃ¡z en
ĠzvÃ¡ Å¾it
ĠT essa
Ġjednoro Å¾ce
Ġnejmen Å¡ÃŃ
Ġpro jÃŃÅ¾dÄĽl
me al
let ÄĽlo
ÃŃn ku
Ġpost er
Ġmatter s
ĠKres lila
ĠujiÅ¡Å¥ ovala
b age
ĠH r
ĠmÃ¡m inu
Ġpe ck
Ġraz ÃŃtko
ĠvÄĽ dÄĽlo
Ġlif ts
ĠÄįerst vÃ½
ĠklÃ¡d a
ĠspÃ¡ lit
Ġne tÄĽs
Ġsli by
ĠtÅĻpyt ky
mÃ¡ lu
Ġzv ÃŃtÄĽz
ĠzniÄį enÃ¡
Ġnor mÃ¡lu
ĠzahÅĻ Ã¡la
Ġsque ak
Ġrefres hing
Ġstud ents
Ġzbran ÃŃ
L ilo
jÅ¡ÃŃ ho
Ġnas adili
Ġtet y
Ġopak ovala
Ġseaw eed
ĠBy d
ĠOd s
Ġve Å¡ly
ĠudrÅ¾ oval
ĠtyÄįin ku
Ġmagne ty
Ġnastoup il
Ġhavran a
Ġb um
ad el
Ġstud ovala
ÃŃch ala
Ġlimet ky
in ci
Ġvys lech
Ġhlu ÄįnÃŃ
Ġlung s
VÃ¡Å¾ nÄĽ
Ġun sure
Ġrozb ili
Ġincre ased
Ġst oj
ĠpomÅ¯Å¾e me
ĠpenÄĽ zi
Ġstud enÃ©ho
ĠsoutÄĽ Å¾e
ĠD orazili
Ġpravid lo
ĠrybÃ¡ÅĻ skÃ½
Pro stÄĽ
ĠoÄįist it
Ġv chodu
Ġk rajÃŃ
ra j
Ġky se
ĠpÅĻiblÃŃÅ¾ ÃŃ
Ġpo nu
Ġstand s
Ġnen ast
ĠpÅĻÃŃjem nÃ¡
lu ci
Ġvis et
Ġmis i
Ġet ik
Ġn arazÃŃ
Ġc rew
ul ku
ĠpÅĻÃŃ jezd
Ġoat meal
ĠNapl nil
ĠdÄĽ v
Ġzkus ÃŃm
Ġbubl inkami
Ġnen arazil
ĠÅĻez nou
Ġswallow ed
ĠZ ack
Ġned ÃŃval
li ka
ĠJ isk
ĠÅ¡tÃŃp nout
ĠpÅĻi ve
Ġop ÃŃ
Ġjmen uji
Ġmoud ÅĻe
ĠZÅ¯ staÅĪ
Ġbou li
Ġnamal oval
Ġsklep a
Å¡en Ã©
Ġexp ress
Ġned ÃŃvala
ĠkvÄĽtin Ã¡Äį
Ġjoin ing
ĠtovÃ¡r na
ĠDin osau
ĠÅ½i raf
Ġva ÅĻenÃŃm
ĠstÅĻÃŃ kala
Ġdoz vÃŃ
Ġst aÅĻe
Ġth ud
ĠpÅĻiprav ovat
Ġwhisp ers
ĠCar la
Ġprep aring
ĠMÃŃst nost
ĠdÄĽ r
ĠpÄĽk nÃ©m
Ġspolehli vÃ©ho
enÃ½m a
ĠpÅ¡tro sa
ĠPÅĻi letÄĽl
Ġschov Ã¡vali
Ġchlad iÄį
ĠchÃ¡p ala
Ġodhali la
ĠÅĺe ka
B abiÄįka
ĠÄįek aly
Ġnut il
ĠneÅ¡kod nÃ¡
louche j
ĠodpoÄįinu li
Ġlaska vÄĽjÅ¡ÃŃ
ĠNes dÃŃ
L ist
ĠK Ã½ch
Ġot isky
Ġnak lonila
ÃŃch at
ĠzahihÅĪ al
Ġpodp oru
lo va
ri gg
ĠmÃŃ se
ĠnÃ¡stroj Å¯
ĠzmÃ¡Äį kne
Ġvzdy chÃ¡
ĠPÅĻip oj
i Å¡t
Ġvol ba
ĠuklÃŃz el
ĠSt r
Po ÅĻÃ¡d
Ġpev nÃ¡
ĠneÅ¡Å¥ast nÃŃ
ĠdÄĽsiv ou
ĠnedÄĽla t
Ry chle
Ġop ery
Ġnev yÅ¡
Ġpop s
ĠuspoÅĻÃ¡d ali
Ġglu ed
Ġop al
Ġres po
oo oo
Ġzlom enÃ¡
Ġprastar Ã½
Ġpo tem
ĠJ ump
arm out
ĠPe ggy
Ġlaskav Ã½m
Ġzmen Å¡it
Ġin j
Ġro pes
ĠLet ÃŃ
Ġztrat ÃŃ
Ġzahanb enÃ¡
uÅ¡ Å¡ÃŃ
Ġd Ã¡te
Ġso ba
Ġbav te
Ġbrou ku
ĠpoÄįÃŃt Ã¡
Ġsoused y
ĠchybÄĽ jÃŃcÃŃ
Ġus mÄĽv
vÃ© zt
ĠPat ÅĻil
ĠvraÅ¥ te
ĠpyÅ¡ nÃ©
Ġstud oval
en osti
as ha
it ÃŃ
ĠP ustil
Ġve jÃŃt
Ġpe kaÅĻ
ĠSpot ova
ber ou
ĠÅ¡Å¥avnat Ã¡
ĠAlen ka
Ġsv lÃ©
Ġobchod ovat
Ġbub nem
Ġzlom ys
Ġrozes mÃ¡lo
ĠvypadajÃŃ cÃŃho
Ġobklop en
ces chop
Ġpo Å¡le
ĠTom ovy
Ġod nikud
ĠmÃŃ sa
Ġzam kla
ĠpovÄĽ sili
ĠÅ¡ÅĪÅ¯ ra
Ġosvobod it
Nez apomeÅĪ
Ġwater ing
Ġbud ov
ĠPodÃŃv ajÃŃ
Ġshod ila
ĠPoÄį kal
ĠP er
Ġstud ni
ĠpÅĻinÃ¡ Å¡ÃŃ
ĠMÄĽsÃŃ ci
Ġpestro barev
Ġkyse le
Ġu Äįe
tÃ¡ ch
Ġoli vu
Ġne myslel
Ġkou lÃŃ
Ġvyp ÄĽst
ĠspÅĻÃ¡te lily
Ġperform ed
Ġs fou
ĠzÃŃ rala
Ġlead s
ĠÅ¾elez o
ĠB rad
ĠlÃŃb ajÃŃ
Ġcuk rem
Ġodva hou
ĠÅ¾iraf u
Ġd ie
Ġob ÅĻÃŃ
ĠpovÃŃd aly
ĠkrÃ¡lov nu
ĠodpoÄįÃŃv ala
Ġtremb led
ĠAut a
ĠtÄĽÅ¾ kÃ½m
Ġnes naÅ¾
ĠhoÅĻ kÃ½
S adly
ho vÃ¡nÃŃ
ĠJ ÃŃ
ĠOd nesli
ĠpodÄĽk ovÃ¡nÃŃ
ĠPÅĻe Äįet
ĠO be
Ste ve
en cÃŃ
ĠD uck
Ġstar fish
Ġwob bly
Ġslou Å¾it
ĠchÅ¯ ze
ĠPÅĻi Å¡lo
os ledy
Ġzlep Å¡ila
ĠnormÃ¡l nÄĽ
Ġseri Ã¡ly
Tent o
Ġne ig
Ġdan cers
ĠJak Ã¡
ĠvymÃ½Å¡le li
Ġpand u
Ġoli v
ĠÅ¾vÃ½ka Äįky
Ġst Ã¡hl
Ġpress es
Ġzkaz it
ĠHrd ina
M am
Ġnet rÃ¡p
Ġtriang les
ĠPohyb ovala
Ġmi le
Ġless ons
Ġmis ka
ĠBu Äıme
Ġledn iÄįky
ĠvÃ½ro bu
Ġporoz um
Ġnakup ovat
w hile
Ġo pe
ÅĻ Ã¡tel
ĠuvÃŃ zlo
Ġzim ÄĽ
Ġpneumati ka
ĠneodpovÃŃd Ã¡
b ije
Ġklouz Ã¡nÃŃ
ĠvyprÃ¡vÄĽ jÃŃ
UdÄĽla la
Ġhra bat
Ġocit la
ĠSpark les
Ġla nÄĽ
Ġroz jelo
Ne b
Ġzrc adle
nÄĽ li
oh y
Ġpro f
Ġbit ing
bud eme
Ġconf li
Ġnespat ÅĻil
ĠT ax
Ġle hli
Ġunav ila
Ġplane tÄĽ
Ġau tech
Ġpohodl nou
Ġkop ou
ĠNap osledy
Ġcus hions
ĠokamÅ¾ icÃŃch
Ġzakous la
Pamat uj
te vÃŃ
ĠSt ay
Ġpost man
Je ho
Ġzkus ÃŃme
Ġna poÅĻÃ¡d
Ġresist ed
Ġm erry
ĠB ert
Ġpapr sky
un Ã½
ĠG re
ĠveÅ¡k er
t al
Ġd nÅ¯
ĠH rdÄĽ
ĠPo Å¡Å¥Ã¡k
Ġnes padl
Ġchlad nÄĽ
ĠChy stali
ĠpoÅ¾ Ã¡ru
ĠpÅĻitu lili
ĠautÃŃ Äįku
ĠbanÃ¡n Å¯
ĠstÃ¡ j
ĠZ ero
ĠJed la
ĠodmÄĽ nÄĽ
Ġscra ped
Ġpro sp
Ġnej sil
Ġnesty dÄĽl
ĠprohlÃŃd ku
ĠNet vor
Ġled ÄĽ
ĠoÅ¡kli vÃ©ho
Bu Äıte
Ġge ese
B ack
U kaÅ¾
Ġtalk s
Ġkr unÃ½
ĠPolici e
Ġfoc used
Ġfreed om
ĠGeor g
rÃ¡ c
ka ÅĻi
ĠbalÃ³ nem
Ġprst ech
ĠEli za
ve ch
ĠvÃ¡ let
Ġhr nku
ĠMat ilda
ĠBilly m
Ġmar vel
Ġrus hing
Ġzad un
Ġspravedli vÃŃ
ĠTw inkle
Ġt ables
ĠF la
ĠvÃ¡ ze
on na
Ġad ults
Ġsof ter
Ġuva ÅĻÃŃ
Ġsmy Äįky
ĠosvÄĽÅ¾ ujÃŃcÃŃ
Ġwad dled
Ġsho v
Ġpan icked
Ġben z
ĠpÅĻist ane
ĠpÅĻichÃ¡ze li
Ġfand ili
Ġzh oup
Ġdost anu
ĠPÅĻi chÃ¡zÃŃ
Ġjas nÃ½m
ĠRex em
ĠzajÃŃmav Ã¡
Ad am
Ġdet ail
Ġsho ra
Ġzam kl
ĠvlastnÃŃ ma
Ġsniff s
ĠpÅĻipla vala
Ġbu Å¡i
ĠNej sem
Ġpomoz te
ĠÃºle vu
Ġsli ps
ĠsvaÄį in
Ġkle kla
ĠnÄĽ Å¾nÃ¡
ĠG racie
ĠstÄĽ nÃ¡ch
ĠvyÅĻe Å¡ila
Ġnalo Å¾il
m unk
v ant
Ġd elÅ¡ÃŃ
ĠZ d
Ġna lil
ĠJake ovi
ĠsvÃŃ Äįkami
Ġu loÅ¾
ĠÅĻe tÃŃ
omnÄĽ lo
ĠuspoÅĻÃ¡d anÃ©
Ġklok ana
Ġup os
kÃ¡ Å¡
ĠdÄĽ jÃŃ
ĠzÃ¡vod nÃŃ
Ġnecklace s
Ġzakry la
ĠplyÅ¡ovÃ© mu
Ġfirm ly
Ġne un
Ġnaslouch al
ĠVÃ¡ za
ĠRostl ina
re tty
Ġmet ro
Ġkov boj
Ġvyd echla
Ġnab ral
ĠkrÃ© mu
Ġn el
Å¾ enÃ½
Ġspl nila
ĠzavÃ¡ zat
Ġv lÃŃd
ad os
Ġvy mysleli
ĠU kÃ¡Å¾e
Ġodp ouÅ¡tÄĽt
Ġsled ovÃ¡nÃŃ
ĠvÄįel ce
Ġtrub ka
ĠSund al
ĠPÅĻikÃ½v l
ĠstmÃŃv Ã¡
Ġote st
Ġprin ci
ĠprÅ¯ kaz
ĠÅ¡amp onu
Ġwigg le
a ÅĻ
ĠAnd rew
Ġdro pping
Ġkdy si
bb ling
Ġposkak ovÃ¡nÃŃ
Ġlou Å¾
Ġmys li
Ġencourag ing
ĠC elÃ©
ĠKdy koliv
ĠpovÄĽ sil
ĠlaskavÃ© mu
Ġhrud nÃŃk
P ÅĻekvap
ĠÅ¡ im
Ġroz stÅĻÃŃ
ĠF ire
Ġvod op
Ġnap Å¯l
Ġjoy ful
ĠumÃŃst il
Ġnesouhlas ila
ĠpouÅ¾ije te
ĠB ru
Ġus r
Ġdraw ers
Ġkole je
Ġfiref ly
Ġpozo rovÃ¡nÃŃ
Ġtlesk aly
ĠÅ¡ Ã¡la
Ġw rigg
ĠtouÅ¾ ila
ĠÅ¡ ust
Ġmoc t
Ġnos ili
Ġpamat uje
D rÅ¾
Ġna Å¡im
Ġco op
Ġnezap omen
ĠzdvoÅĻil Ã©
Ġvola li
Ġfrown ing
Ġnastoup it
ĠHasiÄį i
Ġp ult
li je
ĠZ vu
ĠmÄĽ stem
ĠJohn Å¯v
klÃ¡d Ã¡
klÃ¡d ajÃŃ
nd a
if i
Ġrozru ch
Ġha wk
ĠPÅĻikÃ½v li
Ġnaskyt l
Ġde ce
ĠNa ho
ĠslÃŃb ÃŃÅ¡
Ġkluz kÃ½
ĠzajÃ¡s ala
CÃŃt ÃŃm
Ġb am
Ġtest ed
Ġneo chut
Ġneus ly
to Äįil
Ġklo pÃ½t
ĠPouÅ¾ÃŃv ala
ĠodmÄĽ na
ĠVytvo ÅĻila
ĠP in
oru Äįuji
ahu jÃŃ
Ġmokr Ã©ho
Ġhled ajÃŃcÃŃ
Ġorganiz ovanÃŃ
Ġuva ÅĻili
Ġodem kla
ĠSqu irrel
BÄĽ Å¾eli
ĠvÃ½prav u
ĠdÃŃv Äįin
lÃŃÅ¾ el
ĠpÅĻekvap enÃ©
ĠvyÅ¡ ly
ĠD ÃŃ
Ġsqu ishy
Ġkach nou
Ġgum ovÃ½
ĠNetu Å¡ili
ĠState ÄįnÃ¡
p ravÄĽ
Ġpono ÅĻil
Ġb ok
bb it
ĠtÅĻÃŃ du
ĠZav ÅĻe
ĠpÅĻi vo
Ġsc amp
Ġwater fall
Ġnervous ly
ĠvÅĻel Ã½
Ġm obil
Ġmy Äįka
Ġuvol nila
Ġvin nou
ĠmÃ³ d
Äį enÃ¡
ĠT rÃ¡va
ĠnÃ¡vÅ¡tÄĽ vy
ĠtÅĻÃŃdÄĽ nÃŃ
ĠNeu blÃŃÅ¾ÃŃ
ĠPozorov ala
Ġmoud ro
Ġnud il
Ġcent ra
ara jÃŃ
Ġubrou sky
Ġodeh nal
V aÅ¡e
Ġzat Ã¡hli
Ġbul ly
Jo sh
Ġf aded
ĠH or
Ġwor n
Ġlif ting
Ġdovedn ost
ĠNeb udu
ĠÄįÃŃs ly
Ġpo ru
Ġnem oÅ¾nÃ©
ĠÅ¡ko lnÃŃ
Ġbole ly
H annah
Ġves niÄįanÃ©
Ġscamp ered
Ġnez av
ĠRob o
J an
ĠN araz
ĠstrÃ¡ n
Ġnedo Äįka
Ġsvat bu
Ġty Äįinky
Ġhuman s
ĠneublÃŃÅ¾ il
Ġnezkus ÃŃÅ¡
ĠpÅĻÃŃpit ek
J amie
ĠA ny
ĠA pril
ĠSt ri
Ġnet re
ĠodvÃ¡Å¾ ila
L ena
Ġtou lat
ĠUÅ¾ ÃŃval
Ġvever ko
ĠOn ly
ugg y
Ġvyrob en
ĠveÅ¡k erou
Ġne jez
ov anou
Ġpla in
ĠzvÄĽdav osti
ĠpolÃŃb it
lemÃ½Å¾ Äı
li vÃŃ
blÃŃÅ¾ ÃŃm
ĠneuvÄĽÅĻitel nou
ĠOde Å¡la
ĠUjist il
Ġlektv ar
li c
Ġdriver s
ĠsnÄĽhul Ã¡kem
Ġkart a
ĠPouÅ¾ÃŃv Ã¡
Ġappreci ation
ĠsvaÄį inku
Ġozna Äįit
Ġnedos Ã¡hla
V ery
ĠÄį iny
Ġnau Äįilo
ĠRu ka
ĠTuÄįÅĪ Ã¡k
Ġne Å¡li
ĠP ast
ĠD Ã¡vali
ĠvÄĽ ÄįnÄĽ
Ġtan ce
amp Ã¡d
ĠhÃ¡ zela
ĠZavola li
Ġhar ampÃ¡d
Ġpo stup
be zpe
Ġslu Å¡ÃŃ
Ġtles kÃ¡nÃŃ
Ġzast ÅĻe
Ġznud ÄĽnÃŃ
ĠpÅĻivÃ¡z al
i ju
Ġko pla
ĠZ ee
Ġsk al
Ġtlap u
cient ist
Ġpopel nice
ĠnepÅĻest ane
ĠrozesmÃŃv al
Ġten kou
ĠletÃŃ cÃŃ
Ġkyt ar
Ġsek erou
Ġdiv adlo
ĠvyÄįist ili
Ġpovzd ech
Z ajÃŃmalo
k ovÃ½m
Ġnebezpe ÄįnÄĽ
Ġdvoj Äįe
Nem ÄĽl
ĠzÃŃv la
k ing
Ġse Å¡li
Ġthought s
ĠnavÅ¡tÄĽv ovat
Ġvyst ÅĻÃŃ
ĠEmm o
Ġhrozn ovÃ©
Ġop eru
Ġses koÄįila
ĠoÅĻech Å¯
ĠuvÃ¡z ala
ĠW illy
ĠBrownie ho
ĠrÃ½ Äįem
Ġmodr Ã½mi
Ġzabali li
ĠÅ¡roubovÃ¡ k
ĠB arry
Ġtvrd Ã©ho
Ġpoj ede
PÅĻ Ã¡la
Ġukous l
ĠU kaÅ¾
Ġdra wn
ĠList en
O u
Ġpro bou
ĠKrÃ¡ s
St ar
Ã¡ lÃŃ
Ġus adit
ĠpÅĻe tr
Ġpour s
Dej me
Ġquarrel ing
Ġtwink led
Ġrob ber
Ġthrough out
Ġstack ed
ĠÅ¡ vito
ĠLet ÄĽli
Ġzkou Å¡eli
obÄĽ d
c uch
ĠH ar
ĠRe becca
Ġleap t
Ġres pected
ĠpÅ¯jde Å¡
ĠkÃ½ch la
zvlÃ¡ Å¡t
ĠvÃ½raz em
ĠÃºzkostli vÄĽ
Ġdlouh Ã©ho
Ġstr ÄįÃŃ
ĠÅ¡ko la
Ġmonst ru
Ġpige ons
v Ã©m
en Ã½mi
ĠS uper
ÃŃv at
blÃŃÅ¾ ila
Ġdress er
Ġledn iÄįka
Ko Äįka
ĠposklÃ¡d at
Ġv loÅ¾ÃŃ
ĠkrÃ¡ Äįeli
Ġoc c
ĠmÃŃr nÃ©
ĠMlad Ã¡
Ġza foukal
Ġfit s
ĠAnn inu
ĠPomoc ÃŃ
k ovÃ¡
Ġhra j
ĠzÃ¡v is
Ġpen nies
Ġdvor a
Ġpalu bu
Ġt isk
ĠS kup
ĠVyÅ¡pl hali
Ġdor ty
ĠV oz
ĠlÃŃb Ã¡
Ġexist oval
ĠnakrÃ¡ jet
ĠJÃŃd lo
ĠA long
ĠK on
ĠZ ran
ol ph
Ġdom ovu
Tom ovi
ĠzvlÃ¡d nu
ĠsoutÄĽÅ¾ ivÃ¡
ĠuÄįite lem
ĠMou cha
ĠZaÄįÃŃ nal
ĠjezÃŃ rko
Ġfotograf ii
ĠBydle li
Ġpotrest Ã¡n
Ġpos adily
Ġosu Å¡it
Ġuhas ili
Ġvykro Äįila
Ab igail
Ġoprav u
ĠJo dy
Ġtab ule
Sk vÄĽlÃ¡
ĠN ana
ĠtÅĻÃŃ kol
Ġg onna
ĠC ara
Ġvis ÃŃ
ĠDÄĽ vÄįÃ¡tko
ĠÄįt ou
ĠOde Å¡el
ĠcizÃŃ mi
Ġpochmur nÃ½
Ġvy cp
Ġzdrav otnÃŃ
Ġodem kl
ĠsvÃŃtÃŃ cÃŃ
Äį ivÃ½
Ġpe st
ĠÅ¡ÃŃ len
ĠVzp omÃŃnÃ¡
Ġroze Å¡li
p ot
ĠB Å¯h
Ġne up
Ġop ouÅ¡t
ĠpÅ¯vab nÃ©
Ġjednod u
[...]
