{"<|bos|>":0,"<|endoftext|>":1,"<|pad|>":2,"!":3,"\"":4,"#":5,"$":6,"%":7,"&":8,"'":9,"(":10,")":11,"*":12,"+":13,",":14,"-":15,".":16,"/":17,"0":18,"1":19,"2":20,"3":21,"4":22,"5":23,"6":24,"7":25,"8":26,"9":27,":":28,";":29,"<":30,"=":31,">":32,"?":33,"@":34,"A":35,"B":36,"C":37,"D":38,"E":39,"F":40,"G":41,"H":42,"I":43,"J":44,"K":45,"L":46,"M":47,"N":48,"O":49,"P":50,"Q":51,"R":52,"S":53,"T":54,"U":55,"V":56,"W":57,"X":58,"Y":59,"Z":60,"[":61,"\\":62,"]":63,"^":64,"_":65,"`":66,"a":67,"b":68,"c":69,"d":70,"e":71,"f":72,"g":73,"h":74,"i":75,"j":76,"k":77,"l":78,"m":79,"n":80,"o":81,"p":82,"q":83,"r":84,"s":85,"t":86,"u":87,"v":88,"w":89,"x":90,"y":91,"z":92,"{":93,"|":94,"}":95,"~":96,"¡":97,"¢":98,"£":99,"¤":100,"¥":101,"¦":102,"§":103,"¨":104,"©":105,"ª":106,"«":107,"¬":108,"®":109,"¯":110,"°":111,"±":112,"²":113,"³":114,"´":115,"µ":116,"¶":117,"·":118,"¸":119,"¹":120,"º":121,"»":122,"¼":123,"½":124,"¾":125,"¿":126,"Â":127,"Ã":128,"Ä":129,"Å":130,"Æ":131,"É":132,"Ê":133,"Ì":134,"Î":135,"Ñ":136,"Ò":137,"á":138,"â":139,"ã":140,"ä":141,"å":142,"æ":143,"ç":144,"è":145,"é":146,"î":147,"ï":148,"ð":149,"ĉ":150,"Ċ":151,"Ġ":152,"Ģ":153,"ģ":154,"Ĥ":155,"ĥ":156,"Ħ":157,"ħ":158,"Ĩ":159,"ĩ":160,"Ī":161,"ī":162,"Ĭ":163,"ĭ":164,"Į":165,"į":166,"İ":167,"ı":168,"Ĳ":169,"ĳ":170,"Ĵ":171,"ĵ":172,"Ķ":173,"ķ":174,"ĸ":175,"ĺ":176,"Ļ":177,"ļ":178,"Ľ":179,"ľ":180,"Ŀ":181,"ŀ":182,"Ł":183,"ł":184,"Ń":185,"Ġs":186,"Ġt":187,"Ġa":188,"he":189,"Ã¡":190,"la":191,"ÃŃ":192,"Ġp":193,"nd":194,"ed":195,"Ġw":196,"Ġb":197,"ou":198,"Ġn":199,"Ġd":200,"ÄĽ":201,"Ġthe":202,"Ġm":203,"Ġh":204,"Ġto":205,"in":206,"Ġv":207,"Ġand":208,"Ġj":209,"li":210,"en":211,"Å¾":212,"Ġse":213,"le":214,"Ġo":215,"Ġc":216,"er":217,"ÅĻ":218,"il":219,"as":220,"it":221,"om":222,"at":223,"Ġf":224,"Å¡":225,"Ġk":226,"Äį":227,"ĠT":228,"re":229,"al":230,"Ã½":231,"ar":232,"Ã©":233,"el":234,"Ġhe":235,"Ġz":236,"an":237,"id":238,"st":239,"lo":240,"Ġwas":241,"Ġ\"":242,"ho":243,"Ġu":244,"ĠS":245,"Ġna":246,"ak":247,"ro":248,"im":249,"ing":250,"ad":251,"ch":252,"is":253,"Ġdo":254,"te":255,"Ġg":256,"ne":257,"Å¾e":258,"Ġsa":259,"ily":260,"ĠL":261,"am":262,"ce":263,"Ġpo":264,"ĠB":265,"ĠThe":266,"end":267,"or":268,"Ġne":269,"ov":270,"ra":271,"Ġby":272,"rÃ¡":273,"Ġst":274,"ĠJ":275,"ut":276,"ĠH":277,"ĠM":278,"Ġje":279,"ÅĻe":280,"Ġsi":281,"Ġit":282,"ka":283,"Ġth":284,"ĠLily":285,"ay":286,"et":287,"Ġli":288,"Å¯":289,"ĠÅ¾e":290,"ot":291,"Ġher":292,"ir":293,"xt":294,"of":295,"ly":296,"ĠShe":297,"ck":298,"av":299,"edn":300,"ĠHe":301,"ofte":302,"<|":303,"|>":304,"endofte":305,"endoftext":306,"ku":307,"on":308,"Ġin":309,"Ġsv":310,"Ġlo":311,"ala":312,"Ġbe":313,"ĠThey":314,"ĠpÅĻ":315,"es":316,"Ġy":317,"dy":318,"Ġho":319,"my":320,"Ġr":321,"Ġsaid":322,"jÃŃ":323,"ld":324,"ĠÅ¡":325,"ok":326,"ĠI":327,"ÄĽla":328,"ap":329,"Ġe":330,"Ġtak":331,"ĠP":332,"ter":333,"Ġvel":334,"ĠA":335,"ri":336,"ÄĽl":337,"Ġshe":338,"mi":339,"Ġpla":340,"ith":341,"ÅĻek":342,"Ġwith":343,"Ġch":344,"nÃŃ":345,"em":346,"!\"":347,"ig":348,"Ġyou":349,"Ġof":350,"Ġsp":351,"Ġso":352,"ĠÅĻek":353,"Ġhis":354,"Ġro":355,"ery":356,"ila":357,"by":358,"ĠTim":359,"Ġon":360,"un":361,"Ġday":362,"od":363,"Ġthat":364,"ky":365,"Ġvy":366,"nÄĽ":367,"Ġup":368,"ÃŃt":369,"ci":370,"Ġle":371,"out":372,".\"":373,"ant":374,"ast":375,"Ġhad":376,"ent":377,"Ġsm":378,"Ġjedn":379,"Ġplay":380,"ĠN":381,"Ġthey":382,"Ġmu":383,"nÃ½":384,"ĠV":385,"Ġmom":386,"Ġfor":387,"ht":388,"oh":389,"ĠO":390,"ould":391,"'s":392,"Ġza":393,"ek":394,"The":395,"app":396,"ry":397,"ĠBen":398,"tt":399,"Ã¡d":400,"ked":401,"Ġgo":402,"ÃŃv":403,"nÃ¡":404,"her":405,"ĠTom":406,"Ġhapp":407,"lu":408,"Ġwant":409,"Ġob":410,"no":411,"ali":412,"Ġpro":413,"ĠnÄĽ":414,"rou":415,"Ġdne":416,"se":417,"ome":418,"?\"":419,"Å¥":420,"iÄį":421,"Ã¡m":422,"rom":423,"ack":424,"Ġco":425,"Ġbo":426,"ĠBy":427,"Ġkter":428,"ĠĊ":429,"ime":430,"Ġvery":431,"Ġbyl":432,"Ġnot":433,"lÃŃ":434,"vÄĽ":435,"Ġbyla":436,"ttle":437,"ru":438,"Ġtime":439,"ep":440,"Ġlittle":441,"Ġthere":442,"Ġan":443,"Ġre":444,"ĠD":445,"ll":446,"ĠK":447,"ys":448,"ĠhrÃ¡":449,"kÃ¡":450,"Ġhappy":451,"ud":452,"na":453,"Ġbig":454,"ave":455,"Ġis":456,"ĠIt":457,"ko":458,"Ġbut":459,"ĠTimmy":460,"ĠC":461,"Ġvelmi":462,"ĠÅ¡Å¥":463,"Ġfri":464,"ĠÅ":465,"Ġsaw":466,"oho":467,"Ġfriend":468,"Ġas":469,"dyÅ¾":470,"ĠÅ¡Å¥ast":471,"Ã¡t":472,"ve":473,"ÃŃm":474,"Ġpar":475,"ĠsvÃ©":476,"ved":477,"ere":478,"ĠÅĻekla":479,"Ġaby":480,"Ġale":481,"nce":482,"pe":483,"'t":484,"Ġmal":485,"Ġus":486,"ednoho":487,"nÃ©":488,"lou":489,"ili":490,"Ġlook":491,"Ġvelk":492,"Ġwere":493,",\"":494,"ug":495,"Once":496,"hat":497,"ul":498,"Ġla":499,"ÅĻÃŃ":500,"ide":501,"By":502,"ni":503,"Ġko":504,"ĠJednoho":505,"Ġsh":506,"Ġroz":507,"Ġhim":508,"Ġjednou":509,"Ġjs":510,"Ġjak":511,"led":512,"ke":513,"ver":514,"ĠR":515,"Ġod":516,"ard":517,"ĠÅĺ":518,"ĠZ":519,"Ġare":520,"irl":521,"Ġwanted":522,"Ġgirl":523,"Ġupon":524,"ny":525,"dÄĽ":526,"Ġout":527,"Ġthem":528,"ĠpÅĻi":529,"je":530,"mÃ¡":531,"ur":532,"Ġstar":533,"ĠvÄĽ":534,"vid":535,"ore":536,"me":537,"ĠrÃ¡":538,"Å¡ÃŃ":539,"Ġtheir":540,"Ġno":541,"vÃŃ":542,"Ġmat":543,"way":544,"ind":545,"hod":546,"tÃ¡":547,"Ġdid":548,"Ġcould":549,"ĠÄį":550,"ol":551,"ĠJe":552,"ful":553,"Ġhave":554,"to":555,"ĠjÃŃ":556,"hen":557,"ill":558,"lÃ©":559,"Å¡en":560,"ake":561,"amin":562,"Ġsc":563,"Å¡t":564,"ob":565,"ĠrÃ¡d":566,"hed":567,"Ġex":568,"ĠÅĻekl":569,"ic":570,"Ġhel":571,"Ġjm":572,"Ġde":573,"Å¯Å¾e":574,"Ġwent":575,"ji":576,"Ġat":577,"round":578,"Ġop":579,"Ġcan":580,"all":581,"ĠvÅ¡":582,"ÄĽli":583,"Ġpom":584,"ĠMa":585,"hing":586,"Ġfriends":587,"Ġhelp":588,"ĠAle":589,"pp":590,"Ġhra":591,"dÄĽla":592,"ted":593,"Ġback":594,"Ġall":595,"Lily":596,"ĠkdyÅ¾":597,"Ġfel":598,"Ġfun":599,"ÄĽt":600,"Ġve":601,"wn":602,"ice":603,"You":604,"ÄįiÄį":605,"Ġji":606,"Äı":607,"Ġuvid":608,"iled":609,"are":610,"ght":611,"ĠSam":612,"Ġnam":613,"ara":614,"ĠU":615,"us":616,"one":617,"oval":618,"ept":619,"ovala":620,"Ġdom":621,"very":622,"ÅĻi":623,"ĠÅĺek":624,"Ġsmiled":625,"enÃŃ":626,"ech":627,"Ġnamed":628,"Ã©ho":629,"ain":630,"Ġpod":631,"Ġtoo":632,"ĠpÅĻÃŃ":633,"side":634,"ĠÅ¾":635,"Ġloved":636,"ick":637,"Ġman":638,"ĠMax":639,"co":640,"ĠOne":641,"um":642,"Ġasked":643,"Ġme":644,"Ã¡v":645,"ĠW":646,"Ġlike":647,"kou":648,"ÄįiÄįka":649,"Ġfelt":650,"nna":651,"Ġlooked":652,"lÃ¡":653,"Ġsome":654,"omet":655,"Ġaround":656,"Ã½m":657,"and":658,"ami":659,"Ġjed":660,"ame":661,"ound":662,"Ġvz":663,"low":664,"ĠmÃ¡m":665,"be":666,"get":667,"ure":668,"Ġbir":669,"pad":670,"Ġsvou":671,"ther":672,"Ġvid":673,"Ġcht":674,"Ġwould":675,"Ġdob":676,"Ġwe":677,"Å¡el":678,"ĠmÃŃ":679,"ous":680,"Ġden":681,"ss":682,"ĠjejÃŃ":683,"ach":684,"Ġboy":685,"ĠzaÄį":686,"âĢ":687,"Ġmamin":688,"Ġal":689,"oc":690,"Ġsomet":691,"Ġbird":692,"ven":693,"Ġhol":694,"ĠnÃ¡":695,"Ġjedna":696,"Ġspo":697,"ĠhrÃ¡t":698,"ings":699,"rab":700,"Ġag":701,"Ġmake":702,"Ġsee":703,"Ġwor":704,"ade":705,"Ġwhat":706,"ĠE":707,"Byla":708,"ĠusmÃ¡":709,"Ġfe":710,"ĠhraÄį":711,"Ġran":712,"Ġtre":713,"Ġcar":714,"ĠBut":715,"gether":716,"ĠYou":717,"Ġpark":718,"Ġaway":719,"cit":720,"ĠByla":721,"One":722,"ng":723,"ĠkterÃ¡":724,"Ġsho":725,"ab":726,"Ġsays":727,"Ġstarted":728,"ag":729,"pec":730,"oz":731,"Ġchla":732,"Ġsk":733,"ĠkrÃ¡":734,"Ġmoh":735,"ally":736,"Ġhla":737,"Ġwat":738,"ĠnÄĽco":739,"ĠkterÃ½":740,"Ġjeden":741,"Ġjeho":742,"ared":743,"Ã½t":744,"ich":745,"Ġmade":746,"ajÃŃ":747,"Ġsomething":748,"Ġtogether":749,"vÄĽd":750,"Ã¡tel":751,"Ġnad":752,"rÃ¡t":753,"ie":754,"Ġry":755,"oj":756,"op":757,"Ġmatka":758,"Ġsad":759,"ust":760,"mu":761,"ĠKdyÅ¾":762,"Å¯j":763,"Ġother":764,"ĠJack":765,"ĠpÅĻÃ¡tel":766,"Ġnew":767,"ow":768,"ĠByl":769,"Ġput":770,"Ġnov":771,"ia":772,"ran":773,"Ġfrom":774,"ĠholÄįiÄįka":775,"Ġte":776,"ĠF":777,"ze":778,"ight":779,"lem":780,"Ġsmut":781,"de":782,"Ġhug":783,"Ã¡l":784,"iv":785,"Ġnem":786,"sk":787,"Ġexcit":788,"Ġagain":789,"if":790,"ĠzÃ¡":791,"ĠSara":792,"Ġhome":793,"ĠAnna":794,"Ãº":795,"Ġspe":796,"ĠbÃ½t":797,"nou":798,"Ġgood":799,"ĠmalÃ¡":800,"Ġparku":801,"Ġwho":802,"ĠcÃŃt":803,"Ġwal":804,"bÄĽ":805,"Ġmy":806,"ried":807,"Ġfound":808,"Ġjmen":809,"Ġthen":810,"ĠnÄĽj":811,"ik":812,"Ġdec":813,"Ġzv":814,"hy":815,"qu":816,"ĠptÃ¡":817,"Ġzp":818,"pped":819,"Ġwhen":820,"Ġhou":821,"ovi":822,"cÃŃ":823,"Ġget":824,"ĠÅ¡Å¥astnÃ¡":825,"ĠNa":826,"rav":827,"Ġab":828,"Ġplaying":829,"ude":830,"Å¾d":831,"Ġpe":832,"Ġkam":833,"Ġspeci":834,"Ġnej":835,"hla":836,"iny":837,"Ġsw":838,"ĠÅĻÃŃ":839,"ĠnadÅ¡en":840,"Byl":841,"ĠmÅ¯Å¾e":842,"Ġke":843,"ĠvelkÃ½":844,"Ġthings":845,"ĠÃº":846,"vÃ¡":847,"Ġexcited":848,"ma":849,"ĠRÃ¡d":850,"Ġru":851,"Ġun":852,"now":853,"Ġliked":854,"Ġgot":855,"ĠuÅ¾":856,"Ã½mi":857,"Ġbylo":858,"Ġone":859,"ĠÅ¡Å¥astnÃ½":860,"Å¡la":861,"ct":862,"Ġdecid":863,"ĠudÄĽla":864,"Ġdecided":865,"uc":866,"ĠmÃ¡ma":867,"ĠMom":868,"Ġcame":869,"ĠCht":870,"Ġevery":871,"Ġtoho":872,"Ġyour":873,"ÄįÃŃ":874,"Ġven":875,"ĠpÅĻe":876,"Ġaut":877,"arn":878,"nit":879,"ĠMia":880,"Ġscared":881,"Ġdog":882,"Ġdown":883,"ĠdomÅ¯":884,"Ġpr":885,"alo":886,"yt":887,"Ġfind":888,"ĠPo":889,"aÅ¾d":890,"Ġbyli":891,"Ġcare":892,"Ġbec":893,"ej":894,"ought":895,"Ġclo":896,"Ġthan":897,"Ġmil":898,"chÃ¡":899,"Ġfeel":900,"Ġstrom":901,"ohn":902,"Ġlet":903,"Ġchlapec":904,"Ġdad":905,"ĠjmÃ©":906,"ĠÅĺekla":907,"Å¾dy":908,"They":909,"ers":910,"ilo":911,"Ġbu":912,"nem":913,"udd":914,"Ġwill":915,"rat":916,"Ġmi":917,"ts":918,"ite":919,"Tom":920,"va":921,"ÅĪ":922,"ost":923,"ways":924,"Ã¡te":925,"kla":926,"zy":927,"Ġdidn":928,"Ġmus":929,"Ġzah":930,"rad":931,"Ġalways":932,"Ġjsou":933,"ĠpodÃŃv":934,"Ġtook":935,"Ġabout":936,"stu":937,"ina":938,"ise":939,"ucy":940,"ste":941,"Ġmommy":942,"ĠdÃŃv":943,"Ã¡h":944,"Ġkne":945,"Ġtoys":946,"ge":947,"Å¡tÄĽ":948,"les":949,"ĠmalÃ½":950,"ĠtÄĽ":951,"ÄįnÄĽ":952,"ane":953,"Ġdost":954,"au":955,"po":956,"lÃŃb":957,"ged":958,"lep":959,"Ġoutside":960,"Ġtree":961,"nder":962,"Ġthought":963,"ovat":964,"Ġlearn":965,"Ġjsem":966,"ĠvÅ¡ech":967,"Ġmore":968,"bu":969,"ened":970,"ched":971,"our":972,"Ġold":973,"ĠjmÃ©nem":974,"ĠOd":975,"Ġpre":976,"ÅĻÃ¡d":977,"ĠmÃ¡":978,"ĠJs":979,"ink":980,"Å¯Å¾":981,"Ġknow":982,"ĠbÄĽ":983,"vÄĽt":984,"aÄį":985,"ĠmÄĽ":986,"Ġrozhod":987,"ĠVid":988,"Ġjako":989,"Ġlaug":990,"Ġta":991,"Ġtake":992,"ĠVy":993,"oup":994,"Ġspecial":995,"Ġsor":996,"ichni":997,"mÄĽ":998,"Ġze":999,"Ġl":1000,"ue":1001,"Ġcat":1002,"zd":1003,"udden":1004,"hu":1005,"Å¡e":1006,"ĠLucy":1007,"Ġknew":1008,"fe":1009,"ĠrÃ¡da":1010,"liÅ¡":1011,"Ġwh":1012,"Ġfi":1013,"ĠusmÃ¡la":1014,"Ġkolem":1015,"Äįek":1016,"Ġzn":1017,"let":1018,"ĠpÅĻÃ¡telÃ©":1019,"inu":1020,"Ġshow":1021,"Ġkamar":1022,"uddenly":1023,"ĠpÅĻÃŃliÅ¡":1024,"Ġtoy":1025,"ase":1026,"ĠÅĺÃŃ":1027,"Ġzept":1028,"ĠjÃŃt":1029,"Äįil":1030,"vnit":1031,"aÅ¾dÃ½":1032,"fter":1033,"Ġhow":1034,"Ġpak":1035,"kÃ½":1036,"ood":1037,"Ġbot":1038,"ĠuvidÄĽl":1039,"ist":1040,"vnitÅĻ":1041,"lad":1042,"Ġbro":1043,"Ġexp":1044,"ĠtakÃ©":1045,"ĠpÅĻed":1046,"Ġra":1047,"Ġen":1048,"Ġote":1049,"bo":1050,"Ġnik":1051,"Ġtw":1052,"ĠsvÃ½mi":1053,"Ġsorry":1054,"pat":1055,"ĠBob":1056,"But":1057,"Ġmuch":1058,"ĠkterÃ©":1059,"Ġrun":1060,"ĠvrÃ¡t":1061,"Ġhand":1062,"ive":1063,"Ġhlas":1064,"ty":1065,"nu":1066,"Ġcareful":1067,"rd":1068,"Ġhouse":1069,"naÅ¾":1070,"Ġproto":1071,"ovu":1072,"ĠvÅ¾dy":1073,"Ġrych":1074,"Ġnech":1075,"Ġmaminka":1076,"Ġball":1077,"Ġvys":1078,"Ġvelkou":1079,"ĠuvidÄĽla":1080,"ĠSp":1081,"Äįila":1082,"chu":1083,"Ġwalk":1084,"reat":1085,"Ġsu":1086,"ĠmÃŃst":1087,"Ġsun":1088,"Ġlist":1089,"Ġprou":1090,"Ġinto":1091,"Ġtried":1092,"ĠÅĻÃŃkÃ¡":1093,"Ġtv":1094,"Ġinside":1095,"ĠsvÃ©ho":1096,"Ġproud":1097,"bav":1098,"ĠOb":1099,"Ġjim":1100,"ĠPak":1101,"Ġspolu":1102,"ark":1103,"Ġtold":1104,"dÄĽl":1105,"ĠkrÃ¡s":1106,"Ġthis":1107,"ĠvÄĽci":1108,"Ġwater":1109,"Ġif":1110,"Ġqu":1111,"Ġover":1112,"Ġcouldn":1113,"ĠchtÄĽl":1114,"ĠvelkÃ©":1115,"ĠJejÃŃ":1116,"ĠkamarÃ¡d":1117,"Ġgave":1118,"gh":1119,"Ġheard":1120,"Ġspou":1121,"ĠsvÅ¯j":1122,"ĠVÅ¡":1123,"ion":1124,"Ġbude":1125,"Ġnever":1126,"nout":1127,"jÃŃt":1128,"Ġeach":1129,"ell":1130,"ile":1131,"Ġsil":1132,"Ġdr":1133,"Ġfa":1134,"tÄĽ":1135,"ĠprotoÅ¾e":1136,"Ġroom":1137,"aminka":1138,"ate":1139,"ĠEvery":1140,"kat":1141,"Ġbr":1142,"Ġeat":1143,"Äįe":1144,"Ne":1145,"ĠWe":1146,"ĠRoz":1147,"ish":1148,"Ġbez":1149,"ine":1150,"Ġpick":1151,"ause":1152,"ĠJohn":1153,"Ġjmenovala":1154,"lÃŃÅ¾":1155,"Ġmed":1156,"ĠdÄĽla":1157,"Ġplayed":1158,"Mom":1159,"ĠhrÃ¡li":1160,"Ġpan":1161,"kÃ¡z":1162,"loud":1163,"ĠhrÃ¡la":1164,"ĠlÃ©":1165,"ysle":1166,"ĠpÅĻÃ¡te":1167,"Ġjust":1168,"Ġhugged":1169,"Ġrod":1170,"Ġpoz":1171,"ĠÅĺekl":1172,"stat":1173,"here":1174,"Ã½ch":1175,"Ġoff":1176,"rov":1177,"Ġbox":1178,"du":1179,"Ġad":1180,"Ġcom":1181,"Ġobj":1182,"Ġjsi":1183,"Ġkrab":1184,"Ġpos":1185,"'m":1186,"ĠÅ¡Å¥astnÃŃ":1187,"Ġbecause":1188,"Ġneed":1189,"rÃ½":1190,"ĠsvÃ½m":1191,"ĠMaminka":1192,"ovali":1193,"Ġcu":1194,"kami":1195,"Ġmany":1196,"ĠSue":1197,"enÃ¡":1198,"ump":1199,"til":1200,"oe":1201,"atr":1202,"Ġbav":1203,"ĠÄįer":1204,"ĠaÅ¾":1205,"ĠzÃ¡bav":1206,"Ġpot":1207,"Ġbear":1208,"Ġdal":1209,"ady":1210,"hov":1211,"Ġtu":1212,"To":1213,"arm":1214,"Ġpu":1215,"Ġlong":1216,"Ġtry":1217,"ary":1218,"gry":1219,"onec":1220,"Ġpomoc":1221,"imal":1222,"Ġnemoh":1223,"bÃŃ":1224,"Ġanimal":1225,"odÃŃv":1226,"Ġnice":1227,"ĠchtÄĽla":1228,"ĠSpot":1229,"kÃ©":1230,"ĠmÄĽl":1231,"Ġzahrad":1232,"ber":1233,"jÅ¡ÃŃ":1234,"Ġsebe":1235,"rabb":1236,"Ġmo":1237,"Ġtam":1238,"Ġbet":1239,"ĠnÄĽjak":1240,"jich":1241,"Ben":1242,"Ġhod":1243,"Ġnikdy":1244,"Ġvo":1245,"est":1246,"ĠAnd":1247,"Ġti":1248,"Ġim":1249,"Ġuntil":1250,"Ġany":1251,"Ġznovu":1252,"sel":1253,"Ġmno":1254,"Ġsmall":1255,"leÄįnÄĽ":1256,"Ġkind":1257,"Ġlearned":1258,"kud":1259,"ici":1260,"ĠhrÃ¡l":1261,"vo":1262,"Tim":1263,"Ġdon":1264,"ĠJeho":1265,"ild":1266,"urt":1267,"ĠpodÄĽ":1268,"ĠNe":1269,"Ġbetter":1270,"ovÄĽ":1271,"Äįka":1272,"ĠvÃŃ":1273,"Ġtru":1274,"Äįit":1275,"Ġodp":1276,"rt":1277,"Ġflow":1278,"Ġrychle":1279,"Ġopatr":1280,"ort":1281,"ĠZept":1282,"ĠzvÃŃ":1283,"Ġend":1284,"Å¡li":1285,"kem":1286,"ĠdÄĽ":1287,"Ġbest":1288,"vent":1289,"urp":1290,"ĠzaÄįal":1291,"Ġneby":1292,"ĠpoÅĻÃ¡d":1293,"mb":1294,"Ġor":1295,"ream":1296,"Yes":1297,"Ġcle":1298,"bou":1299,"Ġsli":1300,"ĠnÃŃ":1301,"Ġsay":1302,"Ġexplo":1303,"Ġleg":1304,"aut":1305,"ĠkvÄĽt":1306,"Å¾ÃŃ":1307,"Ano":1308,"Ġjen":1309,"oy":1310,"âĢĿ":1311,"Ġpoko":1312,"âĢľ":1313,"ĠÅĺÃŃkÃ¡":1314,"Ġten":1315,"ĠCh":1316,"sa":1317,"arden":1318,"Ġ-":1319,"Ġgarden":1320,"ff":1321,"Ġspoustu":1322,"cks":1323,"Ġsto":1324,"ĠvydÄĽ":1325,"Å¯Å¾u":1326,"ednou":1327,"Ġbeaut":1328,"Å¡tnÃŃ":1329,"ĠJane":1330,"ĠÅ¡la":1331,"Ġtro":1332,"enÃ½":1333,"Ġeven":1334,"Ġbra":1335,"ĠdÅ¯":1336,"urn":1337,"Ġwa":1338,"ĠSo":1339,"ĠSarah":1340,"Ġche":1341,"Ġthanked":1342,"lun":1343,"ank":1344,"He":1345,"Ġlaughed":1346,"Th":1347,"Ġsky":1348,"lie":1349,"ĠHer":1350,"ruh":1351,"It":1352,"Ġsmi":1353,"Ġste":1354,"Ġjump":1355,"zed":1356,"Ã¡le":1357,"ĠmÄĽla":1358,"illy":1359,"Ġdra":1360,"Ġmot":1361,"Ġcal":1362,"kal":1363,"Ġku":1364,"yÅ¡":1365,"stÃŃ":1366,"ĠJoe":1367,"Ġloud":1368,"ĠusmÃ¡l":1369,"Å¾it":1370,"Ġblo":1371,"nÃ©ho":1372,"olly":1373,"Ġlove":1374,"Ġfle":1375,"ĠzvlÃ¡":1376,"Ġnejlep":1377,"Ġway":1378,"ely":1379,"Ġbezpe":1380,"Ġpap":1381,"ĠBylo":1382,"iful":1383,"Ġcome":1384,"Ġbeautiful":1385,"ĠnadÅ¡enÃ¡":1386,"uje":1387,"rong":1388,"chÃ¡z":1389,"do":1390,"Ġhard":1391,"Ġlots":1392,"self":1393,"kala":1394,"ĠmusÃŃ":1395,"isy":1396,"ĠTo":1397,"jem":1398,"ĠzvlÃ¡Å¡tnÃŃ":1399,"Ġstill":1400,"Ġfam":1401,"able":1402,"Ġanimals":1403,"Ġvypad":1404,"ass":1405,"Ġkni":1406,"Ġjejich":1407,"ÅĻat":1408,"Ġwait":1409,"row":1410,"ĠnejlepÅ¡ÃŃ":1411,"ting":1412,"ĠG":1413,"Ġunder":1414,"ĠnajÃŃt":1415,"ĠRÃ¡da":1416,"Ġchyt":1417,"ĠThen":1418,"ĠukÃ¡z":1419,"ĠprÃ¡":1420,"ĠpÃŃ":1421,"Ġstay":1422,"Ġnod":1423,"ip":1424,"Ã¡s":1425,"ojÄı":1426,"air":1427,"Ġmou":1428,"ĠÄįas":1429,"Ġboth":1430,"Ġvla":1431,"ĠHis":1432,"Ġmoc":1433,"hes":1434,"ĠNem":1435,"ning":1436,"ovÃ¡":1437,"ĠpÅĻek":1438,"Ġnez":1439,"ÅĻiÄį":1440,"Å¾el":1441,"Ġclos":1442,"Ġotev":1443,"ĠsnaÅ¾":1444,"Ġsafe":1445,"Ġar":1446,"ĠFrom":1447,"jednou":1448,"Ġcel":1449,"Ġvod":1450,"Ġpra":1451,"stvÃŃ":1452,"rod":1453,"vÃŃli":1454,"ĠzaÄįala":1455,"lÃ½":1456,"ĠVÅ¡ichni":1457,"Ġtwo":1458,"lue":1459,"ĠvÃ½":1460,"Ġmami":1461,"ĠmÃŃÄį":1462,"ĠCÃŃt":1463,"vap":1464,"Ġbad":1465,"ĠâĢľ":1466,"Ġmohl":1467,"ÄĽk":1468,"ĠsmutnÃ¡":1469,"Ġhlasit":1470,"ĠnÄĽk":1471,"Ġbook":1472,"ĠÅ¡el":1473,"ouÅ¾":1474,"ople":1475,"rÃ¡v":1476,"ĠspoleÄįnÄĽ":1477,"ĠudÄĽlat":1478,"Ġlived":1479,"Ġhez":1480,"ĠSt":1481,"kay":1482,"eet":1483,"Ġvenku":1484,"Ġmod":1485,"Ġusly":1486,"ĠpÅĻÃ¡teli":1487,"ĠpÅĻekvap":1488,"Ġwalked":1489,"kus":1490,"ars":1491,"Ġhurt":1492,"raz":1493,"lÃ©d":1494,"urpr":1495,"ĠsvÄĽt":1496,"Ġshould":1497,"ree":1498,"Ġnau":1499,"Ġits":1500,"ded":1501,"race":1502,"ĠÅł":1503,"ĠmuÅ¾":1504,"ĠsmutnÃ½":1505,"Ġjmenoval":1506,"ĠzvÃŃÅĻat":1507,"Ġhled":1508,"ÃŃn":1509,"ĠcÃŃtil":1510,"ĠnÃŃm":1511,"Ġoblo":1512,"ĠtÃ¡t":1513,"Å¾ela":1514,"Ġsurpr":1515,"Ġangry":1516,"No":1517,"Ġfamily":1518,"igh":1519,"so":1520,"kl":1521,"Ġtat":1522,"Ġpeople":1523,"Ġflew":1524,"Ġcalled":1525,"Ġmnoho":1526,"Ġzvu":1527,"Anna":1528,"Ġred":1529,"ĠnÄĽjakÃ©":1530,"Ġstor":1531,"When":1532,"Ġbrave":1533,"rÃ©":1534,"Ġimp":1535,"Ġtrochu":1536,"koli":1537,"ĠnadÅ¡enÃ½":1538,"ĠjÃŃd":1539,"Ġi":1540,"Ġsoon":1541,"Let":1542,"Ġfin":1543,"Ġbyly":1544,"ess":1545,"ished":1546,"Ġtal":1547,"raÄį":1548,"ba":1549,"aisy":1550,"uck":1551,"ĠpoÅĻÃ¡dku":1552,"hl":1553,"Ġkept":1554,"Ġvyd":1555,"Ġfore":1556,"fore":1557,"mÃŃv":1558,"Ġvysok":1559,"Ġdan":1560,"ĠnaÅ¡el":1561,"ĠMÅ¯Å¾e":1562,"ĠneÅ¾":1563,"Ġfly":1564,"Ġhas":1565,"Ġshare":1566,"Ġlid":1567,"Ġprett":1568,"Wow":1569,"ĠpÅĻip":1570,"Ġauto":1571,"loÅ¾":1572,"Ġpomoh":1573,"ĠÄįerven":1574,"Ġslun":1575,"iz":1576,"ĠdÄĽlat":1577,"ruÅ¾":1578,"ĠchvÃŃli":1579,"ĠcÃŃtila":1580,"hlÃ©d":1581,"Ġhlu":1582,"Ġpic":1583,"ĠvidÄĽla":1584,"kli":1585,"Ġgoing":1586,"Ġdoor":1587,"Ġzd":1588,"ĠnenÃŃ":1589,"ĠpyÅ¡":1590,"Ġper":1591,"ĠhraÄįky":1592,"ies":1593,"Ġnav":1594,"ince":1595,"ĠptÃ¡k":1596,"ĠvydÄĽÅ¡en":1597,"Ã¡ma":1598,"Ġide":1599,"Ġjin":1600,"Ġpretty":1601,"ĠvÅ¡echny":1602,"Ġkeep":1603,"ĠChtÄĽl":1604,"ĠPÅĻ":1605,"kÃ½v":1606,"Ġnow":1607,"Ġclean":1608,"ĠodpovÄĽ":1609,"Sara":1610,"ĠzÅ¯":1611,"Ġadvent":1612,"ĠBÄĽ":1613,"ĠJsou":1614,"rand":1615,"ÃŃky":1616,"statnÃŃ":1617,"Ġdobrod":1618,"Ġnoise":1619,"Ġlot":1620,"Ġopened":1621,"Ġshiny":1622,"Ġsn":1623,"Ġtou":1624,"sh":1625,"Ġwind":1626,"ĠdobrodruÅ¾":1627,"Ġcry":1628,"tÃŃ":1629,"ale":1630,"Ġbefore":1631,"Ġcli":1632,"ĠSally":1633,"Ġmak":1634,"Äįili":1635,"ĠkrÃ¡lÃŃ":1636,"Ġted":1637,"Ġcon":1638,"ĠTak":1639,"What":1640,"Ġtom":1641,"Ġrem":1642,"ÄįnÃ½":1643,"ress":1644,"Ġzav":1645,"Ġmov":1646,"Ġdoll":1647,"Ġpost":1648,"louch":1649,"Ġzam":1650,"Ġwo":1651,"ĠPtÃ¡":1652,"Ġground":1653,"kali":1654,"Ġexplore":1655,"ĠKaÅ¾dÃ½":1656,"Ġnap":1657,"Ġalso":1658,"ĠjeÅ¡tÄĽ":1659,"Ġturn":1660,"ĠÅ¡tÄĽ":1661,"ĠdalÅ¡ÃŃ":1662,"ĠAn":1663,"Ġfast":1664,"olÄįiÄįka":1665,"âĢĻ":1666,"ummy":1667,"stli":1668,"Ġrep":1669,"Ġey":1670,"chod":1671,"ĠnaÅ¡la":1672,"lor":1673,"Ġobje":1674,"Ġzeptala":1675,"ĠmÃŃsto":1676,"Äįku":1677,"iss":1678,"That":1679,"Ġdve":1680,"ĠkaÅ¾dÃ½":1681,"Ġidea":1682,"Ġpanen":1683,"ĠDaisy":1684,"ered":1685,"Ġbal":1686,"ĠWhen":1687,"ÃŃme":1688,"Ġmag":1689,"Å¾nÃ¡":1690,"ĠTommy":1691,"art":1692,"cho":1693,"si":1694,"ujÃŃ":1695,"Ġoprav":1696,"Ġthink":1697,"Ġdol":1698,"Ġnodded":1699,"ised":1700,"Ġcolor":1701,"ĠBenny":1702,"Ġzap":1703,"ĠdovnitÅĻ":1704,"Ġdokud":1705,"vÃ½":1706,"Ġfeeling":1707,"Ġbrzy":1708,"Ġbud":1709,"ĠJen":1710,"ĠÅ¡pat":1711,"Ġpicked":1712,"Ġjestli":1713,"ger":1714,"ĠzahradÄĽ":1715,"ĠByli":1716,"Ġwalking":1717,"Ġnext":1718,"ĠNajednou":1719,"lit":1720,"ĠHolÄįiÄįka":1721,"ĠhraÄįkami":1722,"ojÄıme":1723,"Å¾Ã¡d":1724,"kajÃŃ":1725,"ĠEm":1726,"ĠDad":1727,"Ġclimb":1728,"So":1729,"ĠmalÃ©":1730,"ĠnÃ¡pad":1731,"Ġwhile":1732,"Ġbed":1733,"zl":1734,"Å¯m":1735,"Ġwork":1736,"ble":1737,"Ġok":1738,"Ġhor":1739,"jist":1740,"Ġplace":1741,"vy":1742,"Ġsmile":1743,"Ġrad":1744,"Ġlesk":1745,"ĠostatnÃŃ":1746,"Sam":1747,"ĠdÄĽt":1748,"luv":1749,"Ġadventure":1750,"ĠstÃ¡le":1751,"Ġdlou":1752,"ĠpÅĻikÃ½v":1753,"ĠNech":1754,"lici":1755,"nÃŃk":1756,"Ã¡k":1757,"ĠpodÄĽk":1758,"Ã¡lnÃŃ":1759,"gan":1760,"sy":1761,"Ġface":1762,"zkou":1763,"Ġask":1764,"aybe":1765,"Thank":1766,"iff":1767,"ĠRÃ¡di":1768,"Ġhot":1769,"iced":1770,"ĠrÃ¡di":1771,"Ġdis":1772,"ĠvÅ¡im":1773,"Ġbar":1774,"ĠdÃŃvka":1775,"Ġbeing":1776,"Co":1777,"ture":1778,"Ġtr":1779,"Ġdiff":1780,"ryÄį":1781,"blÃŃÅ¾":1782,"Ġfood":1783,"ĠpryÄį":1784,"ough":1785,"Ġfro":1786,"Ġgive":1787,"joy":1788,"ĠÅ¡p":1789,"leÅ¾it":1790,"Ġpicture":1791,"Å¯z":1792,"Ġkit":1793,"ĠvÅ¡ichni":1794,"Ġzas":1795,"ĠlÃ©pe":1796,"ĠlÃŃb":1797,"Ġmohla":1798,"ĠUs":1799,"Ġty":1800,"Ġobjev":1801,"Dob":1802,"chy":1803,"Ġlooking":1804,"ĠChtÄĽla":1805,"ÄĽlÃ¡":1806,"Ġfo":1807,"Ġce":1808,"ĠnovÃ©":1809,"Ġeyes":1810,"ac":1811,"Ġtow":1812,"sti":1813,"Ġfar":1814,"nÄĽjÅ¡ÃŃ":1815,"nt":1816,"oci":1817,"Ġstopped":1818,"Ġbri":1819,"Ġdruh":1820,"Ġlisten":1821,"ster":1822,"Ġpomoci":1823,"enÃ©":1824,"Ġafter":1825,"ĠplÃ¡":1826,"Ġown":1827,"ĠtÃ©":1828,"ember":1829,"Äįi":1830,"Ġoh":1831,"Ġprom":1832,"Ġcook":1833,"ĠSuddenly":1834,"Ġpes":1835,"ĠvidÄĽl":1836,"Ġgreat":1837,"Ġstate":1838,"Ã¡li":1839,"ĠskÃ¡":1840,"ĠLila":1841,"Ġma":1842,"ook":1843,"ĠBilly":1844,"ĠÃºs":1845,"Ġhands":1846,"Ġned":1847,"Suddenly":1848,"ĠPÅĻi":1849,"Ġshout":1850,"res":1851,"aly":1852,"Ġhead":1853,"Ġimport":1854,"ĠVz":1855,"Ġever":1856,"Ġpat":1857,"Ġkoup":1858,"Ġpl":1859,"ovÃ©":1860,"Ġflowers":1861,"Ã³":1862,"Ġenjoy":1863,"ĠdolÅ¯":1864,"Ġforest":1865,"Ġnoticed":1866,"Ã¡la":1867,"omn":1868,"Ġblue":1869,"ents":1870,"ovÃ½":1871,"odÃŃvej":1872,"ĠÅ¡li":1873,"ĠVÄĽ":1874,"vÄĽdav":1875,"Ġnear":1876,"Ġnepo":1877,"She":1878,"ĠpouÅ¾":1879,"Ġobjala":1880,"ĠdÅ¯leÅ¾it":1881,"Ġzeptal":1882,"ĠhrajÃŃ":1883,"Ġquick":1884,"Ġac":1885,"irst":1886,"rious":1887,"Ġtra":1888,"unny":1889,"Ġwonder":1890,"mÃ½":1891,"ena":1892,"ĠMÄĽl":1893,"Ġimportant":1894,"Ġremember":1895,"ĠAmy":1896,"lied":1897,"Ġsou":1898,"ĠbezpeÄįÃŃ":1899,"Ġprob":1900,"ĠzvÄĽdav":1901,"Ġkrabici":1902,"vÄĽdom":1903,"ÅĻit":1904,"viÄį":1905,"ten":1906,"Ġtri":1907,"Ġsound":1908,"Ġslide":1909,"Ġfish":1910,"Ġrozhodl":1911,"Ġgr":1912,"Ġreplied":1913,"ÄįenÃŃ":1914,"Ġsqu":1915,"ĠmedvÄĽd":1916,"red":1917,"Ġama":1918,"Ġbrou":1919,"ollow":1920,"ĠDÃŃv":1921,"lease":1922,"Ġwatch":1923,"ĠZeptala":1924,"ĠpÅĻÃŃbÄĽ":1925,"ÅĻela":1926,"Ġshowed":1927,"ĠNÃ¡h":1928,"rabbit":1929,"Ġrabbit":1930,"Ġrock":1931,"Ġdok":1932,"ĠNak":1933,"yslel":1934,"Ġokay":1935,"Ġvoice":1936,"bye":1937,"ĠNÃ¡hle":1938,"ĠdÃ¡l":1939,"ĠlÃŃt":1940,"nek":1941,"Ġrain":1942,"ama":1943,"Ġpok":1944,"ĠsnÄĽ":1945,"Ġgre":1946,"Ġdiffer":1947,"Ġslunce":1948,"Ġos":1949,"Ġnebo":1950,"Ġmean":1951,"ĠpÅĻiÅ¡la":1952,"ĠJim":1953,"Ġright":1954,"Ġni":1955,"Å¡tv":1956,"nes":1957,"\".":1958,"Ġye":1959,"ĠdÃ¡v":1960,"ĠMil":1961,"Ġwatched":1962,"nÃ½ch":1963,"Ġdomu":1964,"Ġkou":1965,"Ġtep":1966,"ĠvidÃŃ":1967,"Ġmor":1968,"ĠKonec":1969,"Ġmon":1970,"Ġfollow":1971,"We":1972,"Ġtruck":1973,"ÅĻel":1974,"Ġreali":1975,"ĠnaÅ¡tv":1976,"sÃŃm":1977,"Ġchce":1978,"Ġeveryone":1979,"Je":1980,"Ġstrong":1981,"Å¡ela":1982,"ĠRozhod":1983,"Ġstran":1984,"ĠLet":1985,"Ġstick":1986,"Ġbeen":1987,"Ġuse":1988,"Ġsed":1989,"lov":1990,"anÃ¡":1991,"Ġryb":1992,"ĠvelkÃ¡":1993,"aving":1994,"Ġquickly":1995,"ĠDo":1996,"th":1997,"hle":1998,"Ġwhere":1999,"Ġbit":2000,"Ġour":2001,"ĠMommy":2002,"Ġba":2003,"kÅĻi":2004,"ĠspeciÃ¡lnÃŃ":2005,"Ġdala":2006,"lÃŃz":2007,"Ġdifferent":2008,"ĠdobrodruÅ¾stvÃŃ":2009,"astav":2010,"Ġchild":2011,"ĠlÃŃto":2012,"PodÃŃvej":2013,"ĠsvÃ©m":2014,"Ġboat":2015,"Ġsure":2016,"Ġlas":2017,"Ġnep":2018,"lila":2019,"Ġrozhodla":2020,"Ġbat":2021,"ĠUÅ¾":2022,"Ġbecame":2023,"ÃŃtÄĽ":2024,"Ġgoodbye":2025,"Ġmum":2026,"Ġhigh":2027,"Ġruce":2028,"hoj":2029,"ova":2030,"Look":2031,"Ġam":2032,"Ġstore":2033,"Ã¡tky":2034,"Ġcloser":2035,"Ġjsme":2036,"Ġfil":2037,"ĠPro":2038,"Ġcla":2039,"ĠdobÅĻe":2040,"ĠvidÄĽt":2041,"Ġdoes":2042,"Ġdress":2043,"Ġprince":2044,"Ġzm":2045,"ĠzpÄĽt":2046,"ĠnÃ¡d":2047,"oÅ¾nÃ¡":2048,"abiÄį":2049,"mÃ½Å¡":2050,"Ġwarm":2051,"Ġfav":2052,"Ġskv":2053,"enou":2054,"Ġpus":2055,"ĠVidÃŃ":2056,"ĠChla":2057,"eme":2058,"ĠvÄĽt":2059,"ĠpÅĻiÅ¡el":2060,"Ġcurious":2061,"ĠtÃŃm":2062,"ined":2063,"ĠvÄĽcÃŃ":2064,"ĠÅ¡at":2065,"ĠMÄĽla":2066,"vu":2067,"Ġforg":2068,"ĠMolly":2069,"yslÃŃ":2070,"ĠusmÃŃv":2071,"ĠNakonec":2072,"Ġnecht":2073,"Ġtell":2074,"ĠprochÃ¡z":2075,"ÅĻÃŃd":2076,"Ġmr":2077,"ÄįnÃ¡":2078,"Ġwav":2079,"Ġstop":2080,"randma":2081,"enÄĽ":2082,"Ġnemohl":2083,"ĠSÃ¡":2084,"Ġdro":2085,"Ġthree":2086,"Ġbright":2087,"sem":2088,"Ġhoup":2089,"Ġnim":2090,"leep":2091,"cky":2092,"ĠTh":2093,"Ġhere":2094,"Ġnight":2095,"John":2096,"Ġflo":2097,"Ġopen":2098,"Ġcake":2099,"Ġvyt":2100,"dÃŃ":2101,"more":2102,"Ġhru":2103,"ĠdveÅĻe":2104,"Ġzemi":2105,"Ġanymore":2106,"Ġhrd":2107,"Ahoj":2108,"Ġrozb":2109,"Ġyummy":2110,"Ġpie":2111,"Ġbus":2112,"ÄįnÃ©":2113,"ĠvÃ¡m":2114,"Ġfirst":2115,"day":2116,"Ġpull":2117,"ached":2118,"chen":2119,"ha":2120,"Ġgrabb":2121,"Her":2122,"raven":2123,"alu":2124,"Ġbare":2125,"Ġcra":2126,"Ġcou":2127,"Ġbutter":2128,"ĠhraÄįku":2129,"DobÅĻe":2130,"Ġlegrace":2131,"Ġmamince":2132,"Ġsof":2133,"Ġobloze":2134,"Ã¡r":2135,"ket":2136,"ĠdÄĽti":2137,"age":2138,"ĠtvÃ¡":2139,"ÅĻil":2140,"Ġpoli":2141,"val":2142,"elÃŃ":2143,"Ġcool":2144,"Ġpain":2145,"Ġradost":2146,"Ġgrabbed":2147,"Ġkid":2148,"Ġzvuk":2149,"chÃ¡ze":2150,"Ġkdy":2151,"Can":2152,"Ġzel":2153,"stra":2154,"ĠMÃ¡ma":2155,"ĠzpÃ¡tky":2156,"ired":2157,"klaÄı":2158,"Ġyel":2159,"sta":2160,"imes":2161,"lob":2162,"Ġot":2163,"Ġonly":2164,"zel":2165,"Ġsweet":2166,"Ġotec":2167,"ft":2168,"wl":2169,"Ġfell":2170,"Mami":2171,"Ġobchod":2172,"Ġprozkou":2173,"dou":2174,"Ġbre":2175,"ĠpÃŃs":2176,"ĠÃºsmÄĽ":2177,"Ġslad":2178,"Ġbla":2179,"Ã¡nÃŃ":2180,"Ġbirds":2181,"stal":2182,"Ġjumped":2183,"rel":2184,"Ġsand":2185,"vou":2186,"ĠpotÅĻe":2187,"Ġglad":2188,"ĠTimmyho":2189,"Ġkitchen":2190,"Ġset":2191,"ĠMu":2192,"Timmy":2193,"Ġbarev":2194,"okoj":2195,"Ġkuchy":2196,"pla":2197,"Ġpsa":2198,"hem":2199,"ĠvzÃŃt":2200,"Ġstromu":2201,"Ġhelped":2202,"Ġneb":2203,"Ġdin":2204,"Ġsees":2205,"jÃŃm":2206,"Ġchod":2207,"ĠPodÃŃv":2208,"Ġalo":2209,"ĠjÃŃdlo":2210,"yslela":2211,"Ġdu":2212,"ong":2213,"Ġfire":2214,"Ġdlouh":2215,"Ġlaska":2216,"ĠnÃ¡klaÄı":2217,"vÃŃd":2218,"Ġcont":2219,"Ġsit":2220,"Jednoho":2221,"Ġhappened":2222,"ÃŃÅ¡":2223,"Ġou":2224,"ĠuvnitÅĻ":2225,"DÃŃky":2226,"Ġnev":2227,"ĠtÄĽÅ¾":2228,"ĠpÅĻÃŃte":2229,"Ġsing":2230,"nec":2231,"ĠJill":2232,"Ġgrass":2233,"ĠnÃ¡s":2234,"PojÄıme":2235,"Ġstalo":2236,"ppy":2237,"ĠpoÅ¾Ã¡d":2238,"ang":2239,"Ã¡me":2240,"ĠzvÃŃÅĻata":2241,"Ġtedy":2242,"Ġbunny":2243,"ĠtÅĻi":2244,"Å¯l":2245,"orn":2246,"Ġshouted":2247,"Ġstory":2248,"ĠMus":2249,"ons":2250,"pce":2251,"Ġcho":2252,"Ġkous":2253,"cked":2254,"After":2255,"ĠJsi":2256,"ĠLilyina":2257,"ins":2258,"ĠzpÃŃv":2259,"Ġfavor":2260,"ught":2261,"ĠoÄįi":2262,"ffy":2263,"Ġreached":2264,"Ġrealized":2265,"Ġbrother":2266,"ike":2267,"Ġdokon":2268,"Ġbeh":2269,"Äįko":2270,"ĠvelkÃ©ho":2271,"Ġjo":2272,"ĠmÄĽli":2273,"Ġlady":2274,"Ġmatku":2275,"ĠkÅĻiÄį":2276,"ĠLe":2277,"Ġhaving":2278,"os":2279,"Ġbavili":2280,"rough":2281,"ĠZaÄį":2282,"'re":2283,"Ġva":2284,"Ġkde":2285,"Hel":2286,"ĠcelÃ½":2287,"Ġjste":2288,"Ġapp":2289,"Ġmess":2290,"ĠOba":2291,"Ġfavorite":2292,"mp":2293,"Ġnic":2294,"ĠuvidÄĽli":2295,"Ġate":2296,"Å¾as":2297,"Ġthrough":2298,"Ġdraw":2299,"Ġrest":2300,"Ġgame":2301,"Ġhat":2302,"ĠsuÅ¡en":2303,"Ġless":2304,"Ġunderst":2305,"ĠEveryone":2306,"ĠnÄĽkoli":2307,"luffy":2308,"lut":2309,"other":2310,"ĠmÅ¯Å¾eme":2311,"ĠAs":2312,"stÄĽ":2313,"Ġrozlou":2314,"ĠoblÃŃb":2315,"Ġel":2316,"tend":2317,"Ġfix":2318,"sob":2319,"Ġsoft":2320,"ĠPtÃ¡k":2321,"Ġslu":2322,"ĠmÃŃt":2323,"ather":2324,"Ġthing":2325,"Ġreally":2326,"ĠdÃ¡t":2327,"ĠSnaÅ¾":2328,"Ġhlad":2329,"ĠPod":2330,"Ġlep":2331,"Ġready":2332,"ĠvÄĽdÄĽl":2333,"hlas":2334,"era":2335,"Mommy":2336,"Ġbegan":2337,"ola":2338,"where":2339,"ĠÅ¾Ã¡d":2340,"ĠskvÄĽl":2341,"Ġfu":2342,"Ġpretend":2343,"Ġpiece":2344,"Ġzved":2345,"Ġpop":2346,"ĠCan":2347,"Ġworld":2348,"mÃ½Å¡le":2349,"Ġdone":2350,"ĠThat":2351,"Ġbrat":2352,"luz":2353,"ĠMÄĽli":2354,"Ġlooks":2355,"Ġhimself":2356,"Å¾eli":2357,"ĠdÄĽlÃ¡":2358,"up":2359,"Ġnebyl":2360,"bb":2361,"ĠudÄĽlal":2362,"Ġbutterf":2363,"ren":2364,"Ġmaking":2365,"Ġdot":2366,"ĠÅ½":2367,"Ġcoming":2368,"ĠrodiÄį":2369,"Ġpond":2370,"ves":2371,"cket":2372,"ĠnovÃ©ho":2373,"ĠÃºsmÄĽv":2374,"Ġkids":2375,"vidÄĽl":2376,"Ġkterou":2377,"Ġwaved":2378,"Ġdoby":2379,"Ġpokoje":2380,"Ġnos":2381,"ĠmÅ¯j":2382,"Ġwhy":2383,"Ġlese":2384,"Ġmagic":2385,"Ġhun":2386,"Ġtired":2387,"Å¡et":2388,"Ġdva":2389,"Ġdostal":2390,"zÃ¡":2391,"ĠMal":2392,"Ġnaho":2393,"Ġdostat":2394,"Ġtop":2395,"ĠChce":2396,"ĠMary":2397,"Ġworry":2398,"mlou":2399,"Ġmouse":2400,"ĠÃºÅ¾as":2401,"Ġcars":2402,"Ġname":2403,"Ġdoraz":2404,"Ġflower":2405,"ÃŃte":2406,"Ġsly":2407,"Ġobchodu":2408,"ĠpodÃŃvala":2409,"andy":2410,"Ġves":2411,"Ġschov":2412,"ĠbabiÄį":2413,"Ġmohli":2414,"Ġcest":2415,"Ġhluk":2416,"ĠByly":2417,"Ġslo":2418,"Ġtouch":2419,"rÃ¡z":2420,"ĠBene":2421,"Ġfunny":2422,"ĠvÅ¡echno":2423,"ĠbÄĽh":2424,"Ġcatch":2425,"Ġused":2426,"ĠÅ¡aty":2427,"Ġhair":2428,"ĠChlapec":2429,"ĠvÃ¡":2430,"Ġzem":2431,"ĠpapÃŃ":2432,"Ġseen":2433,"room":2434,"Ġruku":2435,"Ġstra":2436,"mÃ¡l":2437,"ĠpokraÄį":2438,"Ġcestu":2439,"Ġunav":2440,"ĠobrÃ¡z":2441,"Ġparents":2442,"Ġfru":2443,"Ġcreat":2444,"Ġdv":2445,"Ġzastav":2446,"Ġkon":2447,"Ġanother":2448,"Å¯sob":2449,"Ġtalk":2450,"zz":2451,"ĠvÄĽdÄĽla":2452,"ouf":2453,"ĠZeptal":2454,"ĠdobrÃ½":2455,"Ġhopped":2456,"mÃ¡la":2457,"Ġcried":2458,"Ġhold":2459,"Ġjednoho":2460,"Ġdoing":2461,"Ġfarm":2462,"Ġblocks":2463,"Ġchut":2464,"tev":2465,"Ġspokoj":2466,"Ġthank":2467,"lil":2468,"ĠkrÃ¡snÃ©":2469,"ĠptÃ¡ka":2470,"Ġsurprise":2471,"Ġode":2472,"Ġnemohla":2473,"kes":2474,"Ġklo":2475,"Ġpast":2476,"Ġzjist":2477,"Ã¡val":2478,"Ġzat":2479,"ÄįÃŃt":2480,"anÃ½":2481,"Ġjas":2482,"luzav":2483,"ĠdÅ¯leÅ¾itÃ©":2484,"Ġgreen":2485,"Ġoba":2486,"As":2487,"ovou":2488,"Ġlaugh":2489,"Å¡Å¥":2490,"Ale":2491,"ĠproÄį":2492,"gg":2493,"ĠÅĻekli":2494,"Ġvyp":2495,"Ġzo":2496,"Ġprac":2497,"ĠvÄĽc":2498,"ence":2499,"Ġhop":2500,"ĠhlasitÃ½":2501,"Ġhear":2502,"bÄĽhl":2503,"ÄĽjÃŃ":2504,"teÅĻÃŃ":2505,"Ġread":2506,"Ġspot":2507,"Ġopravdu":2508,"ĠHrÃ¡":2509,"Ġfloor":2510,"Ġdri":2511,"Ġlu":2512,"kÅ¯":2513,"Ġres":2514,"Ġvysoko":2515,"Don":2516,"Ġwood":2517,"ĠtatÃŃn":2518,"ÄįnÃŃ":2519,"ards":2520,"ĠsvÃ½ch":2521,"Ġnes":2522,"Ġskluzav":2523,"Ġtrees":2524,"Ġroky":2525,"Ġrunning":2526,"Ġtla":2527,"Ġworked":2528,"Ġfull":2529,"Ġlesson":2530,"Ġwindow":2531,"Ġnovou":2532,"ĠMuÅ¾":2533,"Ġyears":2534,"Ġlight":2535,"Ġposlouch":2536,"klid":2537,"letÄĽl":2538,"oke":2539,"Ġhole":2540,"ĠvÃŃc":2541,"Ġdark":2542,"Ġbehind":2543,"Ġlikes":2544,"Ġwished":2545,"Pro":2546,"Ġzkus":2547,"Ġpaper":2548,"nice":2549,"lik":2550,"ring":2551,"Ġyellow":2552,"Ġswing":2553,"tÃŃm":2554,"Ġvody":2555,"Ġbag":2556,"ĠblÃŃÅ¾":2557,"Ġswim":2558,"Ġhappily":2559,"stoup":2560,"Ġsat":2561,"ĠdÃŃ":2562,"ĠautÃŃ":2563,"ĠuvÄĽdom":2564,"rew":2565,"ĠIn":2566,"ving":2567,"tem":2568,"Ġmatce":2569,"lech":2570,"ĠObj":2571,"Ġsleep":2572,"ĠPom":2573,"ĠteÄı":2574,"Ġanyt":2575,"Jack":2576,"Ġsurprised":2577,"ĠnÄĽmu":2578,"ĠhoupaÄį":2579,"ĠJak":2580,"eter":2581,"uj":2582,"Ġbutterfly":2583,"Ġsebou":2584,"Ġfrog":2585,"ĠmotÃ½":2586,"jde":2587,"Ġwear":2588,"Äįky":2589,"Ġcarefully":2590,"ĠÅ¾lut":2591,"Ġslow":2592,"MÅ¯Å¾e":2593,"Ġremembered":2594,"Ġlost":2595,"ĠpyÅ¡nÃ¡":2596,"ĠpÅĻedtÃŃm":2597,"Ġcold":2598,"Ġheld":2599,"Ġplakat":2600,"Ã©m":2601,"mlouv":2602,"koÄįil":2603,"ĠkvÄĽtiny":2604,"ÃŃtel":2605,"ĠpÅĻÃ¡tele":2606,"Hello":2607,"Ġice":2608,"ÅĻila":2609,"Ġvr":2610,"rdÄĽ":2611,"ĠpodÃŃval":2612,"ĠVidÄĽli":2613,"ĠpodÃŃvat":2614,"ĠuslyÅ¡el":2615,"ced":2616,"loup":2617,"ĠnaÅ¡li":2618,"Ġchy":2619,"stav":2620,"dÄĽli":2621,"Ġneeded":2622,"ĠÅ¡Å¥astnÄĽ":2623,"eÄı":2624,"Ġute":2625,"ĠhodnÄĽ":2626,"Ġmohou":2627,"ĠvÃ¡s":2628,"Ġoc":2629,"Ġbuy":2630,"ĠVe":2631,"Ġpozor":2632,"Äįkat":2633,"bor":2634,"Ġmoje":2635,"Ġnoh":2636,"Ġtan":2637,"Ġnebe":2638,"Ġkost":2639,"ÃŃnek":2640,"Ġleft":2641,"ĠtÃ¡ta":2642,"Å¡ka":2643,"ĠpÅĻekvapenÃŃ":2644,"ÅĻÃŃm":2645,"reed":2646,"Ġpokoji":2647,"lar":2648,"Ġnahoru":2649,"Ġner":2650,"Ġlahod":2651,"Ġanything":2652,"Ġenjoyed":2653,"chut":2654,"Ġwrong":2655,"Ġdream":2656,"Ġklobou":2657,"vÃ©":2658,"ĠmuÅ¾e":2659,"Å¯v":2660,"kuji":2661,"Ġmaminku":2662,"Ã¡men":2663,"Ġarri":2664,"Ġzt":2665,"Ġmin":2666,"ĠpÅĻÃŃtel":2667,"Ġfair":2668,"ines":2669,"inally":2670,"Ġair":2671,"ax":2672,"Ġfollowed":2673,"ross":2674,"Ġmalou":2675,"Ġbooks":2676,"Ġzase":2677,"Ġvis":2678,"Ġmove":2679,"Ġvzala":2680,"ĠdÃ¡":2681,"men":2682,"ĠzpÅ¯sob":2683,"licious":2684,"Ġchildren":2685,"Ġpodla":2686,"Ġmatky":2687,"kaz":2688,"hlÃ©dl":2689,"Ġdelicious":2690,"skak":2691,"ĠvykÅĻi":2692,"Ġauta":2693,"ĠVidÄĽla":2694,"Ġsouhlas":2695,"Ġfinished":2696,"Ġfriendly":2697,"Ġdir":2698,"Ġkres":2699,"Ġsnow":2700,"Ġherself":2701,"ĠodpovÄĽdÄĽla":2702,"lf":2703,"ĠMÃ¡":2704,"ĠloÄı":2705,"ĠzÃ¡v":2706,"!âĢĿ":2707,"lev":2708,"lat":2709,"Ġano":2710,"vnÄĽ":2711,"ĠlÃ©t":2712,"Ġpoh":2713,"ĠhvÄĽ":2714,"ĠAfter":2715,"ĠrÅ¯Å¾":2716,"Ġhill":2717,"bÄĽhla":2718,"ĠFluffy":2719,"Ġzak":2720,"ĠEmma":2721,"ral":2722,"Ġunderstand":2723,"dÄĽji":2724,"Ġclose":2725,"Ġplease":2726,"ung":2727,"ĠpÅĻes":2728,"ĠDÃŃvka":2729,"ney":2730,"Ġbych":2731,"adlo":2732,"ĠkÃ¡men":2733,"Ġbug":2734,"ĠvdÄĽ":2735,"ken":2736,"nil":2737,"Ġdrak":2738,"Ġhid":2739,"Ġfas":2740,"ĠprosÃŃm":2741,"Ġarm":2742,"ĠholÄįiÄį":2743,"Ġarrived":2744,"Ġcast":2745,"Ġani":2746,"ĠhezkÃ©":2747,"Ġelse":2748,"Ġwonderful":2749,"len":2750,"Ġbaby":2751,"Ġgent":2752,"ĠNecht":2753,"Ġmight":2754,"ĠjÃ¡":2755,"Ġvzru":2756,"ĠJimmy":2757,"Ch":2758,"Ġforgot":2759,"Ġtable":2760,"ation":2761,"boj":2762,"Ġprozkoum":2763,"ĠpomÃ¡h":2764,"ner":2765,"Ġjem":2766,"Ġsig":2767,"ĠkteÅĻÃŃ":2768,"Ġvzp":2769,"ĠMÅ¯Å¾eme":2770,"Ġmost":2771,"ĠprÃ¡ci":2772,"ĠVypad":2773,"Ġcolors":2774,"ĠvydÄĽÅ¡enÃ¡":2775,"Å¾i":2776,"Max":2777,"ĠsnÃŃ":2778,"Ġbuild":2779,"Ġhloup":2780,"ĠPot":2781,"ĠsnaÅ¾il":2782,"Ġbroken":2783,"ĠPes":2784,"eld":2785,"ata":2786,"Ġtight":2787,"rÃ¡vÄĽ":2788,"Ġable":2789,"thing":2790,"Å¾et":2791,"ĠTome":2792,"Ġgone":2793,"ĠnÃ¡m":2794,"ĠnovÃ½":2795,"ĠNow":2796,"weet":2797,"ĠpÅ¯j":2798,"Ġpomohl":2799,"ĠmalÃ©ho":2800,"ĠudÄĽlala":2801,"Ġohrom":2802,".âĢĿ":2803,"Ġbou":2804,"zing":2805,"Ġscho":2806,"Ġsong":2807,"Then":2808,"ĠvrÃ¡til":2809,"Ġcontinu":2810,"irrel":2811,"Ġfilled":2812,"ĠdÃŃtÄĽ":2813,"Ġtomu":2814,"Ġhrad":2815,"Ġstej":2816,"orov":2817,"ĠukÃ¡zala":2818,"Ġdort":2819,"Ġagreed":2820,"Ġbreak":2821,"Ġoran":2822,"ĠdomÄĽ":2823,"Ġfur":2824,"Ġsomeone":2825,"Ã©mu":2826,"ĠnÃ¡dher":2827,"ĠBena":2828,"Ġbudou":2829,"stala":2830,"ĠbÄĽÅ¾el":2831,"Ġmet":2832,"Ġpomoct":2833,"Ġcontinued":2834,"cÃŃt":2835,"Ġdiv":2836,"Ġkrabice":2837,"asure":2838,"rala":2839,"Ġri":2840,"ĠSammy":2841,"ĠzÅ¯stat":2842,"'ll":2843,"aves":2844,"omnÄĽla":2845,"Ġtall":2846,"ĠÅĻ":2847,"ĠrÅ¯z":2848,"ĠToma":2849,"Ġfla":2850,"Ġmatkou":2851,"Ġwants":2852,"ĠvÅ¡imla":2853,"Ġnich":2854,"ĠmÅ¯Å¾eÅ¡":2855,"ĠotevÅĻ":2856,"Ġsquirrel":2857,"ĠChtÄĽli":2858,"ĠsvÃ©mu":2859,"Ġdostala":2860,"Ġbor":2861,"Ġleaves":2862,"Ġpink":2863,"Ġyes":2864,"itten":2865,"MÅ¯Å¾u":2866,"ĠsmÃ¡li":2867,"man":2868,"ĠpÅĻemÃ½Å¡le":2869,"Ġply":2870,"Ġtrou":2871,"Ġona":2872,"Ġgu":2873,"Ġenough":2874,"ĠThere":2875,"rek":2876,"ĠsilnÃ½":2877,"ĠEl":2878,"ace":2879,"From":2880,"ĠpÄĽk":2881,"Ġlion":2882,"chrÃ¡":2883,"Ġplan":2884,"vÄĽdÄĽl":2885,"ret":2886,"ĠÅĻe":2887,"Ġsuch":2888,"ĠnepoÅĻÃ¡d":2889,"loÅ¾ila":2890,"Ġost":2891,"knout":2892,"Ġmorning":2893,"louz":2894,"Ġsled":2895,"dr":2896,"Ġtebe":2897,"ĠzaÄįali":2898,"lÃ¡d":2899,"Ġvisit":2900,"Ġfinally":2901,"Ġgetting":2902,"Ġnimi":2903,"Ġspad":2904,"Ġrodina":2905,"ĠÄįist":2906,"Ġtaky":2907,"Ġkach":2908,"ĠdobrÃ©":2909,"ĠmÃ¡mu":2910,"ĠtÅĻ":2911,"Ġstayed":2912,"Ġcookies":2913,"Ġkamen":2914,"Oh":2915,"Ġvzal":2916,"Neboj":2917,"tek":2918,"ĠmÄĽk":2919,"ĠnÄĽkdy":2920,"Ġnas":2921,"Ġpostav":2922,"vat":2923,"Ġkap":2924,"ĠdÅ¾":2925,"ĠbÄĽÅ¾ela":2926,"Ġvystra":2927,"Ġsku":2928,"ĠpyÅ¡nÃ½":2929,"Ġpokus":2930,"ose":2931,"ĠKrÃ¡":2932,"Ġpoin":2933,"Ġhran":2934,"Ã¡vÃ¡":2935,"Ġbeach":2936,"Ġzran":2937,"ĠsmutnÃŃ":2938,"nici":2939,"Ġfew":2940,"ĠvÃŃce":2941,"ĠNau":2942,"Ġscary":2943,"ĠMaybe":2944,"fect":2945,"Ġsometimes":2946,"zÃŃ":2947,"ĠCÃŃtila":2948,"ĠmedvÃŃd":2949,"rate":2950,"Ġfight":2951,"Ġpen":2952,"Ġdinner":2953,"Ġturned":2954,"Ġhungry":2955,"Ġfall":2956,"Ġkla":2957,"Ġwet":2958,"Ġpomohla":2959,"ĠpÅĻedstÃŃ":2960,"inÄĽ":2961,"ĠsobÄĽ":2962,"Ġrozt":2963,"rzl":2964,"ĠZved":2965,"Ġknihu":2966,"ĠÅ¾Ã¡":2967,"Ġmiss":2968,"ries":2969,"Ġword":2970,"Ġmother":2971,"wer":2972,"Ġgrandma":2973,"ĠTweet":2974,"ĠpÅĻipraven":2975,"ĠWhat":2976,"Ġabych":2977,"ĠPou":2978,"Ġwhe":2979,"icy":2980,"ĠTed":2981,"ĠtakÅ¾e":2982,"Ġamazing":2983,"tle":2984,"ĠzÃ¡bavnÃ©":2985,"Ġtrying":2986,"Ġcream":2987,"His":2988,"Ġdaddy":2989,"Ġperfect":2990,"Ã¡vala":2991,"ekt":2992,"Ġmakes":2993,"ÄĮ":2994,"nosti":2995,"ĠRy":2996,"Ġcomp":2997,"ĠrodiÄįe":2998,"Ġlek":2999,"Ġothers":3000,"ĠpodÄĽkoval":3001,"Ġcastle":3002,"Ġbel":3003,"Ġclimbed":3004,"Ġslune":3005,"At":3006,"Ġperf":3007,"Ġdale":3008,"ps":3009,"ĠThis":3010,"This":3011,"ĠzvlÃ¡Å¡tnÃŃho":3012,"Ġpictures":3013,"Ġvlast":3014,"hli":3015,"ĠpÅĻÃŃtele":3016,"ĠobÄĽ":3017,"ĠrybnÃŃ":3018,"jeme":3019,"pl":3020,"ĠtrÃ¡v":3021,"zu":3022,"ĠDouf":3023,"ĠÃºsmÄĽvem":3024,"ĠmajÃŃ":3025,"ĠvrÃ¡tit":3026,"ĠpÅĻikÃ½vla":3027,"Ġmoment":3028,"nÃŃm":3029,"Ġduck":3030,"Ġwhite":3031,"Ġlistened":3032,"ĠvÅ¡iml":3033,"ĠdÅ¯m":3034,"ĠÅ¾iv":3035,"Ġsmiles":3036,"ĠveÄįe":3037,"ĠpÅĻÃ¡telÅ¯m":3038,"Ġfot":3039,"Ġballo":3040,"ĠMed":3041,"ĠnemÅ¯Å¾e":3042,"Lila":3043,"Ġwall":3044,"ĠMoÅ¾nÃ¡":3045,"ĠodpovÄĽdÄĽl":3046,"skÃ½":3047,"Ġtent":3048,"zpe":3049,"ĠsnÄĽd":3050,"Ġnebyla":3051,"ĠBav":3052,"thes":3053,"Ġnako":3054,"Ġalone":3055,"Ġclothes":3056,"hlÃ©dla":3057,"Ġpozorov":3058,"zÃ¡jem":3059,"Ġuk":3060,"Ġkr":3061,"vidÄĽla":3062,"ĠvrÃ¡tila":3063,"ĠMyslÃŃ":3064,"ĠjÃŃst":3065,"ctor":3066,"omnÄĽl":3067,"Ġzmrzl":3068,"Ġmar":3069,"Ġpanenku":3070,"Ġtail":3071,"Å¡eli":3072,"Ġvodu":3073,"Ġnakonec":3074,"ĠJsem":3075,"ĠÅ¡patnÄĽ":3076,"kovi":3077,"Ġpuppy":3078,"ames":3079,"Ġjoy":3080,"buje":3081,"ĠkrÃ¡snÃ½":3082,"ĠnÄĽkolik":3083,"di":3084,"Ġuklid":3085,"Ġwasn":3086,"ĠdÄĽje":3087,"Ġbrought":3088,"Ġdeep":3089,"ĠplyÅ¡":3090,"ĠdoÄįkat":3091,"Ġeverything":3092,"ĠopatrnÃ½":3093,"ĠMalÃ½":3094,"chle":3095,"Ġtast":3096,"elc":3097,"ĠMi":3098,"ĠnÃ¡klaÄıÃ¡k":3099,"luvit":3100,"Ġpet":3101,"ĠMajÃŃ":3102,"ĠnepoÅĻÃ¡dek":3103,"Ġstrange":3104,"Ġnest":3105,"Ġsear":3106,"ĠCo":3107,"Ã¡n":3108,"ĠPe":3109,"ĠÅ¾il":3110,"ĠPÅĻe":3111,"Ġzvuky":3112,"ĠNemoh":3113,"Ġuni":3114,"ĠEmily":3115,"ĠÅĺÃŃkajÃŃ":3116,"ient":3117,"lez":3118,"Ġspark":3119,"ovÃ©ho":3120,"ray":3121,"ĠCÃŃtil":3122,"ĠOtev":3123,"Ġtreat":3124,"Ġjedno":3125,"Ġkli":3126,"Ġgrow":3127,"Ġwoods":3128,"ĠukÃ¡zal":3129,"ĠlÃ¡":3130,"ĠkoÄįka":3131,"Ġchlapce":3132,"Ġtvrd":3133,"Ġpulled":3134,"Ġnebezpe":3135,"ĠsuÅ¡enky":3136,"Ġjab":3137,"ĠnavzÃ¡jem":3138,"Ġca":3139,"ĠSpo":3140,"ĠvÃŃt":3141,"nila":3142,"Jsi":3143,"Ġwon":3144,"Kdy":3145,"bot":3146,"Ġodpo":3147,"ĠTakÅ¾e":3148,"Ġstu":3149,"Ġride":3150,"Ġhlavou":3151,"Ġvl":3152,"ĠvypadÃ¡":3153,"ater":3154,"ĠmÅ¯Å¾ete":3155,"Ġnepos":3156,"Å¡ku":3157,"Ġasks":3158,"Ġstud":3159,"sky":3160,"ĠtÅĻÃŃ":3161,"cÃŃho":3162,"Ġposkak":3163,"Ġfox":3164,"Ġocas":3165,"ĠpodÄĽkovala":3166,"Ġdanger":3167,"iro":3168,"ĠÄĮ":3169,"ĠbÃŃ":3170,"Ġkouzel":3171,"ĠÅ¡pin":3172,"ĠlepÅ¡ÃŃ":3173,"nost":3174,"Ġvyb":3175,"Mia":3176,"Ġchytit":3177,"ĠJenny":3178,"sto":3179,"Ġprav":3180,"ĠÅĺekli":3181,"per":3182,"ĠVÅ¾dy":3183,"ittens":3184,"ĠkolÃ¡":3185,"Ġsla":3186,"ased":3187,"Ġroll":3188,"Ġleave":3189,"ĠkÅĻÃŃd":3190,"Ġdeli":3191,"aky":3192,"ĠsdÃŃ":3193,"Ġpam":3194,"ĠNik":3195,"Ġbas":3196,"isk":3197,"ĠvydÄĽÅ¡enÃ½":3198,"ĠmilÃ½":3199,"ĠstateÄįnÃ½":3200,"Ġdrag":3201,"Ġcut":3202,"Ġig":3203,"ĠÅ¡pinav":3204,"ĠvelkÃ½m":3205,"ĠkaÅ¾d":3206,"ĠvystraÅ¡en":3207,"ĠmÃŃÄįem":3208,"Ġamazed":3209,"oney":3210,"nÄĽd":3211,"jte":3212,"Ġwaited":3213,"Ġpa":3214,"ĠPoz":3215,"Ġteddy":3216,"Ġzkou":3217,"pping":3218,"ĠpÅĻÃŃbÄĽhu":3219,"Ġplo":3220,"vala":3221,"Ġhide":3222,"Ġrozhodli":3223,"ĠuslyÅ¡ela":3224,"Ġmuse":3225,"ĠVidÄĽl":3226,"Ġtowards":3227,"Ġposte":3228,"ape":3229,"ĠLÃŃ":3230,"Kdysi":3231,"rac":3232,"Äįin":3233,"Ġjabl":3234,"nut":3235,"Ġklobouk":3236,"igg":3237,"ĠPodÄĽk":3238,"ĠprÃ¡ce":3239,"ÄĽkuji":3240,"Ġdes":3241,"ĠvÅ¡ude":3242,"Ġfield":3243,"orm":3244,"Ġland":3245,"ĠvÅ¡e":3246,"vi":3247,"Ġdaleko":3248,"ĠdÃ¡vno":3249,"ĠslÃŃb":3250,"Ġnezap":3251,"Ġom":3252,"Ġshar":3253,"ĠnevÄĽ":3254,"anÃŃ":3255,"eni":3256,"Ġflying":3257,"avy":3258,"Ġkn":3259,"Ġprozkoumat":3260,"rzy":3261,"ĠRe":3262,"ĠvelkÃ©m":3263,"ĠkvÄĽtin":3264,"ĠnauÄįila":3265,"Ġoce":3266,"Ġmaminky":3267,"ĠnechtÄĽl":3268,"sp":3269,"ĠtatÃŃnek":3270,"Ġsilly":3271,"Ġshared":3272,"Ġrace":3273,"Ġowner":3274,"Ġvyh":3275,"Ġruns":3276,"ĠzÃ¡vod":3277,"ĠnauÄįil":3278,"ĠJste":3279,"Ġoble":3280,"OK":3281,"sou":3282,"ĠptÃ¡Äįek":3283,"ĠsnaÅ¾ila":3284,"ĠMedvÄĽd":3285,"ĠDruh":3286,"nat":3287,"Ġqui":3288,"Ġvrcho":3289,"Ġmnou":3290,"ĠchtÄĽli":3291,"ĠkuchynÄĽ":3292,"Ġbran":3293,"der":3294,"Ġliving":3295,"Ġjob":3296,"uji":3297,"Ġpoj":3298,"ĠnÃ¡sled":3299,"Ġskon":3300,"Ġpromised":3301,"Ġvzdu":3302,"mÃŃ":3303,"Ġbelie":3304,"ĠvidÄĽli":3305,"ovÃ¡nÃŃ":3306,"Ġkdo":3307,"Ġmok":3308,"ĠTeÄı":3309,"Ġmoral":3310,"okÃ¡":3311,"Ġside":3312,"Ġju":3313,"ĠmÃŃÄįek":3314,"Ġpohy":3315,"Ġobrov":3316,"Ġlake":3317,"Ġdorazili":3318,"zlob":3319,"Ġbasket":3320,"Ġparty":3321,"ĠotevÅĻela":3322,"ivÃ½":3323,"Ġthinks":3324,"Ġdance":3325,"alt":3326,"ĠstateÄįnÃ¡":3327,"nÃ½m":3328,"Maybe":3329,"Ġdop":3330,"ĠnÄĽm":3331,"ĠopatrnÃŃ":3332,"anou":3333,"MoÅ¾nÃ¡":3334,"Ġplane":3335,"ĠtÄĽÅ¾kÃ©":3336,"Ġvever":3337,"Ġpil":3338,"Ġcloud":3339,"Ġpi":3340,"ĠdÄĽli":3341,"ĠmÅ¯Å¾u":3342,"Ġkab":3343,"ĠKÅĻiÄį":3344,"ĠskvÄĽlÃ½":3345,"ually":3346,"cle":3347,"rem":3348,"Ġmnohem":3349,"Ġquiet":3350,"ĠhraÄįek":3351,"ĠpevnÄĽ":3352,"ises":3353,"Äįata":3354,"Ġmust":3355,"Okay":3356,"Ġlesa":3357,"Ġmotor":3358,"ĠbalÃ³":3359,"zer":3360,"Ġmoney":3361,"ĠzaÄįalo":3362,"Ġworried":3363,"Ġstart":3364,"ĠÅ¡iro":3365,"key":3366,"ĠukÃ¡zat":3367,"ĠproblÃ©":3368,"Ġdi":3369,"rateful":3370,"Ġans":3371,"ĠblÃŃz":3372,"pal":3373,"Ġpopad":3374,"Ġexpla":3375,"Ġrozzlob":3376,"ĠKo":3377,"Ġslowly":3378,"ĠÄįe":3379,"Ġcolorful":3380,"ĠPouÄįenÃŃ":3381,"Ġwelc":3382,"Ġfaster":3383,"Ġseem":3384,"nie":3385,"Ġgrateful":3386,"ĠBrzy":3387,"Ġpieces":3388,"ĠdÄĽs":3389,"Ġmix":3390,"ÅĻilo":3391,"tu":3392,"ÅĻÃŃv":3393,"Ġmilovala":3394,"Ġvytvo":3395,"ĠUdÄĽla":3396,"ĠJake":3397,"ĠmyÅ¡":3398,"ĠopÄĽt":3399,"ĠvlastnÃŃ":3400,"Ġbroke":3401,"rajÃŃ":3402,"ee":3403,"lÃŃk":3404,"Ġpokla":3405,"Ġtohoto":3406,"niÄį":3407,"deme":3408,"ĠprochÃ¡ze":3409,"ĠMittens":3410,"Ġsko":3411,"Ġrozbit":3412,"ĠvÅ¡em":3413,"Ġzb":3414,"Ġgif":3415,"vnÃŃ":3416,"ĠjinÃ©ho":3417,"Ġstr":3418,"Ġbigger":3419,"Ã¡Å¡":3420,"ĠÅ¾ila":3421,"ĠlegraÄį":3422,"mÃ¡li":3423,"Ġrost":3424,"Ġsnack":3425,"MÅ¯Å¾eme":3426,"Ġtrain":3427,"loÅ¾il":3428,"ĠMr":3429,"ĠsÃ¡m":3430,"Ġblan":3431,"Ġreach":3432,"Ġbub":3433,"Ġhon":3434,"ling":3435,"Ġkiss":3436,"Ġmonster":3437,"ĠlidÃ©":3438,"ĠDruhÃ½":3439,"ĠMÅ¯Å¾ete":3440,"ub":3441,"Ġspla":3442,"Ġjoin":3443,"ĠÅ¡tÄĽnÄĽ":3444,"ĠveÄįeÅĻi":3445,"Ġriver":3446,"aj":3447,"ĠkrÃ¡lÃŃÄįek":3448,"vÄĽÅĻit":3449,"ĠUvnitÅĻ":3450,"Ġotce":3451,"less":3452,"Ġcandy":3453,"Ġtady":3454,"ĠtrÃ¡vÄĽ":3455,"ĠpapÃŃr":3456,"Ġnechat":3457,"Ġmaj":3458,"Ġblanket":3459,"Ġblack":3460,"Ġscream":3461,"Ã¡hl":3462,"ĠtvÃ¡ÅĻi":3463,"Ġmagical":3464,"Ġtreasure":3465,"used":3466,"ĠAll":3467,"Ġprincess":3468,"Ġpokud":3469,"Ġcall":3470,"isa":3471,"ĠpouÅ¾ÃŃv":3472,"Ġwin":3473,"Ġbike":3474,"Ġdangerous":3475,"ĠvÃ½Å¡":3476,"ĠNÄĽk":3477,"Ġmusic":3478,"ĠtvrdÄĽ":3479,"JÃ¡":3480,"Ġdragon":3481,"lice":3482,"Ġsign":3483,"Ġacross":3484,"Ġhr":3485,"Sure":3486,"ĠDaddy":3487,"rve":3488,"Ġeverywhere":3489,"Ġmaminkou":3490,"ĠdÃŃvala":3491,"Ġhelping":3492,"iling":3493,"Ġsister":3494,"Ġlekci":3495,"Ġpt":3496,"Ġps":3497,"outh":3498,"ĠVÄĽdÄĽl":3499,"Ġfarmer":3500,"Ġkno":3501,"ler":3502,"ĠmÃ¡mÄĽ":3503,"ĠlegraÄįnÃŃ":3504,"Ġmouth":3505,"Ġbratr":3506,"Ġsmart":3507,"Ġkoupit":3508,"ĠpÅĻines":3509,"Ġsmel":3510,"set":3511,"Why":3512,"ProÄį":3513,"Ġap":3514,"Ġzla":3515,"Ġmas":3516,"xi":3517,"ĠkamarÃ¡dka":3518,"Ġdisapp":3519,"ĠBud":3520,"ĠHled":3521,"Ġhappen":3522,"Ġdvoj":3523,"tes":3524,"ĠkamarÃ¡da":3525,"Ġved":3526,"Ġwords":3527,"Ġpaint":3528,"Ġmis":3529,"ĠstarÃ½":3530,"inou":3531,"Jsem":3532,"Ġzoo":3533,"Tommy":3534,"unch":3535,"ĠhÅ¯l":3536,"Hi":3537,"ĠOn":3538,"omil":3539,"ĠVÄĽdÄĽla":3540,"pÄĽli":3541,"lili":3542,"Ġgi":3543,"ĠzvÄĽdavÃ¡":3544,"Ġstepped":3545,"Ã¡ch":3546,"Ġthrew":3547,"Ġheavy":3548,"ĠSÃ¡ra":3549,"Ġtower":3550,"Ġdolls":3551,"Ġknihy":3552,"ĠMoh":3553,"Ġpass":3554,"Ġbowl":3555,"ĠuÅ¾ÃŃv":3556,"Ġbite":3557,"ĠvydÄĽs":3558,"Ġsame":3559,"ĠTomovi":3560,"Ġdirty":3561,"Ġnet":3562,"ĠvytÃ¡":3563,"Ġzkusit":3564,"ĠBe":3565,"Ġtwins":3566,"ĠzvÄĽdavÃ½":3567,"Ġcrying":3568,"ynÃŃ":3569,"Ġztrat":3570,"Ġpuzz":3571,"Ġprst":3572,"ĠpÅĻikÃ½vl":3573,"Ġja":3574,"Ġstromy":3575,"ĠÅ¾Ã¡dnÃ©":3576,"Ġbee":3577,"Ġdoctor":3578,"Ġgiv":3579,"Å¡it":3580,"ĠsbÃŃ":3581,"Ġacc":3582,"ĠzÃŃ":3583,"Ġbelieve":3584,"Ġut":3585,"Ġsem":3586,"ĠcÃŃtit":3587,"ĠÅ¡ko":3588,"ÅĻej":3589,"Ġpomalu":3590,"Ġnat":3591,"Ġwouldn":3592,"ĠvodÄĽ":3593,"ĠhraÄįka":3594,"fort":3595,"rali":3596,"ash":3597,"iÅĪ":3598,"Ġjezd":3599,"Ġbath":3600,"ĠPojÄıme":3601,"ÅĻed":3602,"Ġhig":3603,"ĠnechtÄĽla":3604,"Ġclosed":3605,"Ġcarro":3606,"Ã¡dy":3607,"Ġchlad":3608,"ĠTeddy":3609,"ĠDr":3610,"bal":3611,"Ġwag":3612,"Ġbyste":3613,"ĠpodÄĽlit":3614,"rown":3615,"ĠNikdy":3616,"Ġhledal":3617,"Å¡ÃŃm":3618,"Äįej":3619,"ĠdvÄĽ":3620,"amp":3621,"Ġstuck":3622,"Ġpou":3623,"Ġcour":3624,"Ġballoon":3625,"Ġnikdo":3626,"Ġfruit":3627,"ĠdÃŃval":3628,"Ġnak":3629,"Ġnaj":3630,"Ġznam":3631,"ĠhvÄĽzd":3632,"ĠpojÄı":3633,"Ġmyslel":3634,"ĠmusÃŃte":3635,"Ġteac":3636,"ĠstromÄĽ":3637,"cy":3638,"ĠhranÃŃ":3639,"ĠodvÃ¡":3640,"ĠlesklÃ©":3641,"Ġschool":3642,"roz":3643,"ÄĽlo":3644,"ĠdÄĽlÃ¡Å¡":3645,"ĠvysvÄĽt":3646,"ĠuÄįit":3647,"Ġhoped":3648,"ĠpouÅ¾ÃŃt":3649,"ĠdvojÄįata":3650,"Ġjel":3651,"ĠdÃ¡rek":3652,"bilo":3653,"Ġbrown":3654,"Ġsuddenly":3655,"Ġtolik":3656,"ĠprochÃ¡zku":3657,"ĠvÃŃtr":3658,"Ġvlasy":3659,"Ġfeels":3660,"Ġneu":3661,"Ġchair":3662,"Ġhit":3663,"rost":3664,"Ġeating":3665,"Ġtown":3666,"Ã¡hla":3667,"Ġhud":3668,"Ġpers":3669,"ĠrÃ¡no":3670,"ĠMyslel":3671,"illa":3672,"Ġdoh":3673,"Ġclapped":3674,"Ġcourse":3675,"Ġcray":3676,"ĠnaÅ¡tvanÃ¡":3677,"Ġdokonce":3678,"Ġudr":3679,"Ġben":3680,"Ġnapl":3681,"?âĢĿ":3682,"ches":3683,"Ġlou":3684,"Ġvzd":3685,"ĠZa":3686,"Ġhrom":3687,"Ġcol":3688,"ĠPoÅ¾Ã¡d":3689,"ĠsmÄĽ":3690,"oli":3691,"ĠblÃŃzko":3692,"ĠBenovi":3693,"ĠÅ¡Å¥astnÃ©":3694,"ĠhÃ¡d":3695,"Ã¡lo":3696,"Ġbychom":3697,"ĠobÃ½":3698,"vol":3699,"Ġple":3700,"rum":3701,"Ġfairy":3702,"araz":3703,"ĠnÄĽkdo":3704,"Ġsrd":3705,"ventually":3706,"ĠFred":3707,"roj":3708,"Ġbutt":3709,"ozÅĻej":3710,"Ġpocit":3711,"Ġgentle":3712,"ima":3713,"Ġcup":3714,"Ġstand":3715,"ĠVÅ¡ech":3716,"Ġboty":3717,"ĠsprÃ¡v":3718,"terÃ©":3719,"ucky":3720,"ĠÄįek":3721,"ĠuÅ¾ili":3722,"Ġjar":3723,"Ġatt":3724,"ĠhÅĻe":3725,"Ġwelcome":3726,"ĠspÃ¡t":3727,"ĠpÃŃsku":3728,"Ġdrove":3729,"ĠpoÅ¾Ã¡dala":3730,"za":3731,"ĠutÃŃ":3732,"ĠSpoleÄįnÄĽ":3733,"Ġpushed":3734,"Ġyoung":3735,"ozÅĻejmÄĽ":3736,"ĠostatnÃŃm":3737,"ĠotevÅĻel":3738,"Ġnebylo":3739,"ĠUkÃ¡z":3740,"Ġdrink":3741,"althy":3742,"ĠSus":3743,"ord":3744,"hone":3745,"Ġchci":3746,"mlouvÃ¡m":3747,"Ġhigher":3748,"Ġswings":3749,"Ġwithout":3750,"ĠUvidÄĽl":3751,"hlÃŃ":3752,"Ġsec":3753,"Ġnerv":3754,"Ġneigh":3755,"ĠpoblÃŃÅ¾":3756,"Ġtoday":3757,"ĠpanÃŃ":3758,"ĠkrÃ¡lÃŃk":3759,"top":3760,"zna":3761,"ĠzlÃ½":3762,"ĠpÃ¡r":3763,"Ġpocket":3764,"Ã¡ku":3765,"Ġspole":3766,"Bob":3767,"vÃŃm":3768,"Ġrobot":3769,"ĠsvÃŃt":3770,"adla":3771,"ĠlÃ©tat":3772,"Ġsoup":3773,"ĠradostÃŃ":3774,"Ġprobud":3775,"ĠHrÃ¡li":3776,"nal":3777,"Ġteacher":3778,"ĠnevÄĽdÄĽl":3779,"ĠpÅĻid":3780,"ĠvÅ¯":3781,"ident":3782,"Ġda":3783,"Ġnoci":3784,"ĠMÅ¯Å¾u":3785,"ĠÄįervenÃ©":3786,"ĠudÄĽlali":3787,"lig":3788,"ĠUsmÃ¡la":3789,"Å¡i":3790,"osti":3791,"ato":3792,"ĠtÃ¡tou":3793,"Ġstone":3794,"Ġosam":3795,"Ġobjal":3796,"Ġgames":3797,"Ġcheered":3798,"ĠpotÅĻeb":3799,"ĠVzala":3800,"Ġpokoj":3801,"Ġdisc":3802,"ĠZav":3803,"Ġwings":3804,"Ġforget":3805,"Ġvzduchu":3806,"Ġyard":3807,"Ġexplained":3808,"Ġlonger":3809,"Ġjour":3810,"ĠcestÄĽ":3811,"Ġfree":3812,"Ġjednu":3813,"ĠptÃ¡ky":3814,"ĠpÅĻedstav":3815,"Äįel":3816,"Ġobjali":3817,"Finally":3818,"ĠvrÃ¡tÃŃ":3819,"ĠMusÃŃte":3820,"Ġorgan":3821,"ĠmusÃŃÅ¡":3822,"Bylo":3823,"Ġchan":3824,"Ġfrust":3825,"ĠublÃŃÅ¾":3826,"Ġvan":3827,"Ġcorn":3828,"Ġsend":3829,"Ġstali":3830,"ĠRychle":3831,"Ġdlouho":3832,"Ġkone":3833,"Ġnose":3834,"Ġdry":3835,"Ġwr":3836,"Ġalong":3837,"Ġmel":3838,"Ġhraje":3839,"oot":3840,"ĠÅłli":3841,"ove":3842,"Ġpoklad":3843,"lub":3844,"Ġlate":3845,"kama":3846,"Ġnoises":3847,"Ġhugs":3848,"vit":3849,"Ġsang":3850,"Ġpiz":3851,"zme":3852,"ĠoblÃ©":3853,"ĠUsmÃŃv":3854,"ĠlÃŃ":3855,"redi":3856,"lupat":3857,"af":3858,"Ġthrow":3859,"ÃŃch":3860,"Ġble":3861,"hant":3862,"uju":3863,"nÃ©m":3864,"ĠkolÃ¡Äį":3865,"ĠhlasitÄĽ":3866,"skÃ¡":3867,"Ġoblohu":3868,"stou":3869,"Ġstre":3870,"ĠklÃŃ":3871,"Ġkolo":3872,"stead":3873,"itel":3874,"cÃŃch":3875,"Ġturns":3876,"lephant":3877,"ĠLisa":3878,"lour":3879,"ĠmÃŃstnosti":3880,"ĠautÃŃÄįko":3881,"Ġstories":3882,"zt":3883,"Ġdobr":3884,"ĠÄįervenÃ½":3885,"Ġshoes":3886,"ĠhrdÃ¡":3887,"Ġlon":3888,"ĠnelÃŃ":3889,"tip":3890,"Ġadventures":3891,"Ġpravdu":3892,"Ġsinging":3893,"Ġpastel":3894,"Ġneck":3895,"Ġtohle":3896,"Ġroztomil":3897,"ĠÅłel":3898,"Ġpurp":3899,"Ġslunci":3900,"ions":3901,"Ġupset":3902,"Ġwell":3903,"ĠkoneÄįnÄĽ":3904,"Ġlunch":3905,"Ġapple":3906,"Ġfence":3907,"Ġstrach":3908,"ĠopatrnÄĽ":3909,"ĠkoÄįku":3910,"Ġskluzavce":3911,"Ġlonely":3912,"Ġperfekt":3913,"ĠnevidÄĽl":3914,"Ġnar":3915,"Ġfit":3916,"vÃ¡z":3917,"ĠsvaÄį":3918,"ĠkamarÃ¡dy":3919,"Do":3920,"Ġzmi":3921,"ravit":3922,"Ġ3":3923,"ĠPopad":3924,"ĠtatÃŃnkem":3925,"pci":3926,"Ġnoc":3927,"Ġsea":3928,"ĠplnÃ¡":3929,"Ġmine":3930,"ĠdruhÃ©ho":3931,"Ġelephant":3932,"Ġdist":3933,"Ġstreet":3934,"ĠJohnny":3935,"Ġcir":3936,"ĠprvnÃŃ":3937,"Ġneposlouch":3938,"Ġheart":3939,"Ġdomov":3940,"ĠskÅĻÃŃ":3941,"Ġtem":3942,"ntain":3943,"Ġwish":3944,"Ġzavrt":3945,"pa":3946,"ĠlÃŃbÃŃ":3947,"romiÅĪ":3948,"Ġbarvy":3949,"Ġokna":3950,"ĠRozhodl":3951,"ĠzÃ¡ÅĻi":3952,"ĠobÃ½va":3953,"board":3954,"Ġmiloval":3955,"ĠZajÃŃ":3956,"bow":3957,"chov":3958,"Ġrukama":3959,"pÄĽ":3960,"ĠÄįÃŃ":3961,"Ġkus":3962,"Ġnemoc":3963,"mÃ¡ÅĻ":3964,"ĠvykÅĻikla":3965,"ĠmuÅ¾i":3966,"Ġshap":3967,"Ã¡tko":3968,"Ġmonkey":3969,"Ġshook":3970,"Ġexploring":3971,"ivÃ©":3972,"dÄĽt":3973,"vely":3974,"Äįer":3975,"Ġmoved":3976,"ughty":3977,"Ġkuchyni":3978,"Ġpamat":3979,"Ġchlupat":3980,"gu":3981,"Ġyear":3982,"skat":3983,"Ġstav":3984,"Ġnaughty":3985,"Ġnearby":3986,"Ġwise":3987,"ĠdrÅ¾ela":3988,"uby":3989,"hnout":3990,"Ġtas":3991,"Ġvol":3992,"ĠChtÄĽjÃŃ":3993,"Ġled":3994,"Ã¡vajÃŃ":3995,"Ġobli":3996,"ĠstejnÄĽ":3997,"Ġpuzzle":3998,"Ġlev":3999,"krÃ¡":4000,"Ġbring":4001,"ĠObjala":4002,"Ġstars":4003,"Ġkonci":4004,"ĠGrandma":4005,"Ġowl":4006,"ward":4007,"fused":4008,"oje":4009,"Ġovo":4010,"vÄĽle":4011,"ĠvrÃ¡tili":4012,"Ġklid":4013,"Ġpik":4014,"Ġhous":4015,"Ġzvedla":4016,"Ġsladko":4017,"ĠpoÄįÃŃt":4018,"Ġvtip":4019,"ÃŃÅĻ":4020,"And":4021,"Ġnast":4022,"pil":4023,"Ġrostl":4024,"Ġpodlaze":4025,"Jim":4026,"ĠobrÃ¡zek":4027,"Ġcaught":4028,"ĠrozlouÄį":4029,"ĠpodÃŃvej":4030,"ĠuvÄĽdomil":4031,"eth":4032,"ĠmilÃ¡":4033,"Ġmoud":4034,"ĠodletÄĽl":4035,"Ġmyslela":4036,"ĠChci":4037,"ĠRozhodli":4038,"yard":4039,"ĠvzruÅ¡en":4040,"ugh":4041,"ĠzranÄĽ":4042,"Ġnud":4043,"Ġseemed":4044,"Ġbackyard":4045,"Ġes":4046,"ity":4047,"ĠbuÄı":4048,"never":4049,"ĠTakÃ©":4050,"ĠPouÅ¾":4051,"ughter":4052,"Ġrelie":4053,"Ġdropped":4054,"ĠhnÄĽd":4055,"Ġrocks":4056,"ĠPr":4057,"ory":4058,"ĠNej":4059,"Ġprin":4060,"adow":4061,"Ġpad":4062,"fon":4063,"Ġtles":4064,"aÅĻe":4065,"Ġbucket":4066,"ĠodvÃ¡Å¾":4067,"ĠhnÃŃ":4068,"ĠRex":4069,"Molly":4070,"Ġzlob":4071,"zi":4072,"Ġlit":4073,"Ġaccident":4074,"Ġswam":4075,"ovÃŃ":4076,"Ġpurple":4077,"Ġodnes":4078,"Ġrychleji":4079,"ese":4080,"Ġvrchol":4081,"ohle":4082,"oha":4083,"ining":4084,"aÅĻilo":4085,"Ġovoce":4086,"Ġtaking":4087,"Nem":4088,"Ġtebou":4089,"ĠUvÄĽdom":4090,"ĠzÅ¯st":4091,"ĠvÄĽtÅ¡ÃŃ":4092,"Ġzoom":4093,"lÃ©v":4094,"ĠÅłla":4095,"pyt":4096,"Ġorange":4097,"ĠpozdÄĽ":4098,"Ġthough":4099,"ĠproblÃ©m":4100,"ĠNenÃŃ":4101,"Ġaf":4102,"ĠmotÃ½la":4103,"ĠPozdÄĽji":4104,"ĠlidÃŃ":4105,"ĠobleÄįenÃŃ":4106,"Ġshapes":4107,"kev":4108,"Ġdotknout":4109,"Ġpole":4110,"ĠlesklÃ½":4111,"Ġzmrzlinu":4112,"ĠzachrÃ¡":4113,"Ġhledat":4114,"Ġzip":4115,"Ġkopce":4116,"itty":4117,"Ġutekl":4118,"ĠkvÄĽtinu":4119,"oused":4120,"Ġmad":4121,"ĠPÅĻed":4122,"Ġshop":4123,"Ġcow":4124,"ĠopatrnÃ¡":4125,"Ġspoustou":4126,"ĠmÃ¡Å¡":4127,"Ġwoke":4128,"ĠThank":4129,"ĠmusÃŃme":4130,"ĠnaÅ¡tvanÃ½":4131,"ĠskvÄĽle":4132,"Ġbench":4133,"ĠDok":4134,"ustil":4135,"ĠpolÃ©v":4136,"umb":4137,"Ġsounds":4138,"Byli":4139,"Ġwondered":4140,"Ġbusy":4141,"ĠpÅĻÃŃbÄĽh":4142,"ement":4143,"ĠusmÃ¡li":4144,"Ġsam":4145,"Ġtiny":4146,"thday":4147,"bali":4148,"mer":4149,"nÃ¡m":4150,"DÄĽkuji":4151,"ĠJed":4152,"jÃŃmajÃŃ":4153,"Ġreal":4154,"ming":4155,"Ġmusel":4156,"Ġhur":4157,"Ġocasem":4158,"icho":4159,"ĠplÃ¡Å¾":4160,"Ġdaughter":4161,"Ġrainbow":4162,"Ġsitting":4163,"ĠprochÃ¡zel":4164,"Ġmark":4165,"ĠhlasitÃ©":4166,"ĠVel":4167,"ĠÅ¾ivot":4168,"Äįela":4169,"ĠcÃŃtili":4170,"ĠmÃ¡mou":4171,"Äįeho":4172,"ros":4173,"Ġvypadal":4174,"Ġkite":4175,"ĠnÄĽÄįeho":4176,"Ġtakes":4177,"vali":4178,"ier":4179,"read":4180,"ĠZaÄįal":4181,"bil":4182,"kÃ¡Å¾e":4183,"Ġjuice":4184,"ĠjasnÄĽ":4185,"ela":4186,"ĠzÃ¡bava":4187,"Ġnothing":4188,"ĠzvÃŃÅĻe":4189,"Ġmn":4190,"Ġholding":4191,"ĠSnaÅ¾il":4192,"Ġkey":4193,"Å¡ti":4194,"Ġnajednou":4195,"cer":4196,"ĠlaviÄį":4197,"Ġcomes":4198,"Ġsama":4199,"cing":4200,"ella":4201,"ĠprostÄĽ":4202,"Ġarms":4203,"Ġnaraz":4204,"nul":4205,"ĠotevÅĻÃŃt":4206,"ĠrozlouÄįenou":4207,"Ġklouz":4208,"ĠnemÄĽl":4209,"Ġpig":4210,"Ġsug":4211,"ĠvÄĽÅ¾":4212,"Ġhry":4213,"PromiÅĪ":4214,"ĠmedvÃŃdka":4215,"Ġcoat":4216,"Ġsy":4217,"ĠnÄĽkolika":4218,"Lucy":4219,"jÃŃcÃŃ":4220,"Ġobej":4221,"Chci":4222,"ĠnauÄįit":4223,"Ġsmell":4224,"Ġmail":4225,"Ġmnoha":4226,"Ġinter":4227,"Ġposlouchat":4228,"ÅĻeli":4229,"ĠPotÃ©":4230,"Ġbl":4231,"ednout":4232,"Ġcute":4233,"ĠInside":4234,"Ġsecret":4235,"Ã¡Ã¡":4236,"ĠnadÅ¡enÃŃ":4237,"Ġbranch":4238,"ĠmodrÃ©":4239,"hal":4240,"Ġpov":4241,"Ġvesel":4242,"raid":4243,"Ġrelieved":4244,"idiÄį":4245,"ĠÄįÃ¡":4246,"Ġpohyb":4247,"Ġkro":4248,"ĠzajÃŃm":4249,"idge":4250,"Ġzahradu":4251,"usu":4252,"Ġafraid":4253,"ball":4254,"ĠtÅĻpyt":4255,"ĠPodÃŃvala":4256,"ĠpomÅ¯Å¾e":4257,"Ã¡vali":4258,"Ġoto":4259,"Ġcele":4260,"Ġzan":4261,"Ġzelen":4262,"ĠVrÃ¡t":4263,"Å¡tÃŃv":4264,"Ġdriver":4265,"Ġzahrady":4266,"ĠStÃ¡":4267,"ĠÅ¡tÄĽstÃŃ":4268,"Ġbow":4269,"ĠpotÅĻebuje":4270,"Ġpostele":4271,"Ġforever":4272,"ĠobrÃ¡zky":4273,"ÄįnÃ©ho":4274,"ĠÅ¾ili":4275,"Ġhlub":4276,"Ġsur":4277,"eli":4278,"aÅĻec":4279,"Ġtelev":4280,"overed":4281,"Ġdos":4282,"Ġcarry":4283,"Ġsail":4284,"ĠpÅĻest":4285,"ĠSusie":4286,"ĠLeo":4287,"Ġgift":4288,"Ġjist":4289,"Ġmlad":4290,"Ġsick":4291,"ĠhrÃ¡ly":4292,"ĠoÄį":4293,"ĠJejich":4294,"Ġcoun":4295,"Ġmist":4296,"Ġzvedl":4297,"SamozÅĻejmÄĽ":4298,"ĠvylÃ©":4299,"ĠBÄĽÅ¾ela":4300,"Ġpeace":4301,"Of":4302,"ĠuvÄĽdomila":4303,"ĠkrÃ¡snÃ¡":4304,"ĠAnno":4305,"Å¡lo":4306,"ozen":4307,"Ã½d":4308,"Ġpromise":4309,"ĠFinally":4310,"ĠhoupaÄįce":4311,"Ġfial":4312,"ĠLilyin":4313,"ĠotÃ¡":4314,"Ġhuge":4315,"Ġmluvit":4316,"Ġnebude":4317,"Ġret":4318,"jme":4319,"ĠvaÅ¡e":4320,"Ġtouched":4321,"Ġsuc":4322,"Ġking":4323,"Ġround":4324,"Ġhello":4325,"Å¡ujÃŃ":4326,"Ġnena":4327,"ĠPodÃŃval":4328,"ĠzahrÃ¡t":4329,"Ã©ct":4330,"staÅĪ":4331,"ĠCome":4332,"Ġbirthday":4333,"ĠKoÄįka":4334,"Ġfing":4335,"Ġnarozen":4336,"ĠkrÃ¡snou":4337,"Ġkameny":4338,"uto":4339,"Ġletter":4340,"Ġzavola":4341,"Ġcheese":4342,"ĠAnn":4343,"Ġimag":4344,"Ġbavit":4345,"Ġgrab":4346,"ĠÅ¾id":4347,"Ġcount":4348,"hlu":4349,"Ġsunny":4350,"Ġinterest":4351,"ĠklÃŃÄį":4352,"Ġexciting":4353,"shine":4354,"ĠlaskavÃ½":4355,"ĠzmÄĽ":4356,"ĠnaÅ¡e":4357,"ĠNeby":4358,"ĠnavÅ¡tÃŃv":4359,"Ġpatient":4360,"ĠMama":4361,"ĠudÄĽl":4362,"ĠnevÄĽdÄĽla":4363,"Ġsaf":4364,"Ġnejd":4365,"Ġband":4366,"Ġonto":4367,"Ġukaz":4368,"ĠkÅĻe":4369,"Ġnejsou":4370,"Ġnut":4371,"ĠplnÃ½":4372,"Ġvodou":4373,"adu":4374,"Ġlaughing":4375,"ĠSly":4376,"Ġappe":4377,"Ġwand":4378,"Ġdays":4379,"avou":4380,"ĠsmutnÄĽ":4381,"ÃŃmco":4382,"Ġoni":4383,"ĠHod":4384,"ĠMyslela":4385,"Ġpol":4386,"Ġmud":4387,"ĠsÃ½":4388,"Ġgigg":4389,"Ġcreature":4390,"ĠMar":4391,"ĠdrÅ¾el":4392,"ĠtrpÄĽli":4393,"ĠtvÅ¯j":4394,"ĠsnÃŃst":4395,"akes":4396,"Ġprod":4397,"Ġskute":4398,"az":4399,"ĠholÄįiÄįku":4400,"Ġspin":4401,"ĠZap":4402,"ĠmlÃ©":4403,"ĠvÃ½j":4404,"ĠMark":4405,"ĠChy":4406,"dle":4407,"Ġbread":4408,"Ġbole":4409,"ĠdÄĽlit":4410,"ĠKitty":4411,"Ġbloky":4412,"Hey":4413,"ÅĻenÃŃ":4414,"Ġkick":4415,"ĠpovÃŃd":4416,"Ġdnes":4417,"Ġbush":4418,"erry":4419,"Ġlife":4420,"cha":4421,"ĠvÃ½jime":4422,"ĠpÅĻipoj":4423,"Å¡ky":4424,"ĠBobby":4425,"ustila":4426,"Ġpack":4427,"Ġkole":4428,"Ġpyt":4429,"Ġjde":4430,"ĠOna":4431,"Ã¡ta":4432,"ĠletÄĽl":4433,"nutÃŃ":4434,"Ġpower":4435,"okrÃ¡t":4436,"ĠRozhodla":4437,"Ġhope":4438,"Ġinc":4439,"Ġshell":4440,"ĠunavenÃ½":4441,"ĠhlÃŃ":4442,"ness":4443,"ĠChceÅ¡":4444,"itch":4445,"Ġcozy":4446,"ĠnÃ¡p":4447,"Ġjourney":4448,"Ġswimming":4449,"Ġujist":4450,"Ġhledala":4451,"ĠBu":4452,"ĠuvÄĽÅĻit":4453,"ĠpojÄıme":4454,"els":4455,"arÃ¡":4456,"ĠstÄĽ":4457,"elo":4458,"su":4459,"ĠÅĻÃŃct":4460,"enÃŃze":4461,"Ġau":4462,"Ġtele":4463,"Ġbottle":4464,"chÃ¡zÃŃ":4465,"Ġsoused":4466,"Ġbavil":4467,"Ġwra":4468,"ÄĽti":4469,"lom":4470,"ĠplyÅ¡ovÃ©ho":4471,"Ġsucce":4472,"ĠVzal":4473,"ĠbÄĽÅ¾eli":4474,"hrd":4475,"Ġinstead":4476,"Ġmilk":4477,"Ġwhist":4478,"ovalo":4479,"Ġslova":4480,"ĠpodÃŃvali":4481,"Ġsharp":4482,"Ġtajem":4483,"Ġwatching":4484,"Ġmap":4485,"asnÄĽ":4486,"Ġbavila":4487,"Ġpodlahu":4488,"Ġear":4489,"Ġreturn":4490,"Ġdali":4491,"Ġvedle":4492,"Ġcen":4493,"ned":4494,"ĠucÃŃt":4495,"ĠprochÃ¡zela":4496,"Ġaccidentally":4497,"ĠublÃŃÅ¾it":4498,"Ġeas":4499,"Ġvyro":4500,"Ġsunshine":4501,"not":4502,"Å¡ek":4503,"ĠSoon":4504,"ĠprozkoumÃ¡":4505,"ĠÃºt":4506,"ĠhezkÃ¡":4507,"Ġcave":4508,"Ġsrdce":4509,"da":4510,"Ġsest":4511,"Å¡tÃ¡":4512,"Ġtun":4513,"ĠNevÄĽ":4514,"ĠchutnÃ©":4515,"koÄįila":4516,"Ġvydal":4517,"ĠzasmÃ¡la":4518,"ĠÃºtul":4519,"koliv":4520,"Ġlucky":4521,"ĠpenÃŃze":4522,"Ġpart":4523,"Ġfou":4524,"ĠpÅĻiprav":4525,"Ġtalked":4526,"Ġputs":4527,"Ġlamp":4528,"Ġperson":4529,"ĠkabÃ¡t":4530,"heÅĪ":4531,"ĠvzruÅ¡ujÃŃ":4532,"Ġpudd":4533,"Ġcolle":4534,"div":4535,"pÃŃv":4536,"Hej":4537,"Ġpointed":4538,"Ġhoney":4539,"ens":4540,"ĠnovÃ½m":4541,"ĠstÅ¯l":4542,"ĠbezpeÄįnÃ©":4543,"hul":4544,"ĠmyslÃŃ":4545,"Ġbreat":4546,"Ġgather":4547,"Ġgives":4548,"cÃŃm":4549,"Ġegg":4550,"koho":4551,"nÃ½mi":4552,"ĠpÅĻiblÃŃÅ¾":4553,"Ġjet":4554,"Ġroad":4555,"Ġneighbor":4556,"Ġfan":4557,"Later":4558,"Ġminu":4559,"Ġcelou":4560,"Ġbought":4561,"seÅĪ":4562,"ĠDan":4563,"Ġkb":4564,"Ġsmiling":4565,"Ġchodila":4566,"sÃŃ":4567,"ĠpÅĻÃŃbÄĽhy":4568,"Ġanyone":4569,"hel":4570,"ĠÅ¡ÃŃ":4571,"Ġsearched":4572,"Äįet":4573,"ĠzlatÃŃ":4574,"ĠskÃ¡kal":4575,"skÃ©":4576,"Ġboh":4577,"Ġlater":4578,"Ã¡vat":4579,"ĠdobrÃ¡":4580,"ĠZaÄįala":4581,"Ġhroz":4582,"Ġdraka":4583,"Ġsandw":4584,"ĠÄįervenou":4585,"Ġneh":4586,"ors":4587,"Ġapples":4588,"ĠdÅĻe":4589,"irt":4590,"ĠstÅĻÃŃ":4591,"iÄįku":4592,"ĠbalÃ³n":4593,"Ġzdrav":4594,"ÅĻili":4595,"Ġjesky":4596,"Ġtest":4597,"ĠsÃŃ":4598,"JasnÄĽ":4599,"Ġproblem":4600,"Ġpolice":4601,"ĠUsmÃ¡l":4602,"Ġact":4603,"Ġmeet":4604,"ĠspeciÃ¡lnÃŃho":4605,"ĠpolÅ¡tÃ¡":4606,"over":4607,"Ġrodinou":4608,"ĠzajÃŃmav":4609,"ĠsendviÄį":4610,"ĠEllie":4611,"sled":4612,"Ġbru":4613,"ĠzemÄĽ":4614,"pect":4615,"mylem":4616,"lace":4617,"Ġbala":4618,"Ġmach":4619,"Ġboj":4620,"ceÅ¡":4621,"kaÅ¾d":4622,"kÃ¡nÃŃ":4623,"kaÅ¾dÃ©":4624,"ĠpÅĻemÃ½Å¡lela":4625,"oman":4626,"ĠÅĻÃŃkala":4627,"hali":4628,"ĠsilnÄĽ":4629,"ĠBlue":4630,"ĠslyÅ¡ela":4631,"ĠnÄĽkterÃ©":4632,"Ġohled":4633,"ĠpÅĻiÅ¡li":4634,"hala":4635,"Ġryby":4636,"Ġloves":4637,"adil":4638,"Be":4639,"Ġwoman":4640,"ĠrÅ¯znÃ½ch":4641,"Good":4642,"ĠzdÅĻÃŃm":4643,"Ġinteresting":4644,"stoupil":4645,"Ġpres":4646,"ĠhnÃŃzd":4647,"uli":4648,"Ġspoon":4649,"ĠDal":4650,"Ġzmat":4651,"Ġhealthy":4652,"nala":4653,"Ġhezky":4654,"Ġum":4655,"lenÃŃ":4656,"rÃ¡l":4657,"Ġpile":4658,"Ġord":4659,"Ġopravit":4660,"Vy":4661,"Ġtasty":4662,"ĠSed":4663,"ĠWh":4664,"Ġrozpla":4665,"Ġhlavu":4666,"Ġprote":4667,"Ġvilla":4668,"Ġwide":4669,"ĠMÅ¯Å¾eÅ¡":4670,"Ġducks":4671,"Ġmusela":4672,"Ġkle":4673,"ĠVÅ¾dycky":4674,"Ġvyzkou":4675,"ĠtÅĻe":4676,"Ã¡ÅĻ":4677,"ĠcÃŃtÃŃ":4678,"Ġclever":4679,"ĠkoÅ¡ÃŃ":4680,"ĠpokraÄįoval":4681,"Ġspid":4682,"Ġfront":4683,"ĠÃºÅ¾asnÃ©":4684,"ĠpozdÄĽji":4685,"Ġstorm":4686,"Ġeag":4687,"Ġlidi":4688,"Ġposlech":4689,"Ġmatter":4690,"ĠKrÃ¡lÃŃk":4691,"Ġkor":4692,"ĠchytrÃ½":4693,"Ġcrayons":4694,"romady":4695,"ĠnebezpeÄįnÃ©":4696,"randpa":4697,"Ġvypadala":4698,"Ġdohromady":4699,"mys":4700,"ĠÅ¡patnÃ©":4701,"Ġklu":4702,"ĠWith":4703,"Ġclouds":4704,"ĠpÅĻekvapenÃ¡":4705,"Ġpath":4706,"ĠznamenÃ¡":4707,"ĠBavili":4708,"lÃ©t":4709,"ĠsvÄĽtÄĽ":4710,"Ġrope":4711,"ĠsvÃ¡":4712,"Ġuklidit":4713,"ndy":4714,"ĠnavÅ¾dy":4715,"Ġchlapci":4716,"fortable":4717,"ĠNynÃŃ":4718,"zdy":4719,"ungle":4720,"ĠpodaÅĻilo":4721,"Ġshining":4722,"lezl":4723,"Ġfeather":4724,"Ġlad":4725,"ĠpomÃ¡":4726,"plnÄĽ":4727,"Ġsmelled":4728,"ĠptÃ¡ci":4729,"amed":4730,"Ġdoko":4731,"ĠPla":4732,"Ġomylem":4733,"ĠNaÅ¡el":4734,"Ġochut":4735,"Ġcolour":4736,"Ġtati":4737,"ĠPete":4738,"aÄįÃŃ":4739,"ĠnÅ¯Å¾":4740,"ĠDÄĽla":4741,"ĠjmÃ©no":4742,"raÅ¥":4743,"ĠdÃŃvali":4744,"omÃŃn":4745,"sek":4746,"lovÄĽ":4747,"Ġbutton":4748,"ĠperfektnÃŃ":4749,"ĠpÅĻÃ¡telskÃ½":4750,"Å¡il":4751,"Ġpract":4752,"Ġspotted":4753,"ĠlesklÃ¡":4754,"ĠbÄĽhal":4755,"Ġzastavil":4756,"rank":4757,"rge":4758,"Ġscreamed":4759,"ĠrybnÃŃka":4760,"ĠCÃŃtÃŃ":4761,"ĠhÅĻi":4762,"Ġosla":4763,"ivnÃŃ":4764,"rated":4765,"ĠpoÅ¾Ã¡dal":4766,"inky":4767,"nic":4768,"ĠAlice":4769,"Come":4770,"ance":4771,"Ġtelefon":4772,"bÃ½":4773,"mÄĽje":4774,"ĠopatrnÄĽjÅ¡ÃŃ":4775,"Ġdanced":4776,"ĠAnnu":4777,"Ġseat":4778,"Ġpodiv":4779,"ĠvdÄĽÄįnÃ½":4780,"ĠÅĻÃŃkajÃŃ":4781,"ĠstarÃ¡":4782,"ovo":4783,"oph":4784,"Ġpolici":4785,"ĠbÄĽÅ¾ÃŃ":4786,"ĠtvÃ¡ÅĻ":4787,"ĠpomÃ¡hat":4788,"ĠMÃ¡m":4789,"Ġjablko":4790,"ĠkbelÃŃ":4791,"Ã½l":4792,"enny":4793,"Ġcalm":4794,"ĠostatnÃŃmi":4795,"ĠvykÅĻikl":4796,"ĠJmen":4797,"ĠTweety":4798,"ĠzlatÃŃÄįko":4799,"ĠPeter":4800,"lass":4801,"Ġdostali":4802,"Ġquest":4803,"Ġtrouble":4804,"Ġulici":4805,"Ġappeared":4806,"lunce":4807,"ĠMaxe":4808,"ĠmalÃ©m":4809,"kÃ½m":4810,"Ġkapsy":4811,"Ġhudbu":4812,"bec":4813,"Ġwhich":4814,"Ġcheer":4815,"ĠRose":4816,"ĠBÄĽÅ¾eli":4817,"shed":4818,"ĠTen":4819,"ĠdÄĽk":4820,"Just":4821,"Ġteach":4822,"py":4823,"ĠvylÃ©zt":4824,"br":4825,"Ġsnowman":4826,"Ã¡p":4827,"ÄĽly":4828,"ĠÅĻekne":4829,"ĠobliÄįej":4830,"Ã¡ka":4831,"ĠDala":4832,"Ġpostel":4833,"kod":4834,"eor":4835,"Ġmajitel":4836,"Ġsnake":4837,"ĠhÃ¡":4838,"ĠOp":4839,"ĠVykÅĻi":4840,"gest":4841,"ĠmÄĽstÄĽ":4842,"ĠoblÃŃbenou":4843,"ĠlÅ¾ÃŃ":4844,"Ġasleep":4845,"ĠSama":4846,"Ġsne":4847,"Ġlidem":4848,"ĠspokojenÃ½":4849,"ĠsnÄĽhul":4850,"ĠjÃŃdlu":4851,"ĠsdÃŃlet":4852,"ĠuslyÅ¡eli":4853,"epend":4854,"Ġlovely":4855,"bbles":4856,"ĠDÃŃtÄĽ":4857,"ĠvysokÃ½":4858,"ert":4859,"Ġanswer":4860,"MÃ¡ma":4861,"ĠzasmÃ¡l":4862,"Ġvoz":4863,"Ġkousek":4864,"Ġwearing":4865,"ysleli":4866,"Ġwild":4867,"ĠPat":4868,"ĠpenÄĽ":4869,"Ġgently":4870,"ĠDokon":4871,"Ġpour":4872,"kÃ©ho":4873,"Mum":4874,"ĠSu":4875,"anÃ©":4876,"Ġsouhlasil":4877,"Ġgiant":4878,"Ġbark":4879,"Ġplaces":4880,"ĠhrdÃŃ":4881,"Ġrozru":4882,"Ġspat":4883,"aking":4884,"Ġhorse":4885,"ĠPok":4886,"Ġgoes":4887,"Ġwhole":4888,"rÃ¡zd":4889,"peÄįek":4890,"Ġsestra":4891,"ĠchtÄĽjÃŃ":4892,"ĠoblÃŃbenÃ©":4893,"Ġstromem":4894,"ĠDÃŃky":4895,"ĠNo":4896,"Ġryba":4897,"Ġdokola":4898,"ometimes":4899,"ated":4900,"een":4901,"ĠMilovala":4902,"ĠBÄĽÅ¾el":4903,"ĠnejdÅĻÃŃv":4904,"Ġsearch":4905,"ĠNechtÄĽl":4906,"ĠKaÅ¾d":4907,"ĠprÅ¡et":4908,"levilo":4909,"ĠMandy":4910,"Ġmiluje":4911,"oo":4912,"ĠMÃŃ":4913,"ĠbabiÄįka":4914,"ĠÅ¾vÃ½":4915,"Ġdoma":4916,"Ġhlubok":4917,"Äįkem":4918,"ĠlÃŃbilo":4919,"ĠjÃ¡s":4920,"elnÃŃk":4921,"Every":4922,"vaz":4923,"Ġpozd":4924,"loÅ¾ili":4925,"Ġimpress":4926,"Ġtich":4927,"Ġnohy":4928,"aket":4929,"Ġcorner":4930,"Ġdirt":4931,"ĠpeÄį":4932,"ĠCÃŃtili":4933,"ittle":4934,"ĠTy":4935,"Ġruka":4936,"ĠBobo":4937,"Ġtries":4938,"Ġletadlo":4939,"ĠObjali":4940,"rti":4941,"omu":4942,"ĠzÅ¯stal":4943,"ĠUvidÄĽla":4944,"ĠÃºplnÄĽ":4945,"Ġconfused":4946,"luvil":4947,"Ġsupp":4948,"corn":4949,"og":4950,"Ġjog":4951,"ujeme":4952,"Ġvoda":4953,"Ġmind":4954,"okÃ¡z":4955,"ĠsvÄĽtlo":4956,"ĠpÅĻemÃ½Å¡lel":4957,"In":4958,"Ġrolled":4959,"ÃŃÃŃ":4960,"Ġtasted":4961,"ĠÃºst":4962,"ĠVys":4963,"Ġsmrti":4964,"Ġtvar":4965,"slo":4966,"ĠÅĺÃŃkali":4967,"ĠnovÃ¡":4968,"Ġcard":4969,"Ġslid":4970,"ĠtaÅ¡ku":4971,"Ġmrkev":4972,"ĠnÄĽjakou":4973,"Ġkv":4974,"Ġocean":4975,"ĠstarÃ©":4976,"ĠzaÅ¾":4977,"Ġpicnic":4978,"Ġses":4979,"ĠdÃŃky":4980,"Ġknih":4981,"ĠnÃ¡dob":4982,"ĠnevidÄĽla":4983,"lies":4984,"Ġforgive":4985,"ĠcelÃ©":4986,"Ġrespect":4987,"louho":4988,"tor":4989,"ized":4990,"ĠdÃŃru":4991,"ĠschovÃ¡v":4992,"Ġstole":4993,"Ġash":4994,"omen":4995,"arry":4996,"Ġpikni":4997,"ĠpoÅ¡t":4998,"rÃ¡zdnÄĽ":4999,"Ġgum":5000,"eprÃ¡zdnÄĽ":5001,"ĠÄįlovÄĽ":5002,"Ġrude":5003,"Ġzjistil":5004,"ĠoranÅ¾":5005,"Ġmachine":5006,"ĠzaneprÃ¡zdnÄĽ":5007,"ĠPÅĻÃŃ":5008,"Ġspent":5009,"enÃŃm":5010,"Ġdoz":5011,"Ġdrive":5012,"Ġteeth":5013,"Ġnajde":5014,"Ġphone":5015,"ĠnÃ¡dhernÃ½":5016,"ĠPÅĻÃ¡li":5017,"Ġposkakoval":5018,"ĠptÃ¡Äįka":5019,"Ġjdou":5020,"rs":5021,"Ġfilm":5022,"ĠstarÅ¡ÃŃ":5023,"ĠchytrÃ¡":5024,"ĠHow":5025,"ĠteplÃ©":5026,"Ã¡hnout":5027,"poÅĻÃ¡d":5028,"Ġlast":5029,"ĠdlouhÃ©":5030,"kÃ¡ch":5031,"ĠsvÃŃtilo":5032,"kej":5033,"Ġoven":5034,"ĠdÄĽl":5035,"ĠvÅ¡echna":5036,"ĠvÅ¾dycky":5037,"ĠodpoÄįin":5038,"ĠpÅĻÃŃÅ¡tÄĽ":5039,"Ġcookie":5040,"ĠmÃŃsta":5041,"bÅĻÃŃ":5042,"My":5043,"Ġpretended":5044,"Ġdelight":5045,"ĠSnaÅ¾ila":5046,"nor":5047,"ĠVytÃ¡":5048,"Ġring":5049,"ĠmoÅ¾nÃ¡":5050,"Ġkopec":5051,"vidÄĽli":5052,"Ġspider":5053,"Ġfurry":5054,"orrow":5055,"ana":5056,"vÃ¡nÃŃ":5057,"Ġfeet":5058,"ĠuÄįitel":5059,"ĠkÅĻiÄįÃŃ":5060,"ĠmedvÄĽda":5061,"ĠhvÄĽzdy":5062,"Ġobdiv":5063,"rÃ½v":5064,"Ġscar":5065,"liÅ¾":5066,"eorge":5067,"Ġban":5068,"ĠnejlepÅ¡ÃŃmi":5069,"ĠrozbÄĽhl":5070,"Ġpanenky":5071,"ĠZvedla":5072,"Ġfaces":5073,"ird":5074,"Ġworm":5075,"okol":5076,"Ġstoup":5077,"ovÃ½m":5078,"Ġbudu":5079,"ĠoheÅĪ":5080,"Ġhelpful":5081,"ĠÅ¾Ã¡ba":5082,"ĠbÃ¡l":5083,"ear":5084,"Ġjedl":5085,"ĠDave":5086,"Ġsklen":5087,"ĠUtÃŃ":5088,"Ġsl":5089,"Ġlay":5090,"ĠdÃŃvat":5091,"rn":5092,"ĠDon":5093,"ÃŃna":5094,"Ġhledali":5095,"Ġjezer":5096,"ĠÄįervenÃ¡":5097,"Mus":5098,"ĠdÃŃry":5099,"Ġneod":5100,"Ġeventually":5101,"Ġwave":5102,"ĠuÅ¾ite":5103,"Ġchick":5104,"ult":5105,"ĠNauÄįili":5106,"Pom":5107,"ĠvydÄĽÅ¡enÃŃ":5108,"Ġmezi":5109,"Ġvlak":5110,"cola":5111,"vice":5112,"ti":5113,"Ġobcho":5114,"Ġprotect":5115,"ĠmotÃ½l":5116,"Ġmountain":5117,"bytek":5118,"skou":5119,"ĠmÃŃstÄĽ":5120,"pt":5121,"ĠÅ¡ed":5122,"Ġlodi":5123,"Ġemb":5124,"Ġ'":5125,"Ġpeaceful":5126,"Ġtalking":5127,"ĠdlouhÃ½":5128,"ĠpÅĻik":5129,"Ġbohat":5130,"eno":5131,"dit":5132,"ĠSame":5133,"luvili":5134,"Ġpoch":5135,"Ġshy":5136,"ĠBÄĽÅ¾ÃŃ":5137,"ĠpoloÅ¾ila":5138,"Ġfold":5139,"ĠptÃ¡kovi":5140,"ĠvdÄĽÄįnÃ¡":5141,"ĠrÅ¯znÃ©":5142,"ĠlistÃŃ":5143,"ĠplÃ¡n":5144,"Ġsmoot":5145,"Ġobraz":5146,"stro":5147,"ĠbudeÅ¡":5148,"ĠpÅĻij":5149,"Ġtomorrow":5150,"Ġtid":5151,"ĠskÃ¡kat":5152,"ĠtÃ¡tu":5153,"ĠbezpeÄįnÄĽ":5154,"stoupila":5155,"elÃ©":5156,"Ġtento":5157,"ĠtÅĻÃŃlet":5158,"ĠRod":5159,"Ġpras":5160,"Ġself":5161,"ĠMike":5162,"ĠÅ¾i":5163,"nula":5164,"Ġchocola":5165,"ryt":5166,"ĠmilÃŃ":5167,"ĠchrÃ¡":5168,"Ġspread":5169,"Ġnevy":5170,"ĠÄįokol":5171,"Ġvillage":5172,"Ġlisty":5173,"ĠTime":5174,"ĠÅ¾ebÅĻÃŃ":5175,"Ã¡c":5176,"Ġdivok":5177,"acka":5178,"stvÃŃm":5179,"Ġremi":5180,"kyv":5181,"ĠDucky":5182,"ious":5183,"ĠkrÃ¡lov":5184,"ĠpÅĻijde":5185,"Ġpohod":5186,"Jimmy":5187,"Ġsmooth":5188,"ĠNechtÄĽla":5189,"Ġzuby":5190,"Ġfoot":5191,"ĠRozhlÃ©dl":5192,"ped":5193,"Ġeager":5194,"gin":5195,"ĠbrÃ¡":5196,"Ġvydala":5197,"Ġcoin":5198,"ĠrychlÃ½":5199,"ano":5200,"Ġwrite":5201,"Ġcouch":5202,"mon":5203,"Ġov":5204,"ĠBella":5205,"ĠunavenÃ¡":5206,"ĠzelenÃ©":5207,"Ġbuilding":5208,"Ġladder":5209,"ĠNemo":5210,"Ġpush":5211,"Ġnemohli":5212,"Ġpohla":5213,"ĠjemnÄĽ":5214,"Ġsuper":5215,"Ġmoder":5216,"Ġoli":5217,"ĠzÃ¡p":5218,"arr":5219,"Ġfighting":5220,"Ġstru":5221,"Ġchodil":5222,"Ġtreats":5223,"Ġtool":5224,"Ġjich":5225,"Ġblew":5226,"Ġchased":5227,"Ġprincezna":5228,"ĠCla":5229,"ĠSmÃ¡li":5230,"Ġwore":5231,"Ġtrip":5232,"Å¯Å¯":5233,"raf":5234,"Sarah":5235,"ĠhezkÃ½":5236,"ire":5237,"Taky":5238,"ĠbÃ¡la":5239,"Ġstret":5240,"Ġfig":5241,"ĠjinÃ©":5242,"vr":5243,"Ġraket":5244,"tro":5245,"ĠnÃ¡hrd":5246,"ĠosamÄĽl":5247,"Ġdrah":5248,"Soon":5249,"Ġvydali":5250,"ĠpÃŃsniÄį":5251,"ĠPotÅĻe":5252,"ĠNÄĽkdy":5253,"arrass":5254,"Ġmiluju":5255,"old":5256,"Ġbugs":5257,"kon":5258,"Ġstan":5259,"Å¾ku":5260,"ĠzpÃŃvat":5261,"ĠSoph":5262,"mit":5263,"Ġdiam":5264,"Å¡im":5265,"Ġrukou":5266,"Ġhiding":5267,"nam":5268,"Ã¡tku":5269,"ĠStÃ¡le":5270,"unk":5271,"ĠschovÃ¡vanou":5272,"lÃŃzka":5273,"Ġembarrass":5274,"Ġdvor":5275,"ĠVyd":5276,"Ġknee":5277,"ĠElla":5278,"Ã³z":5279,"Ġpavou":5280,"Ġcross":5281,"povÄĽ":5282,"Ġwaiting":5283,"ĠpÃŃseÅĪ":5284,"Ġpool":5285,"Å¯zi":5286,"ĠzblÃŃzka":5287,"oru":5288,"ĠnÃ¡Å¡":5289,"ĠprojÃŃt":5290,"Ġbelong":5291,"ĠzÃŃskat":5292,"ator":5293,"Ġpuddle":5294,"ĠNemohl":5295,"ÃŃtra":5296,"Ġbudete":5297,"omnÄĽ":5298,"ĠvÅ¡emi":5299,"ĠMyÅ¡":5300,"Ġcollect":5301,"Ġshelf":5302,"Ġnecklace":5303,"ĠTimmymu":5304,"ĠrozruÅ¡en":5305,"Ġfinish":5306,"Ġsouhlasila":5307,"otÅĻe":5308,"aned":5309,"ĠÅ¡koly":5310,"Joe":5311,"Ġfr":5312,"Ġstir":5313,"osa":5314,"Ġwhenever":5315,"Ġsongs":5316,"ron":5317,"Ġignor":5318,"etr":5319,"Sp":5320,"Ġzjistila":5321,"adila":5322,"ĠstrÃ¡":5323,"ĠFin":5324,"Ġmraven":5325,"ĠchÅ¯zi":5326,"Ġselfish":5327,"rku":5328,"ĠprÃ¡zd":5329,"ole":5330,"Ġkdyby":5331,"ĠLi":5332,"ĠJust":5333,"Ġoz":5334,"ĠTÃ¡ta":5335,"Ġmaybe":5336,"Ġsty":5337,"Ġcannot":5338,"ĠzÃ¡bavnÃ½":5339,"ĠJo":5340,"ĠdÄĽlal":5341,"Ġulevilo":5342,"Ġing":5343,"klo":5344,"ph":5345,"Äįist":5346,"Ġstring":5347,"ĠMiluji":5348,"ĠplÃ¡Å¾i":5349,"ĠveÄįÃŃ":5350,"ĠvysvÄĽtlila":5351,"ĠzatÃŃmco":5352,"Ġchocolate":5353,"rump":5354,"Ġlarge":5355,"Ġtaste":5356,"ĠNemÅ¯Å¾e":5357,"ii":5358,"Ġhum":5359,"ĠSe":5360,"sla":5361,"Ġodlet":5362,"Ġbubl":5363,"ati":5364,"ĠnemÄĽla":5365,"ustit":5366,"Ġgen":5367,"ovy":5368,"ĠÃºspÄĽ":5369,"ĠpÅĻist":5370,"Jane":5371,"Mama":5372,"Ġkolen":5373,"Ġplavat":5374,"box":5375,"ĠpotÅĻebu":5376,"Ġbell":5377,"Ġminut":5378,"Ġpaw":5379,"Ġdopis":5380,"Ġtidy":5381,"ĠtlaÄįÃŃt":5382,"Ġleaf":5383,"Ġsack":5384,"Ġsobe":5385,"Ġfixed":5386,"ĠdalÅ¡ÃŃch":5387,"TeÄı":5388,"ĠEverywhere":5389,"Ġansw":5390,"Ġrec":5391,"ĠvzpomnÄĽla":5392,"Ġwash":5393,"Ġbarked":5394,"ĠspokojenÃ¡":5395,"enku":5396,"ĠveÄįer":5397,"ĠpomÃ¡hala":5398,"Ġspolehli":5399,"ĠUÅ¾ili":5400,"ĠSometimes":5401,"avaÄį":5402,"Ġinvit":5403,"Ġpopadl":5404,"Ġceleb":5405,"Å¡kli":5406,"Ġvezme":5407,"Ġmrak":5408,"Please":5409,"Ġstolu":5410,"pala":5411,"sed":5412,"Ġcrab":5413,"ĠpÅĻekvapenÃ½":5414,"ĠpÅĻikyv":5415,"Ġcloth":5416,"ĠsnÄĽdl":5417,"ĠZam":5418,"ĠvÃ¡Å¾":5419,"Ġant":5420,"Ġcarrot":5421,"ĠlÃŃbil":5422,"ĠSamovi":5423,"ĠpÅĻÃŃtelem":5424,"Ġnakres":5425,"Ġobjet":5426,"ĠrozhlÃ©dl":5427,"Ġresp":5428,"ĠdÃ½":5429,"ĠvyÅ¡la":5430,"Dad":5431,"ĠDokonce":5432,"Ġplant":5433,"ĠsladkÃ©":5434,"Ġabychom":5435,"Ġingredi":5436,"rovi":5437,"PodÃŃvejte":5438,"Ġteleviz":5439,"ĠobÄĽd":5440,"ĠToby":5441,"rnÄĽ":5442,"Ġdlouhou":5443,"Ġutekla":5444,"ĠbanÃ¡":5445,"als":5446,"ĠsvaÄįinu":5447,"Ġrybu":5448,"ĠhodnÃ½":5449,"Ġsnad":5450,"ivÃ¡":5451,"abiÄįka":5452,"Ġmodrou":5453,"ĠdobÅĻÃŃ":5454,"ĠSlunce":5455,"Ġzjistit":5456,"ĠpolÃ©vku":5457,"ĠnabÃŃ":5458,"ĠuvidÃŃ":5459,"ĠhrdÃ½":5460,"ĠdobrÃ½mi":5461,"ĠRob":5462,"ĠPlease":5463,"ĠDnes":5464,"ĠjÃŃdla":5465,"ĠzÅ¯stala":5466,"Ġzvednout":5467,"Ã©Å¡Å¥":5468,"Ġpsem":5469,"ĠZvedl":5470,"ĠlahodnÃ©":5471,"cem":5472,"bliÅ¾":5473,"ĠnechÃ¡":5474,"Ġjungle":5475,"Ġmissed":5476,"Ġstarosti":5477,"Ġdeter":5478,"oin":5479,"Ġbaz":5480,"ipp":5481,"ĠdÄĽlala":5482,"Ġjedla":5483,"flow":5484,"most":5485,"ovaly":5486,"ĠObjÃŃmajÃŃ":5487,"Now":5488,"ĠdokÃ¡z":5489,"Ġzima":5490,"lezla":5491,"ĠvystraÅ¡enÃ½":5492,"ĠzÃ¡m":5493,"Ġnen":5494,"ĠzamÃ¡val":5495,"nest":5496,"Ġknihov":5497,"Ġpizza":5498,"Po":5499,"Ġrozp":5500,"Ġlanded":5501,"izzy":5502,"Ġdeterm":5503,"Å¡ili":5504,"Ġforward":5505,"Ġembarrassed":5506,"Ġrodinu":5507,"Ġlesem":5508,"ĠhraÄįkou":5509,"Ġpiknik":5510,"Ġvroom":5511,"ĠTent":5512,"Ġjumping":5513,"Ġpist":5514,"Ġdvorku":5515,"Ġdobrou":5516,"ĠStaÅĻec":5517,"Ġkreat":5518,"ĠbazÃ©":5519,"Jak":5520,"ĠsmÄĽrem":5521,"ĠdobrodruÅ¾stvÃŃm":5522,"Ġdecor":5523,"Ġhonest":5524,"Ġpeek":5525,"ĠVypadalo":5526,"airs":5527,"ĠPÅĻÃ¡la":5528,"Ġspray":5529,"ĠLid":5530,"bila":5531,"ĠTheir":5532,"ony":5533,"ĠJÃ¡":5534,"Ġpane":5535,"Ġkonec":5536,"Ġzaz":5537,"ĠusmÃŃvali":5538,"ĠpÅĻestat":5539,"Ġtrust":5540,"ĠznÃŃ":5541,"Ġhears":5542,"Å¡ila":5543,"Ġnaps":5544,"ĠchceÅ¡":5545,"Ġzkla":5546,"chop":5547,"ĠoÅ¡kli":5548,"Billy":5549,"Ġteprve":5550,"skal":5551,"ProsÃŃm":5552,"orry":5553,"luvila":5554,"ĠkamarÃ¡dky":5555,"Ġkitten":5556,"ipped":5557,"trat":5558,"ĠpÃ¡s":5559,"Ġmoon":5560,"ÄĽj":5561,"ĠpomocÃŃ":5562,"Ġshirt":5563,"ĠtalÃŃÅĻ":5564,"Ġsticks":5565,"chÃ¡zel":5566,"MÃ¡m":5567,"ĠnÃ¡v":5568,"ĠbavÃŃ":5569,"Ġzdvo":5570,"Ġsharing":5571,"ĠTV":5572,"ĠKim":5573,"Ġemp":5574,"Ġneposlouchal":5575,"ĠÄįaj":5576,"Ġobjevil":5577,"ĠbÃ¡":5578,"Ġcreative":5579,"ĠsilnÃ¡":5580,"Ġplach":5581,"olf":5582,"ĠPÅĻÃ¡l":5583,"ĠusmÄĽje":5584,"ĠLola":5585,"icÃŃ":5586,"ĠletÃŃ":5587,"Ġsuccess":5588,"Ġcarrots":5589,"Ġknocked":5590,"Ġdisappoin":5591,"Ġtea":5592,"mou":5593,"ĠutÃ©ct":5594,"ĠvÅ¯bec":5595,"Ġpokusil":5596,"ĠZat":5597,"Ġgener":5598,"Ġmeadow":5599,"ork":5600,"Ġstood":5601,"ĠprovÃ¡z":5602,"Ġcuk":5603,"Ġveget":5604,"ĠÅ¡patnÃ½":5605,"ĠmodrÃ½":5606,"ĠMum":5607,"Ġbudeme":5608,"ĠliÅ¡ka":5609,"Ġdobu":5610,"Ġspadl":5611,"ÄĽÅ¾":5612,"ari":5613,"liko":5614,"elf":5615,"Ġtoast":5616,"ĠdrÅ¾et":5617,"ĠsnaÅ¾ÃŃ":5618,"Ġskluzavku":5619,"Ġtightly":5620,"ĠsmÃ¡la":5621,"ugg":5622,"Ġmeant":5623,"ĠCest":5624,"Ġknof":5625,"livÄĽ":5626,"ĠnervÃ³z":5627,"Ġokam":5628,"ĠPodÃŃvali":5629,"hne":5630,"Ġashamed":5631,"ĠProsÃŃm":5632,"Ġsour":5633,"Ġkoupila":5634,"ĠsÃ½r":5635,"ĠmÃ©":5636,"ĠpokraÄįovala":5637,"ĠjinÃ½":5638,"ĠlÃŃst":5639,"Ġtvoje":5640,"Ġvypadalo":5641,"Ġlegs":5642,"ĠPÅĻedstÃŃ":5643,"ĠodeÅ¡el":5644,"Ġplate":5645,"Ġspadla":5646,"ĠdokÃ¡Å¾e":5647,"Ġalmost":5648,"Ġsplash":5649,"Ġbreath":5650,"ĠpolÃŃb":5651,"ĠnÃ¡klaÄıÃ¡ku":5652,"den":5653,"Ġglow":5654,"Ġchov":5655,"Ġgray":5656,"Jill":5657,"Ġgrew":5658,"Ġjablka":5659,"Ġpresent":5660,"ĠProÄį":5661,"ĠSome":5662,"Ġpillow":5663,"ĠLidÃ©":5664,"ground":5665,"ĠzniÄį":5666,"Ġkousky":5667,"Ġtells":5668,"Ġempty":5669,"ĠPodÄĽkoval":5670,"Ġnajdou":5671,"Tome":5672,"Ġvrt":5673,"Å¯st":5674,"ĠpÅĻestal":5675,"Ġmaz":5676,"Ġdinosa":5677,"aring":5678,"Ġpopcorn":5679,"ĠPolly":5680,"ĠPojÄı":5681,"Ġgas":5682,"Ġwhistle":5683,"Ġtvary":5684,"Ġpanenkami":5685,"ĠptaÄįÃŃ":5686,"Ġchle":5687,"Ġprov":5688,"Ġohledu":5689,"Ġnechal":5690,"ĠobchodÄĽ":5691,"ÅĻily":5692,"Ġopice":5693,"ĠTima":5694,"Ġpusu":5695,"ĠmlÃ©ko":5696,"ĠNemohla":5697,"Ġmohlo":5698,"Ġunderstood":5699,"Å¯li":5700,"vyk":5701,"omnÄĽli":5702,"Ġtelevizi":5703,"ĠpodÃŃvÃ¡":5704,"Ġstro":5705,"Ġpohodl":5706,"ĠpÅĻikrÃ½v":5707,"Ġhodiny":5708,"Ġsheep":5709,"Ġcarried":5710,"Ġsr":5711,"ÄįÃŃm":5712,"ouÅ¡t":5713,"ĠhodnÃ¡":5714,"ĠWhy":5715,"ĠÅĻidiÄį":5716,"ĠkoÄį":5717,"Ġveverka":5718,"ĠusmÃŃvala":5719,"ĠnavÅ¡tÃŃvit":5720,"Ġnosit":5721,"Ġnote":5722,"Ġyelled":5723,"ĠÄįokolÃ¡d":5724,"Ġpal":5725,"ĠfarmÃ¡ÅĻ":5726,"Ġhosp":5727,"nÃŃku":5728,"ĠGeorge":5729,"ital":5730,"ĠBabiÄįka":5731,"Ġabyste":5732,"nili":5733,"Ġwhis":5734,"ĠusmÃŃvÃ¡":5735,"ĠLÃŃbÃŃ":5736,"Ġles":5737,"OmlouvÃ¡m":5738,"ĠnaÅ¡tvanÃŃ":5739,"Äįas":5740,"Ġnosila":5741,"ĠvytvÃ¡":5742,"Ġgau":5743,"Ġmagne":5744,"ĠhasiÄį":5745,"ĠvzpomnÄĽl":5746,"Ġhours":5747,"Ġplot":5748,"Ġdisappointed":5749,"ĠbÄĽhali":5750,"ĠnÃ¡hrdelnÃŃk":5751,"ĠstromÅ¯":5752,"Ġsave":5753,"Ġsnacks":5754,"Ġori":5755,"ĠAb":5756,"nku":5757,"Ġnods":5758,"Ġnavr":5759,"itu":5760,"Ġmyster":5761,"Ġcere":5762,"Ġzlom":5763,"Ġjew":5764,"Mil":5765,"ĠZn":5766,"Ġpostavit":5767,"mile":5768,"ChceÅ¡":5769,"Ġthese":5770,"Where":5771,"ĠOtevÅĻela":5772,"Ġohromeni":5773,"Ġline":5774,"ĠdÄĽsivÃ©":5775,"Ġneud":5776,"que":5777,"oday":5778,"ĠMaxovi":5779,"ĠkÅĻÃŃdla":5780,"ĠpokraÄįovali":5781,"Ġsparkly":5782,"Ġblock":5783,"Ġwarn":5784,"Ġgold":5785,"eny":5786,"Ġautem":5787,"ĠdruhÃ©":5788,"ĠstrÃ¡v":5789,"Ġener":5790,"ĠdruhÃ½":5791,"Ġmagick":5792,"Ġzamyslel":5793,"Ġboun":5794,"ĠBrow":5795,"Ġram":5796,"ĠEven":5797,"Ġship":5798,"Ġkoleno":5799,"Ġlaskav":5800,"ĠlaviÄįce":5801,"Ġchytil":5802,"ĠBill":5803,"Ġrub":5804,"aul":5805,"Ġpay":5806,"ĠNaÅ¡li":5807,"Ġhospital":5808,"ĠpÅĻÃŃÅ¡":5809,"Ġautob":5810,"ĠTogether":5811,"ram":5812,"urse":5813,"Ġpozoroval":5814,"Å¡nÃ½":5815,"Ġbored":5816,"enry":5817,"jÃŃÅ¾":5818,"ĠpÅĻijÃŃt":5819,"ĠMio":5820,"Ġledn":5821,"Ġgenerous":5822,"rumpy":5823,"Ġnedale":5824,"Ġposteli":5825,"Ġorigin":5826,"ĠpÅ¯jde":5827,"Ġtaught":5828,"Ġseek":5829,"Ġhidden":5830,"ĠvyzkouÅ¡et":5831,"Äįou":5832,"ĠuspoÅĻÃ¡d":5833,"ĠrozzÃ¡":5834,"Ġzr":5835,"ohla":5836,"hled":5837,"ĠodpoÄį":5838,"rÃ¡li":5839,"ĠautÃŃÄįky":5840,"ĠrozhlÃ©dla":5841,"Ġstanding":5842,"Ġgrou":5843,"alÃ©":5844,"ĠStar":5845,"Stop":5846,"vÃŃt":5847,"Ġobloha":5848,"eterin":5849,"MÅ¯Å¾eÅ¡":5850,"Ġremind":5851,"istÄĽ":5852,"Ġscarf":5853,"Ġpozorovala":5854,"Ġminutes":5855,"Ġchew":5856,"ĠJoey":5857,"Ġreturned":5858,"ĠÄįep":5859,"Ġblow":5860,"PojÄı":5861,"ĠnovÃ½ch":5862,"Ġshi":5863,"Ġknowing":5864,"Ã¡nu":5865,"Ġpokusila":5866,"ĠJedn":5867,"luvÃŃ":5868,"Ġeasy":5869,"Ġpracovali":5870,"Ġtrav":5871,"ĠZajÃŃÄįek":5872,"Ġbedroom":5873,"Ġrocket":5874,"ĠAlex":5875,"ĠBude":5876,"Ġplants":5877,"enka":5878,"Ġpolite":5879,"zenÃŃ":5880,"Ġnevzd":5881,"work":5882,"Ġber":5883,"Ġglass":5884,"Ġmysterious":5885,"Ġwaves":5886,"Ġobjevovat":5887,"ĠnemÃ¡":5888,"Ġbater":5889,"ables":5890,"Ġdouf":5891,"Ġzaslech":5892,"Ġthankful":5893,"ĠvÄĽcmi":5894,"ĠÅ¡irokÃ½m":5895,"Ġsighed":5896,"Ġtleskali":5897,"Ġpri":5898,"ĠotÃ¡z":5899,"kin":5900,"ĠnemÄĽli":5901,"ĠvÄĽdÄĽt":5902,"Ġseed":5903,"Ġkop":5904,"Ġwolf":5905,"Ġpopadla":5906,"ĠNas":5907,"ĠPos":5908,"Ġfinger":5909,"arod":5910,"ĠvyskoÄįil":5911,"ĠsluneÄįnÃŃ":5912,"Tohle":5913,"ligent":5914,"Ġpytel":5915,"jÃŃmÃ¡":5916,"ÃŃk":5917,"Ã¡st":5918,"raje":5919,"ĠnepÅĻi":5920,"lÃ©ho":5921,"Ġglo":5922,"ĠbÅĻe":5923,"ĠhotovÃ¡":5924,"Ġenerg":5925,"Ġneroz":5926,"Ġdinosaur":5927,"Ġdetermined":5928,"Ġpono":5929,"Ġpowerful":5930,"ĠÅ¾idli":5931,"Ġbys":5932,"ĠNep":5933,"ĠTimovi":5934,"Ġvychut":5935,"Ġvej":5936,"zela":5937,"Ġclass":5938,"ĠChar":5939,"Ġpir":5940,"ĠzÃ¡bavy":5941,"Ġmajite":5942,"ĠvydÄĽsil":5943,"lÃ¡z":5944,"uch":5945,"Ġvide":5946,"light":5947,"Ġsleepy":5948,"hlÃŃÅ¾":5949,"Ġpassed":5950,"Ġfrustrov":5951,"Ġbobu":5952,"ĠOK":5953,"Ġsandwich":5954,"ĠRozlou":5955,"Ġvyraz":5956,"Ġshore":5957,"ta":5958,"Sally":5959,"Ġumy":5960,"Ġkom":5961,"ĠVÃŃ":5962,"ĠÄįekala":5963,"ĠpÅĻikÃ½vli":5964,"Ġspicy":5965,"ĠmÃŃch":5966,"mlouvÃ¡me":5967,"'d":5968,"Ġdrew":5969,"ĠMaxi":5970,"Ġcr":5971,"Ġodhod":5972,"Ġmraky":5973,"Ġnervous":5974,"Ġjelly":5975,"Ġoko":5976,"ĠPodÄĽkovala":5977,"Ġfancy":5978,"Ġcloset":5979,"ĠVÅ¡ude":5980,"ĠmodrÃ¡":5981,"Ġfrustrated":5982,"ĠMat":5983,"met":5984,"ĠMusÃŃme":5985,"ĠtatÃŃnkovi":5986,"Ġkoc":5987,"ĠrÅ¯Å¾ovÃ©":5988,"Ġmessy":5989,"ĠstarÃ©ho":5990,"Ġpomohli":5991,"Ġmatch":5992,"Ġburn":5993,"Ã©r":5994,"ĠkÅĻ":5995,"On":5996,"tered":5997,"ĠbarevnÃ©":5998,"Ġmrk":5999,"Ġgun":6000,"Äįkovi":6001,"Ġpin":6002,"ĠAndy":6003,"Ġmuff":6004,"ĠmÄĽkkÃ©":6005,"pillar":6006,"Ġbridge":6007,"ohu":6008,"ĠVyp":6009,"ĠnervÃ³znÃŃ":6010,"ĠOtevÅĻel":6011,"ichot":6012,"Ġtlu":6013,"Ġvzali":6014,"ĠzÃŃtra":6015,"Ġlock":6016,"Ġtick":6017,"Ġfear":6018,"Ġgroup":6019,"kÃ¡m":6020,"Ġgrumpy":6021,"ĠRodina":6022,"Ġkissed":6023,"ĠZnovu":6024,"ĠdrÅ¾ÃŃ":6025,"Ġsold":6026,"Ġgate":6027,"Ġfeed":6028,"ey":6029,"Ġnarozenin":6030,"ĠnÄĽkoho":6031,"ĠtakovÃ¡":6032,"Ġsol":6033,"ĠnÄĽjakÃ½":6034,"ĠsnÄĽdla":6035,"Ġsladkosti":6036,"ĠzpÃŃvali":6037,"Ġvar":6038,"Ġpoor":6039,"Ġext":6040,"ĠrodinÄĽ":6041,"ĠcviÄį":6042,"ĠtajemstvÃŃ":6043,"Ġgathered":6044,"Ġhang":6045,"ĠvyÅĻe":6046,"ovaÄį":6047,"Ġcirc":6048,"There":6049,"adÃŃ":6050,"ĠkbelÃŃk":6051,"Ġuvol":6052,"kno":6053,"Ġlif":6054,"ĠvzruÅ¡ujÃŃcÃŃ":6055,"Å¯zku":6056,"ĠkvÅ¯li":6057,"hev":6058,"ĠkreativnÃŃ":6059,"ĠmÅĪ":6060,"ĠhÅĻiÅ¡tÄĽ":6061,"ĠCel":6062,"Ġzeb":6063,"Ġesc":6064,"Ġpanenka":6065,"Ġcater":6066,"Ġcaterpillar":6067,"ĠUkÃ¡zala":6068,"Ġmen":6069,"ĠsuÅ¡enku":6070,"Ġflag":6071,"Maminka":6072,"ĠÅ¾ena":6073,"ĠÅ¾lutÃ©":6074,"iddle":6075,"ĠbÄĽhat":6076,"ĠjistÃ½":6077,"Ġteple":6078,"Ġwis":6079,"ĠdotÃ½":6080,"Ġpochod":6081,"Ġyourself":6082,"ĠÄįet":6083,"ĠkvÄĽtina":6084,"Ġnesly":6085,"issors":6086,"ĠzaÄįaly":6087,"Amy":6088,"Å¡nÄĽ":6089,"ĠnÃ¡klaÄıÃ¡":6090,"ĠdÅ¾us":6091,"anÄĽ":6092,"Ġanswered":6093,"Ġnastal":6094,"rostÅĻed":6095,"ĠNaÅ¡la":6096,"ĠÅ½Ã¡":6097,"ĠvyÅ¡":6098,"ize":6099,"Ġcries":6100,"mm":6101,"ĠPoÅ¾Ã¡dala":6102,"Are":6103,"Ġoften":6104,"ĠBrownie":6105,"ĠZastav":6106,"ĠsmÃ¡l":6107,"Ġweek":6108,"ĠtrÃ¡vy":6109,"ĠSophie":6110,"Äįem":6111,"Ġrus":6112,"prve":6113,"ĠvyprÃ¡v":6114,"ĠzdvoÅĻil":6115,"Ġzlep":6116,"kne":6117,"ĠlaskavÃŃ":6118,"Ġtrap":6119,"Ġug":6120,"ĠSnaÅ¾ÃŃ":6121,"ĠOblÃ©":6122,"Ġchest":6123,"ĠupÅĻÃŃm":6124,"Ġskup":6125,"loÅ¾ÃŃ":6126,"ĠNechtÄĽli":6127,"Ġvst":6128,"patrnÄĽ":6129,"selves":6130,"Ġpracoval":6131,"Ġkot":6132,"ĠNauÄįila":6133,"pack":6134,"ĠHo":6135,"Ġhopping":6136,"Ġstarat":6137,"Ġsen":6138,"flower":6139,"Ġscissors":6140,"Ġadm":6141,"ĠUp":6142,"Ġobjevovala":6143,"Ġtears":6144,"An":6145,"ĠLee":6146,"Ġfill":6147,"ĠhloupÃ½":6148,"Ġobjevoval":6149,"ĠobÃ½vacÃŃm":6150,"Ġspousta":6151,"Sorry":6152,"Vid":6153,"Ġsal":6154,"vidÃŃ":6155,"ĠkterÃ½m":6156,"Sue":6157,"ĠDost":6158,"nÃ¡sled":6159,"Ã¡ni":6160,"Ġjezdit":6161,"Ġtlap":6162,"ĠslÃŃbila":6163,"Ġugly":6164,"Ġvon":6165,"Ġmummy":6166,"ĠnauÄįili":6167,"ĠÅ¡patnÃ©ho":6168,"ĠzvÄĽt":6169,"..":6170,"Ġkru":6171,"ĠslyÅ¡ÃŃ":6172,"ĠnabÃŃd":6173,"ĠmoÅĻe":6174,"Ġcand":6175,"Tady":6176,"ĠMy":6177,"ensive":6178,"rot":6179,"ĠÅ¾lutÃ½":6180,"ĠpÅĻidat":6181,"ĠkÅĻiÄįel":6182,"ĠpÅĻÃ¡nÃŃ":6183,"ĠrybnÃŃku":6184,"cient":6185,"Ġvola":6186,"Ġtaj":6187,"Å¡Å¥ast":6188,"Ġdeer":6189,"illed":6190,"ĠjejÃŃho":6191,"Ġpsovi":6192,"Spot":6193,"Ġexcitement":6194,"Ġsledovala":6195,"umber":6196,"illi":6197,"ĠDÄĽti":6198,"Ġschop":6199,"ĠGo":6200,"Ġexpensive":6201,"Ġworking":6202,"lax":6203,"Ġmonst":6204,"Ġmiddle":6205,"Ġci":6206,"imi":6207,"ĠDÄĽkuji":6208,"Ġsaved":6209,"Ġboss":6210,"Ġzapad":6211,"Ġtaken":6212,"Ġobjevila":6213,"Who":6214,"ĠdÄĽtÃŃ":6215,"Ġomluvit":6216,"ĠdveÅĻÃŃ":6217,"ĠosamÄĽlÃ½":6218,"lying":6219,"Ġkachna":6220,"Ġkoupel":6221,"Ġval":6222,"Ġneob":6223,"ĠvyÄįist":6224,"ĠhoupaÄįku":6225,"ĠdÄĽlajÃŃ":6226,"ĠzamÃ¡vala":6227,"Ġtane":6228,"enÄĽjÅ¡ÃŃ":6229,"asto":6230,"ĠzeÄı":6231,"ĠÄįlovÄĽk":6232,"Ġtrue":6233,"jet":6234,"ĠbabiÄįku":6235,"ĠpouÅ¾ÃŃvat":6236,"peci":6237,"Ġrohu":6238,"Ġspace":6239,"Ġextra":6240,"ĠtatÃŃnka":6241,"Ã¡ly":6242,"Ġwagged":6243,"ĠstÃ¡t":6244,"ÄĽlÃŃ":6245,"Ġminci":6246,"Ġpleased":6247,"jel":6248,"ĠBavÃŃ":6249,"ĠZas":6250,"ĠloÅ¾":6251,"Ġcrown":6252,"ĠslyÅ¡el":6253,"ĠobjetÃŃ":6254,"Ġones":6255,"anda":6256,"ĠskoÄįil":6257,"Ġbott":6258,"ĠsnaÅ¾ili":6259,"ĠZak":6260,"Ġdruhou":6261,"Ġspend":6262,"Ġrelax":6263,"ĠRozhlÃ©dla":6264,"ĠEnd":6265,"Ġztratil":6266,"eared":6267,"ĠTweetie":6268,"ĠNevÄĽdÄĽl":6269,"rink":6270,"Ã©st":6271,"Ġha":6272,"Ġboring":6273,"?\".":6274,"Ġzach":6275,"Ġpicks":6276,"ĠlÃ¡hev":6277,"ju":6278,"Ġml":6279,"Ġvase":6280,"Ġkorun":6281,"ĠrozbitÃ©":6282,"ĠudÄĽlÃ¡":6283,"ĠvytÃ¡hla":6284,"ĠdÃ¡ma":6285,"ĠzavrtÄĽl":6286,"ĠNelÃŃ":6287,"Ġasking":6288,"Ġdesig":6289,"zdob":6290,"ĠNed":6291,"ĠobÃ½vacÃŃho":6292,"body":6293,"ĠrybnÃŃk":6294,"akt":6295,"Ġdovo":6296,"hÃ¡":6297,"Ġint":6298,"ĠJerry":6299,"ĠPÅĻemÃ½Å¡le":6300,"ĠFar":6301,"Ġospal":6302,"Ġtie":6303,"ĠsnÄĽhu":6304,"adili":6305,"St":6306,"ĠstÅĻÃŃd":6307,"ĠzvÄĽdavÃŃ":6308,"ĠsluneÄįnÃ©ho":6309,"ĠzpÃŃvala":6310,"Ġbrush":6311,"Ġsobeck":6312,"ÅĻÃ¡te":6313,"ĠdÄĽde":6314,"ĠNap":6315,"Ġvegetables":6316,"ĠcelÃ©m":6317,"Ġgiggled":6318,"ĠNat":6319,"Ġmedic":6320,"ĠpobÃŃ":6321,"ĠjejÃŃm":6322,"pecially":6323,"Ġzklam":6324,"ĠBet":6325,"ĠZaÄįali":6326,"Ġvlaj":6327,"ĠtaÅ¡ky":6328,"ĠPokraÄį":6329,"Ġnejob":6330,"Their":6331,"ĠÅ¡pinavÃ©":6332,"Ġmistake":6333,"ĠtlaÄįÃŃtko":6334,"unt":6335,"Ġkachny":6336,"ĠTv":6337,"ĠslunÃŃ":6338,"ÅĻiÄįel":6339,"Ġzavolala":6340,"ĠpÅĻinesla":6341,"ujeÅ¡":6342,"Ġcage":6343,"ravÃŃ":6344,"ĠÅłtÄĽ":6345,"Ġtig":6346,"ĠnejoblÃŃb":6347,"Ġcap":6348,"Ġchleba":6349,"Ġsugar":6350,"Ġgets":6351,"chÃ¡zet":6352,"ÅĻÃŃt":6353,"ĠVÅ¡im":6354,"Ġstuff":6355,"ĠPoÅ¾Ã¡dal":6356,"Ġpas":6357,"Ġcomfortable":6358,"ĠdÄĽkuji":6359,"cera":6360,"ĠChlapeÄįek":6361,"ĠVykÅĻikla":6362,"Ġpacked":6363,"Ġzmizel":6364,"udu":6365,"ĠbouÅĻe":6366,"ĠpÄĽknÃ½":6367,"ĠSkÃ¡":6368,"ĠTaky":6369,"Ġespecially":6370,"ĠCestou":6371,"ĠvÄĽdÄĽli":6372,"Ġdancing":6373,"ĠAuto":6374,"Ġsklenici":6375,"opla":6376,"kam":6377,"Ġclown":6378,"ĠOpatrnÄĽ":6379,"Ġnumber":6380,"Ġlesklou":6381,"ĠhÃ¡dat":6382,"ĠkÅĻiÄįela":6383,"Ġdorazil":6384,"Na":6385,"sÃŃc":6386,"Ġsight":6387,"Ġfis":6388,"Ġkry":6389,"Ġpress":6390,"Ġzastavila":6391,"log":6392,"ĠhnÃŃzdo":6393,"Ġknight":6394,"Ġwip":6395,"ovnÃŃ":6396,"Å¾ovat":6397,"ĠTat":6398,"Ġfruits":6399,"ĠTa":6400,"Ġfung":6401,"Ġsurf":6402,"iness":6403,"ĠAnnÄĽ":6404,"ĠvÃ½let":6405,"Ġdrum":6406,"Ġfake":6407,"ĠpÄĽknÃ©":6408,"Ġnechce":6409,"Ġbody":6410,"roc":6411,"Ġeggs":6412,"ĠpolÅ¡tÃ¡ÅĻ":6413,"ĠVzali":6414,"Ġpru":6415,"Ġham":6416,"nali":6417,"hlubo":6418,"hluboka":6419,"ĠpÅĻestala":6420,"ĠVÅ¡echny":6421,"Ġlying":6422,"obod":6423,"ĠÄįekal":6424,"Bene":6425,"ĠvznÃ¡":6426,"Ġlab":6427,"ĠÅ½il":6428,"ĠkrÃ¡lÃŃka":6429,"Ġmince":6430,"Ġdod":6431,"ĠLev":6432,"ĠZvÃŃ":6433,"ĠlÃ¡s":6434,"ĠunavenÃŃ":6435,"osau":6436,"bÄĽhli":6437,"Ġdistance":6438,"ĠstÅĻe":6439,"ĠpoÄįkat":6440,"ror":6441,"Ġpracovat":6442,"Ġruky":6443,"ĠudÄĽlalo":6444,"Ġglue":6445,"ĠJu":6446,"Ġwalks":6447,"ĠSte":6448,"Ġkreslit":6449,"Ġmedicine":6450,"Ġvykou":6451,"Ġkulat":6452,"Ġslav":6453,"Ġstarou":6454,"Ġjisk":6455,"Re":6456,"Ġsplashed":6457,"echla":6458,"JistÄĽ":6459,"Ġrozes":6460,"Ġjednom":6461,"ĠÅ½Ã¡ba":6462,"Ġbake":6463,"Ġvalu":6464,"ĠGrace":6465,"ĠmyÅ¡ka":6466,"ĠÅĻÃŃkali":6467,"Ġent":6468,"Ġsweetie":6469,"ĠjÃ¡sali":6470,"Ġbone":6471,"Ġtwist":6472,"ĠzpÃŃval":6473,"Ġgor":6474,"Ġprobudil":6475,"ĠmÄĽkkÃ½":6476,"Ġmoving":6477,"Ġdrawing":6478,"ĠÄįistÃ½":6479,"rag":6480,"ĠnelÃŃbilo":6481,"Ġhromadu":6482,"Ġdisappeared":6483,"aged":6484,"Ġmisku":6485,"ĠslÃŃbil":6486,"avnat":6487,"ĠSÃ¡ro":6488,"ĠMalÃ¡":6489,"opard":6490,"ĠUdÄĽlali":6491,"Ġsmelly":6492,"Ġabys":6493,"ĠodeÅ¡la":6494,"ĠbazÃ©nu":6495,"Me":6496,"Ġelder":6497,"ĠLittle":6498,"Ġchange":6499,"ĠskÃ¡kali":6500,"Ġlead":6501,"ĠpÅĻim":6502,"Ġbecome":6503,"Ġlemon":6504,"ĠkÅĻÃŃdly":6505,"Ġbarvu":6506,"ĠpirÃ¡t":6507,"Ġfeathers":6508,"Ġpep":6509,"ĠoÄįima":6510,"ĠUkÃ¡zal":6511,"ĠuvÃŃ":6512,"ĠvÃŃla":6513,"ĠveÅ¡la":6514,"ĠrozlouÄįili":6515,"Ġstranu":6516,"ĠlesklÃ©ho":6517,"ĠBunny":6518,"Ġlose":6519,"ĠLiÅ¡ka":6520,"ĠpapÃŃru":6521,"Ġzbytek":6522,"vet":6523,"Ġpray":6524,"Ġukli":6525,"ĠjasnÃ©":6526,"ĠnÃ¡pis":6527,"Ġlicked":6528,"Ġmoms":6529,"ĠnÃ¡ram":6530,"ada":6531,"ĠnÃ¡vÅ¡tÄĽ":6532,"Ġcalling":6533,"ĠKaÅ¾dÃ©":6534,"Ġjez":6535,"hou":6536,"ĠmÃ¡me":6537,"Ġdogs":6538,"Ġkys":6539,"ĠIf":6540,"ĠsvÃŃ":6541,"ani":6542,"ĠjakÃ©":6543,"rous":6544,"ĠprochÃ¡zeli":6545,"Ġbathroom":6546,"ĠpokaÅ¾dÃ©":6547,"Ġplayground":6548,"onek":6549,"stup":6550,"ĠmÃ¡my":6551,"Ã¡Ã¡Ã¡Ã¡":6552,"yal":6553,"ĠtÃ½d":6554,"Ġlazy":6555,"ĠobrovskÃ½":6556,"ĠhlavÄĽ":6557,"Ġschod":6558,"Ġnarazil":6559,"Ġroar":6560,"Ġposlouchala":6561,"Ġincredi":6562,"dom":6563,"ĠpenÄĽz":6564,"ĠLÃŃbilo":6565,"iskers":6566,"Ġelderly":6567,"Ġkyt":6568,"Ġweak":6569,"ĠvÃŃm":6570,"Ġmir":6571,"ĠoceÃ¡nu":6572,"rote":6573,"Ġflexi":6574,"ĠDÃ¡vÃ¡":6575,"Ġcity":6576,"ĠusmÃŃval":6577,"Ġlog":6578,"arodÄĽj":6579,"Ġcri":6580,"Ġhorn":6581,"ĠtentokrÃ¡t":6582,"ije":6583,"Ġfale":6584,"ĠtÃ¡tovi":6585,"ĠLilly":6586,"Ġcrawl":6587,"ĠFarmÃ¡ÅĻ":6588,"ĠPaul":6589,"Ġpale":6590,"Ġkar":6591,"vami":6592,"ĠprÅ¯zku":6593,"Kdo":6594,"Ġshoot":6595,"ĠBuddy":6596,"ĠrozbÄĽhla":6597,"Ġquestions":6598,"Ġwrote":6599,"ivo":6600,"Ġallow":6601,"ĠlÅ¾ÃŃci":6602,"bbed":6603,"Ġref":6604,"ĠkamarÃ¡dku":6605,"mysle":6606,"ĠdÃ©Å¡Å¥":6607,"ĠvÄĽtru":6608,"Ġyours":6609,"Ġyog":6610,"Ġkostkami":6611,"Ġclear":6612,"ĠChvÃŃli":6613,"ĠvypadajÃŃ":6614,"Ġnoisy":6615,"Ġmirror":6616,"Ġmic":6617,"Ġozval":6618,"land":6619,"ÄĽjÅ¡ÃŃ":6620,"ĠJeden":6621,"omed":6622,"ĠzapomnÄĽla":6623,"lej":6624,"Ġfather":6625,"ĠTohle":6626,"ĠPrac":6627,"ĠOto":6628,"Ġsuggest":6629,"ĠvysokÃ¡":6630,"Ġtorn":6631,"ĠÅĻeky":6632,"ĠvelkÃ©mu":6633,"Ġohromen":6634,"Ġfigure":6635,"ĠÅ¡Å¥avnat":6636,"ĠHrÃ¡ly":6637,"ĠdosÃ¡hnout":6638,"star":6639,"cek":6640,"Ġskipped":6641,"ĠfarmÄĽ":6642,"Ġed":6643,"Ġfluffy":6644,"Ġveterin":6645,"Ġbrouka":6646,"antnÃŃ":6647,"moc":6648,"ĠzdÃ¡lo":6649,"ĠnynÃŃ":6650,"llie":6651,"ĠKÅĻiÄįÃŃ":6652,"ĠPopadl":6653,"Ġzlo":6654,"ĠrÃ¡na":6655,"ĠtÄĽÅ¾kÃ¡":6656,"ĠVypadÃ¡":6657,"Ġjezera":6658,"ĠsvÄĽta":6659,"ĠtÄĽÅ¾kÃ½":6660,"ĠTatÃŃnek":6661,"ĠNemÄĽl":6662,",âĢĿ":6663,"Ġigno":6664,"ĠMimi":6665,"ĠÃºko":6666,"Ġmuseli":6667,"Ġav":6668,"ĠDÄĽ":6669,"ĠodejÃŃt":6670,"Ġkabel":6671,"Ġwheel":6672,"Ġhned":6673,"Ġholi":6674,"ĠAt":6675,"Ġrare":6676,"Ġprobudila":6677,"Ġloyal":6678,"Ġdig":6679,"Ġfamous":6680,"Ġstones":6681,"Ġcit":6682,"ĠZjist":6683,"ĠvzÃ¡c":6684,"ĠrozlouÄįila":6685,"ĠpÅĻichÃ¡ze":6686,"ĠvÅ¡ak":6687,"Ġruined":6688,"Ġpravid":6689,"zla":6690,"ĠpatÅĻÃŃ":6691,"Ġsword":6692,"ĠusmÃŃvajÃŃ":6693,"ec":6694,"Ġind":6695,"alÃ½":6696,"Ġrich":6697,"ĠpoÅ¾Ã¡dat":6698,"Ġdvo":6699,"ĠskÃ¡kala":6700,"Ġtape":6701,"Ġter":6702,"ĠÅĻeklo":6703,"Ġdrank":6704,"ever":6705,"Ġmarch":6706,"Å¾itÄĽ":6707,"appy":6708,"ĠlÃŃbila":6709,"Ġincredible":6710,"Ġposlouchal":6711,"ĠpotÄĽ":6712,"ĠAnnie":6713,"Ġrid":6714,"Ġqueen":6715,"Ġchybu":6716,"ination":6717,"Bu":6718,"Ġzrc":6719,"Ġcheck":6720,"ĠNes":6721,"Ġshows":6722,"buji":6723,"Ġmik":6724,"ĠSnow":6725,"hose":6726,"Ġadd":6727,"ĠSandy":6728,"Ġschovat":6729,"Ġjuicy":6730,"Ġced":6731,"Ġsoap":6732,"ĠskvÄĽlou":6733,"Ġtag":6734,"ĠposbÃŃ":6735,"krÃ¡s":6736,"ĠnecÃŃt":6737,"ĠudrÅ¾et":6738,"ĠumÃŃ":6739,"Ġjedli":6740,"Ġcovered":6741,"Ġplotu":6742,"ĠpodÄĽkovali":6743,"ĠkrÃ¡lÃŃÄįka":6744,"vÄĽÅĻitel":6745,"bat":6746,"ĠVzp":6747,"ĠrozlouÄįil":6748,"ĠbÄĽhala":6749,"ĠÅ¡per":6750,"Ġsailed":6751,"ĠmalÃ©mu":6752,"ĠvysokÃ©":6753,"Ġdish":6754,"Ġklad":6755,"Ġdeku":6756,"Ġaw":6757,"Ġballs":6758,"ĠdÅ¾ung":6759,"Ġpotkal":6760,"iÄįky":6761,"pes":6762,"ĠaniÅ¾":6763,"Ġteam":6764,"ĠsklÃ¡d":6765,"ĠHenry":6766,"ĠdÃ¡m":6767,"Ġlive":6768,"ĠbabiÄįce":6769,"Ġsteak":6770,"ĠnejoblÃŃbenÄĽjÅ¡ÃŃ":6771,"osie":6772,"ĠCharlie":6773,"ĠpÅ¯v":6774,"Ġdiscovered":6775,"ĠpÅĻedstÃŃrali":6776,"Ġdecide":6777,"Ġoby":6778,"ĠsedÃŃ":6779,"Ġmeasure":6780,"Ġrealised":6781,"Ġvytr":6782,"ĠpovÃŃdali":6783,"ĠUdÄĽlal":6784,"ĠVÄĽdÄĽli":6785,"mout":6786,"Ġpilot":6787,"Ġslov":6788,"ĠdenÃŃ":6789,"Ġvybrat":6790,"ĠJess":6791,"ĠzapomnÄĽl":6792,"ĠUkaz":6793,"Ġswan":6794,"Ġneeds":6795,"sit":6796,"ĠpÅĻemÃ½Å¡":6797,"ĠkrÃ¡snÃ©ho":6798,"ĠNechce":6799,"Ġplav":6800,"ĠsilnÃ©":6801,"Ġborrow":6802,"Ġprincez":6803,"Ġcoins":6804,"ĠpozornÄĽ":6805,"ĠVelkÃ½":6806,"ĠÅĻece":6807,"Ġkdykoliv":6808,"ĠhnÄĽdÃ½":6809,"ĠkÅĻiÄįet":6810,"ustÃŃ":6811,"ĠpoloÅ¾il":6812,"ÅĻata":6813,"Ġdovol":6814,"Ġstraw":6815,"Ġcontent":6816,"Ġchodit":6817,"io":6818,"Ġnohu":6819,"ĠuklÃŃz":6820,"ĠzvÃŃÅĻaty":6821,"Ġvrcholu":6822,"ĠpÅĻipravenÃ¡":6823,"ĠpÅĻinesl":6824,"Ġbranches":6825,"ĠmÃŃÄįe":6826,"Ġkart":6827,"ĠmoÅĻi":6828,"Ġcleaned":6829,"ĠSÃ¡ru":6830,"ĠoblÃ©kla":6831,"ĠnepÅĻe":6832,"Help":6833,"Ġpozdrav":6834,"Ġfine":6835,"ĠdveÅĻÃŃm":6836,"asing":6837,"ĠspÅĻÃ¡te":6838,"ĠBo":6839,"ately":6840,"Ġtowel":6841,"ĠLiz":6842,"Ġnedot":6843,"ĠMusÃŃÅ¡":6844,"ĠkÅĻeh":6845,"Ġnedost":6846,"ĠdvoÅĻe":6847,"Ġboys":6848,"Ġzamyslela":6849,"Ġub":6850,"PÅĻe":6851,"louchÃ¡":6852,"Ġboard":6853,"trolov":6854,"ĠvystraÅ¡enÃ¡":6855,"ĠdobÄĽ":6856,"ĠsmÄĽjÃŃ":6857,"liv":6858,"ĠbalÃ³nek":6859,"Ã¡do":6860,"Å¡ly":6861,"Ġpit":6862,"ÄĽnÃŃ":6863,"Well":6864,"mÃ¡Äį":6865,"ĠJednou":6866,"ĠdÄĽlali":6867,"Ġbalance":6868,"Ġtiger":6869,"ah":6870,"Ġvyrob":6871,"ĠvytvoÅĻit":6872,"urous":6873,"oÅĻ":6874,"ĠLu":6875,"Ġchicken":6876,"Ġbarn":6877,"Ġhal":6878,"Ġadventurous":6879,"Ġpev":6880,"Ġdiffic":6881,"ÄĽnou":6882,"ĠKate":6883,"Nech":6884,"Ġeye":6885,"ĠMillie":6886,"Ġuniver":6887,"Ġjoke":6888,"Ġoffered":6889,"rychle":6890,"ĠzasmÃ¡li":6891,"ĠvyÅ¡el":6892,"ĠmazlÃŃ":6893,"Ġbubbles":6894,"Ġklacek":6895,"Ġkolik":6896,"vest":6897,"ĠmÃ½d":6898,"ĠsedÄĽla":6899,"ĠNevÄĽdÄĽli":6900,"ĠKam":6901,"ĠVever":6902,"Ġodved":6903,"Ġnejrychle":6904,"Ġlifted":6905,"Ġtlust":6906,"NenÃŃ":6907,"utÃ¡le":6908,"Ġcolourful":6909,"ĠpÅĻÃŃjem":6910,"ĠTony":6911,"Ġbase":6912,"Ġmys":6913,"Ġnechala":6914,"ĠPt":6915,"Ġnor":6916,"ujte":6917,"ĠzavrtÄĽla":6918,"Ġnemocnice":6919,"Ġthick":6920,"ĠJakmile":6921,"ĠSm":6922,"ĠtanÄįit":6923,"Ġzkoum":6924,"mÄĽjÃŃ":6925,"ĠDÃŃvajÃŃ":6926,"ment":6927,"Ã¡Äį":6928,"ĠvydÄĽsila":6929,"Ġorganiz":6930,"nov":6931,"Ġfrown":6932,"Ġdifficult":6933,"Å¾nÃ©":6934,"adÄĽ":6935,"Ġturt":6936,"ĠOmlouvÃ¡m":6937,"Mummy":6938,"Yay":6939,"ĠNauÄįil":6940,"Ġdinosau":6941,"ĠsvÄĽ":6942,"Ġcheerful":6943,"Ġpump":6944,"Å¡le":6945,"Ġdolph":6946,"Ġorganized":6947,"ĠskvÄĽlÃ©":6948,"Ġstroj":6949,"Ġbottom":6950,"Ġzeptat":6951,"ĠDoufali":6952,"acht":6953,"Ġpobav":6954,"ĠKÅĻiÄįel":6955,"Ġhappening":6956,"alous":6957,"ĠneuvÄĽÅĻitel":6958,"ĠWhiskers":6959,"ĠKach":6960,"Ġunique":6961,"ail":6962,"Ġthin":6963,"ĠnÃ¡sledoval":6964,"Ġtank":6965,"ĠtoÄįila":6966,"Ġsout":6967,"iÄįka":6968,"Ġhose":6969,"erec":6970,"Ġstrome":6971,"Å¾ky":6972,"ĠtÅĻÃ¡st":6973,"ular":6974,"Ġfotku":6975,"Ġslzy":6976,"Ġknife":6977,"Ġjealous":6978,"ĠpÅĻesnÄĽ":6979,"ĠHledal":6980,"ĠtrÃ¡vu":6981,"ĠschrÃ¡":6982,"ĠBudu":6983,"Ġisland":6984,"ĠzpÄĽ":6985,"Ġciz":6986,"Ġhorko":6987,"Ġheal":6988,"Ġlepid":6989,"Ġtravel":6990,"ĠPomalu":6991,"echl":6992,"ĠFlo":6993,"Ġtet":6994,"ĠÅ¡pinavÃ½":6995,"ĠdÃ¡r":6996,"ĠvÄįel":6997,"Ġobejme":6998,"arage":6999,"ĠÅ¡Å¥astnou":7000,"Ġjam":7001,"ĠZpÃŃv":7002,"cil":7003,"Ġfright":7004,"ĠhranÃŃm":7005,"ĠdÃ¡vala":7006,"Ġcraw":7007,"Ġweird":7008,"Ġleopard":7009,"raci":7010,"Ġgarage":7011,"Ġmanaged":7012,"rÃ¡la":7013,"Ġzdi":7014,"Äıte":7015,"Ġtrub":7016,"bohem":7017,"ĠDanny":7018,"Ġhurts":7019,"Ġharm":7020,"ĠÅ¾lutou":7021,"Ġgolf":7022,"Ġvez":7023,"imed":7024,"Ġpencil":7025,"ĠOstatnÃŃ":7026,"ĠMiu":7027,"ond":7028,"ĠoÅĻe":7029,"ĠpÅĻin":7030,"Ġsklouz":7031,"ĠzÃ¡d":7032,"ĠpÃ¡":7033,"Å¡enÃŃ":7034,"uce":7035,"Ġtrouby":7036,"ĠÅ¡Å¥astnÃ½m":7037,"Ġonce":7038,"ĠvÄĽÅ¾e":7039,"Ã¡sled":7040,"Ġpochop":7041,"klÃ¡d":7042,"vÃ©ho":7043,"hlÃ©dli":7044,"Ġmagnet":7045,"eper":7046,"ĠstranÄĽ":7047,"port":7048,"ĠMuse":7049,"Ġlearning":7050,"Ġcrawled":7051,"Ġrespekt":7052,"ĠobyÄįej":7053,"ĠzelenÃ½":7054,"Ġcircle":7055,"Ġplakala":7056,"Ġsell":7057,"ĠBun":7058,"Ġmim":7059,"ĠtÄĽlo":7060,"ĠzavÅĻela":7061,"Ġberries":7062,"Ġsaying":7063,"Ġztrac":7064,"Ġplaval":7065,"ĠzÃ¡bavnÃ½ch":7066,"ready":7067,"Ġvejce":7068,"ĠdÅ¯leÅ¾itou":7069,"Ġkindness":7070,"ĠskÅĻÃŃÅĪ":7071,"ĠJsme":7072,"oda":7073,"ĠMaria":7074,"ĠPouÅ¾ÃŃv":7075,"uth":7076,"ĠhladovÃ½":7077,"Ġballoons":7078,"Ġtough":7079,"ured":7080,"Ġotcem":7081,"echan":7082,"ĠplnÃ©":7083,"ĠgarÃ¡":7084,"ĠDÄĽlajÃŃ":7085,"dÄĽle":7086,"ĠhrubÃ½":7087,"Ġchase":7088,"Ġang":7089,"ĠzÃ¡pad":7090,"Ġmighty":7091,"Ġshake":7092,"Ġbald":7093,"Ġpointing":7094,"Ġsquee":7095,"umbled":7096,"Ġzne":7097,"Ġfavour":7098,"Ġjewel":7099,"ĠodmÄĽ":7100,"ĠkÅĻiÄįeli":7101,"Ġbratra":7102,"Ġprovaz":7103,"ĠKoc":7104,"ĠÄįistÃ©":7105,"Ġapo":7106,"Ġnab":7107,"Ġdostane":7108,"ĠnÄĽkomu":7109,"Ġboot":7110,"Ã¡lek":7111,"Em":7112,"ges":7113,"Ġlouder":7114,"ĠPopadla":7115,"ĠjeskynÄĽ":7116,"ĠutÃŃkat":7117,"Ġodm":7118,"Ġstane":7119,"ĠpÃŃsk":7120,"eri":7121,"Ġadded":7122,"ĠTentokrÃ¡t":7123,"una":7124,"Ġspun":7125,"Ġnosy":7126,"Ġfour":7127,"Ġbatter":7128,"Ġblok":7129,"Ġpenny":7130,"ĠholÄįiÄįce":7131,"Ġguit":7132,"ĠVÅ¡echno":7133,"ĠStrom":7134,"Ġguess":7135,"imp":7136,"Ġharder":7137,"Ġstod":7138,"ĠHarry":7139,"Ġalready":7140,"Ġapolog":7141,"head":7142,"ĠÃºÅ¾asnÃ©ho":7143,"Ġedge":7144,"hlÃŃÅ¾el":7145,"ĠbÃ¡je":7146,"ĠzlobivÃ½":7147,"tÄĽjÃŃ":7148,"alk":7149,"ĠUvÄĽdomil":7150,"cla":7151,"Ġclu":7152,"Ġbrouk":7153,"ĠpÅĻÃ¡la":7154,"ĠmilujÃŃ":7155,"ĠRed":7156,"ĠvyhrÃ¡t":7157,"ley":7158,"usual":7159,"Ġnorm":7160,"Ġpohled":7161,"Ġwhale":7162,"eru":7163,"ĠzÃ¡bavnÄĽ":7164,"Ġdizzy":7165,"Ġlibr":7166,"Ġlift":7167,"Ġbump":7168,"ĠblokÅ¯":7169,"How":7170,"ĠNemÄĽli":7171,"Ġfavourite":7172,"Ġunusual":7173,"ĠrÃ½":7174,"Ġhotel":7175,"ĠÅ¡tÄĽkal":7176,"Ġsuccessful":7177,"Ġenjoying":7178,"Å¡tÃŃ":7179,"Ġskrom":7180,"Ġodpad":7181,"ĠpeÅĻÃŃ":7182,"ĠsnÄĽhulÃ¡ka":7183,"ĠÄįty":7184,"Ġzelenou":7185,"jdou":7186,"ĠbÃ¡t":7187,"ilt":7188,"gged":7189,"Ġsmoke":7190,"ĠtvÃ¡ÅĻe":7191,"Ġhats":7192,"Ġslon":7193,"ÅĻÃ¡s":7194,"onged":7195,"Ġbelonged":7196,"Ġzab":7197,"ĠcÃŃ":7198,"Ġchcete":7199,"Ġgrace":7200,"ĠzvÄĽtÅ¡":7201,"voÅĻenÃŃ":7202,"ĠTimova":7203,"jeli":7204,"Ġwrapped":7205,"Ġstrawber":7206,"ĠTu":7207,"Ġacce":7208,"Ġduhu":7209,"Ġimpressed":7210,"Ġdar":7211,"ĠÅ¡irokÃ½":7212,"Ġyell":7213,"Ġmarket":7214,"ĠTru":7215,"Ġtrucks":7216,"Ġzastavit":7217,"Ġgiving":7218,"lip":7219,"Ġgrown":7220,"ĠnevrÃ¡t":7221,"Ġrece":7222,"ĠsÃŃÅ¥":7223,"ĠlÃŃbit":7224,"ĠkoÅĻ":7225,"Ġkoule":7226,"ĠdozvÄĽ":7227,"Ġbrouky":7228,"ĠknÃŃ":7229,"Ġteplo":7230,"Ġtrunk":7231,"Ġlaughs":7232,"Ġnormal":7233,"Ġbounce":7234,"ĠpÅĻÃŃteli":7235,"ĠKone":7236,"Ġkreslila":7237,"ĠhonÄĽnou":7238,"omene":7239,"ĠUsmÃŃvÃ¡":7240,"ĠsmÃ¡t":7241,"ĠptÃ¡kÅ¯":7242,"Ġgrand":7243,"chÃ¡zeli":7244,"ĠodpoÄįinout":7245,"emu":7246,"ĠletÄĽt":7247,"!\".":7248,"ĠuÄį":7249,"Ġears":7250,"eran":7251,"ĠprodavaÄį":7252,"illiant":7253,"Ġguitar":7254,"ĠMot":7255,"Ġloudly":7256,"ĠuslyÅ¡ÃŃ":7257,"Ġhero":7258,"ĠpyÅ¡nÃŃ":7259,"ĠrozzlobenÃ½":7260,"ĠDali":7261,"Ġsmal":7262,"anedlouho":7263,"ĠzÃ¡h":7264,"ĠZanedlouho":7265,"Ġveliko":7266,"Ġbanana":7267,"Ġignorant":7268,"Here":7269,"Ġuva":7270,"Ġpotrav":7271,"Ġboxes":7272,"Ġokno":7273,"ĠKocour":7274,"Ġproudly":7275,"Ġturtle":7276,"Ġbossy":7277,"nilo":7278,"Ġjeskyni":7279,"Ġsund":7280,"ĠdÃ¡lce":7281,"Ġgra":7282,"ĠmÃŃstnost":7283,"Ġcab":7284,"Ġbrilliant":7285,"okoli":7286,"ĠvÄĽtev":7287,"Ġscare":7288,"ĠPtÃ¡Äįek":7289,"Ġvylezl":7290,"ĠdomÃ¡":7291,"Ġcircles":7292,"Ġterri":7293,"Ġvesnici":7294,"ĠuÅ¾ÃŃvali":7295,"Ġchoose":7296,"ĠobjÃŃm":7297,"ĠkoÅ¡ÃŃk":7298,"ĠpeÄįlivÄĽ":7299,"Ġbrothers":7300,"ĠmedvÃŃdek":7301,"ĠpronÃ¡sled":7302,"Ġwhisp":7303,"ĠdÅ¾ungli":7304,"ĠVeverka":7305,"Ġdreamed":7306,"Ġagainst":7307,"Ten":7308,"aÄįku":7309,"Ġescape":7310,"Ġpovz":7311,"ĠMysleli":7312,"Ġposlu":7313,"Å¾u":7314,"ĠPomÃ¡h":7315,"ĠteplÃ½":7316,"alho":7317,"NevÃŃm":7318,"Ġinvited":7319,"Ġgoat":7320,"ĠKat":7321,"Ġskin":7322,"Ach":7323,"Ġbon":7324,"ĠkonÄĽ":7325,"ĠnÃ¡sledovala":7326,"ĠÅ¡kole":7327,"Ġbirdie":7328,"Ġhelps":7329,"pokoj":7330,"ĠKdy":7331,"Ġhrnec":7332,"Ġcompet":7333,"Ġjack":7334,"ĠzelenÃ¡":7335,"ĠLo":7336,"ĠpotÅĻeboval":7337,"ĠpomÃ¡hal":7338,"Ġodnesl":7339,"Ġlaser":7340,"ĠskonÄįila":7341,"Ġunif":7342,"kujÃŃ":7343,"Ġslep":7344,"malo":7345,"Ġsuit":7346,"Ġutr":7347,"Ġfrightened":7348,"Ġsilnici":7349,"Ġkluk":7350,"Ġpainting":7351,"Ġmeans":7352,"ĠNÃ¡sled":7353,"Ġbalan":7354,"Ġtma":7355,"Ġstep":7356,"ĠzlÃ¡":7357,"ĠTolik":7358,"ĠokolÃŃ":7359,"Ġkocour":7360,"oza":7361,"ĠvytÃ¡hl":7362,"ĠjemnÃ½":7363,"Ġflash":7364,"Ġstream":7365,"ĠSh":7366,"Ġodva":7367,"ĠJackovi":7368,"ĠvÃ½t":7369,"ĠdÃ¡val":7370,"fast":7371,"Ġdepend":7372,"Ġsafely":7373,"Ġslipped":7374,"Ġholka":7375,"ĠPap":7376,"bborn":7377,"Ġbuttons":7378,"Ġpohov":7379,"ĠvzdÃ¡t":7380,"ĠÄįasto":7381,"Ġotci":7382,"ula":7383,"ĠÄįt":7384,"Ġhoupat":7385,"Ġstubborn":7386,"ĠpÅ¯":7387,"hajÃŃ":7388,"ĠVoda":7389,"ĠBa":7390,"mlouvajÃŃ":7391,"Ġsnee":7392,"olish":7393,"drav":7394,"ĠnebÃ¡la":7395,"ses":7396,"Ġcrayon":7397,"ĠbÃŃlÃ½":7398,"Ġcart":7399,"Ġkusy":7400,"ĠsedÄĽl":7401,"Ġdorazila":7402,"Vypad":7403,"Ġsova":7404,"Ġvynd":7405,"Ġwalls":7406,"Ġancient":7407,"Ġcabin":7408,"Ġwake":7409,"Ġvaluable":7410,"Ġbreakfast":7411,"Ġhappiness":7412,"Ġstudy":7413,"Ġohromena":7414,"edient":7415,"rÄįil":7416,"Ġpomeran":7417,"ĠNevÄĽdÄĽla":7418,"Ġzebra":7419,"ĠpÅ¯jdeme":7420,"Ġsni":7421,"ĠtanÄįila":7422,"Ġbonb":7423,"Ġclay":7424,"aru":7425,"Ġvideo":7426,"tting":7427,"Ġfoolish":7428,"Ġknows":7429,"Mary":7430,"Ġnotice":7431,"ĠkrÃ¡snÃ½ch":7432,"ĠvzpomÃŃn":7433,"aked":7434,"ĠucÃŃtil":7435,"Ġdelic":7436,"Ġgraceful":7437,"Ġfalls":7438,"Ġtanc":7439,"ĠvybÄĽhla":7440,"ovÃŃd":7441,"Ġstri":7442,"Ġfridge":7443,"ĠsbÃŃrat":7444,"skÃ©ho":7445,"ĠlÃŃz":7446,"okoliv":7447,"Ġtvrdohla":7448,"Ġletad":7449,"Ġbarvami":7450,"ĠjednÃ©":7451,"ĠhrdÄĽ":7452,"ĠPoloÅ¾ila":7453,"ating":7454,"ĠÅ¡Ã¡lek":7455,"Ġmop":7456,"ĠvÄįela":7457,"Ġnicely":7458,"Au":7459,"ĠÅ¾Ã¡dnÃ½":7460,"Ġmem":7461,"Ġkalho":7462,"ĠskonÄįil":7463,"ĠrozbÃŃt":7464,"Ġfat":7465,"Ġnechci":7466,"Ġshape":7467,"Ġdesign":7468,"nky":7469,"Ġfier":7470,"ĠbanÃ¡n":7471,"Ġmovie":7472,"ĠrodiÄįÅ¯m":7473,"fou":7474,"Ġsvobod":7475,"Ġcudd":7476,"Ġupad":7477,"ks":7478,"Ġnah":7479,"ĠpÃŃsniÄįku":7480,"Ġstal":7481,"Ġrough":7482,"ĠsmutnÃ©":7483,"Ġcre":7484,"dÄĽlejme":7485,"ĠbarevnÃ½ch":7486,"sil":7487,"Ġdreams":7488,"Ġpohladit":7489,"ĠtÃ½m":7490,"ĠNebyla":7491,"Ġpovzd":7492,"ĠveÄįÃŃrek":7493,"ilov":7494,"ĠdÅ¾b":7495,"ÃŃmo":7496,"ado":7497,"Ġhouses":7498,"Ġclap":7499,"ĠucÃŃtila":7500,"ĠnÃ¡lep":7501,"Ġspl":7502,"Ġpochut":7503,"ĠrytÃŃ":7504,"Ġztratila":7505,"ĠHodnÄĽ":7506,"Ġoffice":7507,"Ġobedient":7508,"Ġdelicate":7509,"Ġodnesla":7510,"ĠmokrÃ½":7511,"Ġnarozeniny":7512,"Ġgrandpa":7513,"Ġjacket":7514,"ĠkrÃ¡snÄĽ":7515,"cou":7516,"Ġplu":7517,"ĠSnÄĽd":7518,"ĠbÃŃlÃ©":7519,"prav":7520,"Ġzlato":7521,"Ġexcla":7522,"ĠkolÃ¡Äįe":7523,"ĠUdÄĽlala":7524,"Ġtomato":7525,"ĠvesmÃŃ":7526,"Ġsuggested":7527,"Ġicy":7528,"ĠToday":7529,"ĠPoÅĻÃ¡d":7530,"ĠnÃ¡mi":7531,"ĠsalÃ¡t":7532,"ÄįnÃŃk":7533,"Ġcompetit":7534,"Ġhradu":7535,"Ġukliz":7536,"sila":7537,"oth":7538,"Ġwagon":7539,"Ġspinning":7540,"ĠnormÃ¡l":7541,"Ġzvon":7542,"Ġdosp":7543,"ĠkterÃ½mi":7544,"Ġshark":7545,"Ġneobvyk":7546,"Ġprsty":7547,"raÅĪ":7548,"ĠspatÅĻil":7549,"Ġlva":7550,"ĠpÃŃsnÄĽ":7551,"ĠkrÃ¡l":7552,"Ġdead":7553,"Ġexclaimed":7554,"ÃŃnÃ¡":7555,"ĠbuÄıte":7556,"ĠMÄĽ":7557,"ĠKoneÄįnÄĽ":7558,"Ġkinds":7559,"ĠvyskoÄįila":7560,"Ġwiped":7561,"Ġmixed":7562,"rage":7563,"kop":7564,"Ġshells":7565,"ĠrÅ¯Å¾ovou":7566,"Ġcrack":7567,"ĠodeÅ¡li":7568,"Ġcher":7569,"Ġuseful":7570,"ages":7571,"live":7572,"Ġpoured":7573,"Ġminer":7574,"Ġlights":7575,"Ġzob":7576,"Ġthoughtful":7577,"ĠznÃ¡m":7578,"Ġbolest":7579,"ĠcÃ¡":7580,"Ġlocked":7581,"ÄįÃŃst":7582,"Ġhodil":7583,"Ġzlat":7584,"Ġtools":7585,"ggie":7586,"Ġsounded":7587,"Ã¡tek":7588,"jela":7589,"ĠJames":7590,"ĠÅ¡ly":7591,"ĠosamÄĽlÃ¡":7592,"reen":7593,"ĠmokrÃ©":7594,"Ġaunt":7595,"ĠzvÃŃÅĻatÅ¯m":7596,"ĠrozzlobenÃ¡":7597,"Ġtuto":7598,"Ġkre":7599,"PÅĻestaÅĪ":7600,"Ġstove":7601,"ĠodpoÄįÃŃv":7602,"nÃŃho":7603,"Ġexplored":7604,"ĠdÃŃvku":7605,"Ġsnugg":7606,"ĠCelÃ½":7607,"Ġexcitedly":7608,"wards":7609,"Ġkuf":7610,"Ġfrag":7611,"che":7612,"ych":7613,"Ġsquash":7614,"henever":7615,"ĠpÅĻÃŃmo":7616,"ĠjistÃ¡":7617,"Ġtle":7618,"Ġplayful":7619,"ĠRosie":7620,"ĠzvlÃ¡d":7621,"ĠodvÃ¡Å¾nÃ½":7622,"Ġson":7623,"Ġkalu":7624,"Ġseb":7625,"Ġnohama":7626,"Ġfierce":7627,"ĠrozruÅ¡enÃ¡":7628,"ovÃ½ch":7629,"Ġtimes":7630,"Ġhlasem":7631,"ĠkouzelnÃ½":7632,"Ġjinak":7633,"Ġshadow":7634,"Ġpizzu":7635,"ĠpÅĻeÄįÃŃst":7636,"Ġrose":7637,"Ġbags":7638,"Ġnebyli":7639,"Ġpaml":7640,"ĠprovÃ¡zek":7641,"ĠsnÃŃd":7642,"Ġfountain":7643,"Ġkuli":7644,"ention":7645,"ĠnemÅ¯Å¾eÅ¡":7646,"vor":7647,"Ġjedine":7648,"Ġcam":7649,"ĠsluneÄį":7650,"ustili":7651,"Ġrozbil":7652,"hile":7653,"Å¡kod":7654,"Ġholub":7655,"Ġunlo":7656,"ontÃ¡":7657,"ĠvdÄĽÄįnÃŃ":7658,"Ġpohybovat":7659,"ĠbojÃŃ":7660,"Å¾il":7661,"Ġmodr":7662,"ĠkÅĻovÃŃ":7663,"Ġlow":7664,"ÅĻÃ¡":7665,"Ġthemselves":7666,"ĠpanovaÄį":7667,"ĠnÅ¯Å¾ky":7668,"zv":7669,"Ġstumbled":7670,"Ġrozbila":7671,"Ġped":7672,"Ġbushes":7673,"Å¯ru":7674,"ledne":7675,"ĠneÅ¡Å¥ast":7676,"zzy":7677,"ĠCar":7678,"Ġokra":7679,"ĠfÃ©r":7680,"Ġmali":7681,"anut":7682,"Ġshowing":7683,"Ġcover":7684,"Ġveverku":7685,"ĠrychlejÅ¡ÃŃ":7686,"Ġspoiled":7687,"ĠBÄĽÅ¾":7688,"Jen":7689,"ĠuprostÅĻed":7690,"Ġabove":7691,"ĠpÅĻev":7692,"Ġstup":7693,"Ġsmaller":7694,"arsh":7695,"Ġfingers":7696,"Ġznepokoj":7697,"ĠostrÃ©":7698,"Ġbojovat":7699,"Ġresc":7700,"ĠMe":7701,"jed":7702,"Ġindepend":7703,"Ġdotkla":7704,"ĠmÅĪam":7705,"ĠÅĻÃŃkal":7706,"eptÃ¡":7707,"ĠUvÄĽdomila":7708,"ĠpÅ¯jÄįit":7709,"Ġzapla":7710,"MyslÃŃ":7711,"Ġwitch":7712,"Ġchir":7713,"ĠprÅ¯zkum":7714,"ĠPrince":7715,"ĠzachrÃ¡nit":7716,"Ġperform":7717,"ĠObjal":7718,"ĠnahoÅĻe":7719,"Ã¡hu":7720,"Ġfragile":7721,"Ġdough":7722,"ĠPÅĻÃ¡tel":7723,"Ġdraho":7724,"ÄĽch":7725,"ĠsnÄĽdli":7726,"Ġdependable":7727,"Ġpiano":7728,"ĠRozum":7729,"ĠMÃŃsto":7730,"arth":7731,"Ġpej":7732,"Ġraced":7733,"ĠnevidÄĽli":7734,"oop":7735,"gen":7736,"Ġjezero":7737,"Ġraj":7738,"Ġeng":7739,"Ġslovo":7740,"Ġpostar":7741,"ĠÅ¾Ã¡bu":7742,"DobrÃ¡":7743,"ĠkaÅ¾dÃ©":7744,"Ġrode":7745,"Å¯ÅĪ":7746,"Ġhelmet":7747,"ĠpouÅ¾il":7748,"ormous":7749,"Ġroof":7750,"Äįilo":7751,"Ã¡lku":7752,"Ġnevr":7753,"ĠnezÃ¡v":7754,"Ġprint":7755,"Ġscrat":7756,"ĠJmenoval":7757,"Ġbrightly":7758,"Ġcesty":7759,"zlo":7760,"Ġpractice":7761,"ĠÄįÃŃst":7762,"Ġrozplakal":7763,"ĠzavÅĻel":7764,"Ġzeleninu":7765,"Ġclock":7766,"ĠhorkÃ©":7767,"ĠnebÃ¡l":7768,"Ġlol":7769,"Ġtm":7770,"Ġtur":7771,"Ġdelighted":7772,"Ġadmired":7773,"ĠnÃ¡hle":7774,"bled":7775,"ĠobjevovÃ¡nÃŃ":7776,"Ġenormous":7777,"Ġbuilt":7778,"Ġlaw":7779,"Ġhoop":7780,"Ġdechu":7781,"Ġnetr":7782,"Ġcounted":7783,"Ġkicked":7784,"Ġtyg":7785,"Ġjazy":7786,"Ġswe":7787,"letÄĽla":7788,"Ġchanged":7789,"ĠVyt":7790,"Ġcham":7791,"ĠPokaÅ¾dÃ©":7792,"Ġways":7793,"Ġshone":7794,"Ġkouli":7795,"Ġzabali":7796,"ĠvÄĽtve":7797,"Pomoc":7798,"Ġrat":7799,"Ġsink":7800,"ednÃŃ":7801,"ĠrÅ¯Å¾ovÃ½":7802,"Ġtwig":7803,"Ġstala":7804,"Ġlaskavost":7805,"Ġpala":7806,"ĠHla":7807,"Ġreminded":7808,"ĠJacka":7809,"Ġacorn":7810,"sech":7811,"Ġhammer":7812,"Ġindependent":7813,"rÃ¡b":7814,"Ġbitter":7815,"ĠMay":7816,"ĠpohÃ¡d":7817,"Ġsniff":7818,"ĠHledala":7819,"Ġtrump":7820,"ĠjakÃ½":7821,"Ã¡hne":7822,"Ġzmen":7823,"mbol":7824,"ĠblÃ¡t":7825,"ĠPetr":7826,"Ġtrumpet":7827,"Ġencou":7828,"ĠÅ¾el":7829,"ĠnezÃ¡vis":7830,"Ġjakou":7831,"Ġmrt":7832,"Ġusing":7833,"Ġhanded":7834,"ĠÅ¡pl":7835,"rella":7836,"Ġrozplakala":7837,"ĠrychlÃ¡":7838,"ĠvzdÃ¡l":7839,"Ġwhispered":7840,"Ġfotbal":7841,"mbrella":7842,"ĠoblÃŃbenÃ¡":7843,"Ġceduli":7844,"test":7845,"Ġsauce":7846,"Ġchose":7847,"omy":7848,"Ġmechan":7849,"ĠÅ¡t":7850,"ĠdruhÃ©mu":7851,"ĠnevÃŃm":7852,"Ġumbrella":7853,"Ġcone":7854,"zko":7855,"ĠMrs":7856,"Ġzad":7857,"Ġsolve":7858,"ĠpÅĻipojit":7859,"Ġstronger":7860,"Ġjinou":7861,"ĠdrÅ¾eli":7862,"lipop":7863,"Ġsteal":7864,"Ġjolly":7865,"ĠYour":7866,"ĠzÅ¯stali":7867,"ĠPoskak":7868,"Ġtunn":7869,"ĠHrajÃŃ":7870,"Ġserious":7871,"kontrolov":7872,"Ġbees":7873,"dÃ¡lo":7874,"cen":7875,"Ġbeak":7876,"Ġprovin":7877,"Ġcvr":7878,"chou":7879,"ĠVezme":7880,"Ġparrot":7881,"Ġstretch":7882,"Ġow":7883,"ĠVypadal":7884,"Ġtummy":7885,"Ġoriginal":7886,"Ġbrace":7887,"known":7888,"ĠZoe":7889,"Ġspor":7890,"Ġterrible":7891,"OmlouvÃ¡me":7892,"Ġautobus":7893,"ĠstÃ¡l":7894,"ĠÅĺidiÄį":7895,"Ġlollipop":7896,"Ġlouce":7897,"ĠsmÃŃch":7898,"Ġboats":7899,"ĠskonÄįili":7900,"Ġpainted":7901,"Ġprost":7902,"tec":7903,"Ġallowed":7904,"Ġsledovat":7905,"Alice":7906,"cet":7907,"zor":7908,"Ġenv":7909,"bud":7910,"ĠdrÃ¡":7911,"cel":7912,"ĠMaggie":7913,"Ġhairy":7914,"ĠnÃ¡pisem":7915,"ĠvybÄĽhl":7916,"Ġzast":7917,"Ġcokoliv":7918,"Ġdove":7919,"kajÃŃcÃŃ":7920,"elope":7921,"Ġsledoval":7922,"Ġcleaning":7923,"Ġpanda":7924,"ĠfontÃ¡":7925,"ĠsvÄĽtla":7926,"ĠtvarÅ¯":7927,"liable":7928,"ĠzÃ¡bavu":7929,"Ġodst":7930,"ĠÅ¾Ã¡dnou":7931,"uring":7932,"ĠskÅĻÃŃnÄĽ":7933,"Ġunknown":7934,"ĠvÄĽtviÄį":7935,"Ġpochout":7936,"ĠPÅĻines":7937,"ĠsdÃŃlenÃŃ":7938,"zie":7939,"Ġkoh":7940,"ĠFreddy":7941,"ĠhloupÃ©":7942,"Ġfinding":7943,"ĠDalÅ¡ÃŃ":7944,"Ġjoined":7945,"ĠbonbÃ³":7946,"Ġgasped":7947,"Ġguard":7948,"Ġleaving":7949,"nalo":7950,"Ġsta":7951,"Ġwrap":7952,"kro":7953,"hlÃŃÅ¾ela":7954,"Ġautu":7955,"Ġstrugg":7956,"Ġdust":7957,"Ġpotato":7958,"Ġbobule":7959,"Ã¡nÃŃm":7960,"ĠpovÄĽ":7961,"ĠlaskavÃ¡":7962,"Ġdoktor":7963,"Ġmetal":7964,"vÃ¡d":7965,"ĠWill":7966,"ĠzÃ¡bavnÃ©ho":7967,"Ġsalad":7968,"ĠhvÄĽzda":7969,"Ġbean":7970,"Ġkob":7971,"iew":7972,"Ġpicking":7973,"Ġpumpkin":7974,"ĠbalÃŃ":7975,"ĠtÅĻÃŃletÃ½":7976,"Ġmuffin":7977,"ĠspokojenÄĽ":7978,"Ġfre":7979,"vedli":7980,"ĠÅ¾al":7981,"See":7982,"romÃ¡":7983,"inary":7984,"ĠmÃ¡te":7985,"Ã¡hli":7986,"Ġclum":7987,"Ġyet":7988,"ĠtiÅ¡e":7989,"ĠstrÃ½":7990,"Ġplast":7991,"Ġsymbol":7992,"Å¡nÃ¡":7993,"BuÄı":7994,"stroj":7995,"ĠClara":7996,"Ġdelf":7997,"ĠpolÃŃbila":7998,"ĠMÃ¡te":7999,"ĠÄįekali":8000,"ĠDÄĽlÃ¡":8001,"ĠPodÄĽkovali":8002,"ĠJan":8003,"alend":8004,"ĠMilujeme":8005,"ĠdeÅ¡tnÃŃ":8006,"Ġhalf":8007,"ĠnÃ¡dhernÃ©":8008,"ĠOm":8009,"Ġdolphin":8010,"robe":8011,"Ġreliable":8012,"Ġgem":8013,"Ġview":8014,"zdÄĽ":8015,"Ġvoj":8016,"lezli":8017,"tern":8018,"Ġopravd":8019,"Ġur":8020,"Ġdoesn":8021,"ĠNÄĽkterÃ©":8022,"Ġdiamond":8023,"shing":8024,"Ġthose":8025,"gular":8026,"ĠZvÃŃÅĻata":8027,"ĠslunÃŃÄįku":8028,"ĠvolÃ¡":8029,"Ġforth":8030,"tti":8031,"Ġdych":8032,"ĠoblÃŃben":8033,"ĠmokrÃ¡":8034,"hetti":8035,"aghetti":8036,"ĠnovÃ½mi":8037,"ĠnoÄįnÃŃ":8038,"ĠPanÃŃ":8039,"ĠhotovÃ©":8040,"ĠzdÅĻÃŃmnout":8041,"ĠStÅĻÃŃd":8042,"Ġadvice":8043,"ĠSlÃŃb":8044,"stiv":8045,"Ġjok":8046,"Å¡elo":8047,"gers":8048,"ĠTam":8049,"Ġhay":8050,"Äįnou":8051,"Ġnemus":8052,"Ġflu":8053,"ĠroztomilÃ©":8054,"Ġrov":8055,"ĠÄįÃ¡st":8056,"Ġmodern":8057,"Ġbarber":8058,"Ġbram":8059,"ĠpotÅĻebujÃŃ":8060,"com":8061,"Ġthinking":8062,"ĠPodÃŃvej":8063,"rovat":8064,"ĠÅ¾Ã¡r":8065,"ĠsdÃŃle":8066,"ĠpokÃ½v":8067,"Ġrespektovat":8068,"Ġrecord":8069,"Ġholds":8070,"Ġpirate":8071,"Ġregular":8072,"ĠhodnÃŃ":8073,"ĠbÅĻehu":8074,"ĠMoc":8075,"Ġyarn":8076,"Ġstat":8077,"ĠprÃ¡vÄĽ":8078,"ĠzkusÃŃ":8079,"Ġpohnout":8080,"Ġcreate":8081,"ĠDoufala":8082,"Ġpatch":8083,"atÃ½":8084,"ĠJoh":8085,"Ġclumsy":8086,"Ġsleeping":8087,"Ġsrst":8088,"ĠdÃ¡vat":8089,"ĠvzruÅ¡enÄĽ":8090,"ĠGrandpa":8091,"Ġzakop":8092,"zÃŃch":8093,"Ġstupid":8094,"ĠnenaÅ¡el":8095,"ĠvÄį":8096,"eb":8097,"ĠsouÄį":8098,"Ġprep":8099,"ilty":8100,"Ġnosil":8101,"Ġsearching":8102,"Äįnost":8103,"ĠÃºtes":8104,"Ġstairs":8105,"Ġrushed":8106,"ĠhloupÃ¡":8107,"Ġwealthy":8108,"ĠproblÃ©my":8109,"dce":8110,"Å¯Å¯Å¯Å¯":8111,"ĠWhenever":8112,"ĠrozbitÃ½":8113,"Ġguilty":8114,"Ġrostliny":8115,"ĠkamarÃ¡dce":8116,"Ġtelling":8117,"ĠprojÃŃÅ¾":8118,"ĠhvÄĽzdu":8119,"Ġpeanut":8120,"Ġdrahokam":8121,"Ġcheap":8122,"ĠnejvÄĽt":8123,"Ġspaghetti":8124,"ĠnejkrÃ¡s":8125,"ÃŃtko":8126,"Ġgoose":8127,"ghter":8128,"ĠÅ¡ÃŃl":8129,"ĠdnÃŃ":8130,"ĠdeÅ¡ti":8131,"Ġnohou":8132,"Ġwoof":8133,"Ġdomova":8134,"indy":8135,"zet":8136,"ĠchlupatÃ½":8137,"Ġodhodla":8138,"ĠÅ¾ÃŃ":8139,"ied":8140,"Od":8141,"Äįitel":8142,"Ġletadla":8143,"ĠÅ½ila":8144,"Roz":8145,"Ġcompass":8146,"ĠkvÄĽtinami":8147,"ĠkterÃ©ho":8148,"Ġengine":8149,"Ġbavilo":8150,"ĠkrÃ©":8151,"Ġmonstrum":8152,"ĠZajÃŃmalo":8153,"under":8154,"ĠvÄĽtvi":8155,"Ġopens":8156,"Ġradosti":8157,"ĠdÅĻÃŃv":8158,"Ġdodr":8159,"Ġobejmout":8160,"Ġarrow":8161,"Å¡tÄĽv":8162,"ĠLoÄı":8163,"Ġvysko":8164,"Ġustar":8165,"Å¯Å¾eÅ¡":8166,"Ġstromech":8167,"ĠpÅĻÃ¡telstvÃŃ":8168,"Ġnezapomene":8169,"ĠmaliÄį":8170,"Ġfestiv":8171,"letÃ¡":8172,"ĠodvÃ¡Å¾nÃŃ":8173,"ĠkamarÃ¡dovi":8174,"tr":8175,"ĠSnowy":8176,"Ġsquare":8177,"ĠÅ¾ebÅĻÃŃku":8178,"Daisy":8179,"ĠbratÅĻi":8180,"Ġpopular":8181,"ĠOni":8182,"ĠblÃŃzkosti":8183,"iÅ¡tÄĽ":8184,"Ġcur":8185,"hion":8186,"ĠminutÃ¡ch":8187,"ĠomlouvajÃŃ":8188,"ric":8189,"Ġthunder":8190,"ĠpomÅ¯Å¾u":8191,"ĠpÅĻistÃ¡l":8192,"ĠZavola":8193,"ĠÄĮe":8194,"ĠnarozeninÃ¡m":8195,"lÃ©b":8196,"Ġkniha":8197,"achel":8198,"ĠÅ¡pa":8199,"ĠBear":8200,"Jenny":8201,"ĠRozbÄĽhl":8202,"ĠÅ¡paget":8203,"ĠodmÃŃt":8204,"mÄĽt":8205,"Ġnechut":8206,"ĠveÅ¡el":8207,"Ġneop":8208,"Ġcamera":8209,"Ġbeet":8210,"hip":8211,"Ġmysleli":8212,"ĠsnadnÃ©":8213,"Ġcrazy":8214,"ĠuklÃŃzet":8215,"Ġangel":8216,"ĠmalÃ½m":8217,"hodil":8218,"Ġdriving":8219,"rocod":8220,"Ġkoupili":8221,"Sbohem":8222,"ĠpÅĻedmÄĽt":8223,"ĠrychlÃ©":8224,"ĠnejkrÃ¡snÄĽjÅ¡ÃŃ":8225,"ĠvÃ¡Å¡":8226,"Ġshiver":8227,"Ġwashed":8228,"has":8229,"ĠtoÄįit":8230,"Ġthirst":8231,"Ġcarrying":8232,"Ġstage":8233,"ĠÃºsta":8234,"ĠÄįÃŃm":8235,"romÃ¡Å¾d":8236,"tÃ¡nÃŃ":8237,"Ġdcer":8238,"ĠzpÅ¯sobem":8239,"kalo":8240,"ĠTrue":8241,"Ġkoberec":8242,"Ġmissing":8243,"umbers":8244,"Ġfarmu":8245,"ĠzaÄįne":8246,"Ġsparkled":8247,"Ġvelry":8248,"Ġchichot":8249,"Ġdull":8250,"Ġvlny":8251,"Ġfriendship":8252,"Ġtruth":8253,"nesl":8254,"Ġseeds":8255,"ĠÅ¾ebÅĻÃŃk":8256,"Ġvzduch":8257,"Ġflexible":8258,"ĠkamenÅ¯":8259,"ĠkrabiÄįku":8260,"usi":8261,"Ġcomb":8262,"Ġdeliver":8263,"Ġtied":8264,"Ġoslavu":8265,"Ġpanenkou":8266,"Ġlibrary":8267,"ĠmÄĽkkÃ¡":8268,"ĠstvoÅĻenÃŃ":8269,"Ġimpressive":8270,"Ġwander":8271,"Ġmeal":8272,"ĠpÅĻichÃ¡zejÃŃcÃŃ":8273,"ĠoÄįÃŃ":8274,"Ġcareless":8275,"Ġstack":8276,"host":8277,"keeper":8278,"ĠÅ¡pinavÃ¡":8279,"ĠÄįÃ¡sti":8280,"ÅĻem":8281,"ĠÄįtyÅĻi":8282,"fish":8283,"Go":8284,"Ġpacka":8285,"Ġfresh":8286,"Ġzvonek":8287,"ĠsloÅ¾":8288,"Ġnikde":8289,"ÅĻovat":8290,"amat":8291,"Ġimagined":8292,"Ġshel":8293,"Ġhlava":8294,"ĠpodivnÃ½":8295,"ĠklouzaÄįku":8296,"Ġnature":8297,"Ġpersist":8298,"Ġending":8299,"ĠMohli":8300,"ĠÅĻeknou":8301,"Ġreward":8302,"Ġdokto":8303,"Ġdestro":8304,"ision":8305,"Ġhandle":8306,"ĠÅ¾alud":8307,"ĠmÄĽsta":8308,"Ġopera":8309,"ĠÅ¾vÃ½ka":8310,"Ġpastelky":8311,"rane":8312,"Ġrubbed":8313,"Ġingredients":8314,"von":8315,"ĠKachna":8316,"ĠvaÅ¡i":8317,"Ġdreaming":8318,"Kde":8319,"Ġsouhlasili":8320,"Ġbill":8321,"Ã¡ÅĻi":8322,"ĠhÃ½":8323,"ĠPokud":8324,"Ġtmav":8325,"Ġdestroy":8326,"Ġshocked":8327,"par":8328,"ĠÄįernÃ½":8329,"Ġload":8330,"Ġprize":8331,"igail":8332,"ĠkamarÃ¡dkou":8333,"Ġsudden":8334,"ĠObjÃŃmÃ¡":8335,"awn":8336,"Ġvi":8337,"Ġcrocod":8338,"ĠBohu":8339,"Ġpattern":8340,"okÃ¡zal":8341,"PÅĻi":8342,"Ġtab":8343,"ĠpÅ¯vab":8344,"Ġplnou":8345,"Ġdru":8346,"ĠhoupaÄįky":8347,"Ġcharm":8348,"ĠautÃŃÄįkem":8349,"ĠslabÃ½":8350,"ĠChcete":8351,"ĠvÄĽcem":8352,"Ġzaslechla":8353,"ĠvÄĽr":8354,"Ġpige":8355,"Ġcompassion":8356,"PÃ¡ni":8357,"Ġcestou":8358,"Benny":8359,"ĠZkou":8360,"ĠsemÃŃn":8361,"Ġenth":8362,"enu":8363,"rch":8364,"ĠukÃ¡Å¾e":8365,"ĠstaÅĻec":8366,"Ġvrace":8367,"ĠtÄĽs":8368,"Ġflashlight":8369,"Ġcomple":8370,"ĠSÃ¡ÅĻe":8371,"Ġprovinile":8372,"cco":8373,"Ġsadly":8374,"ĠkoÄįce":8375,"Ġthirsty":8376,"ĠpÅĻibÄĽhla":8377,"ĠpomÃ¡hÃ¡":8378,"ĠhoÅĻ":8379,"ĠDrak":8380,"ĠâĢ":8381,"ĠnavÅ¡tÄĽv":8382,"ither":8383,"ĠstÃŃ":8384,"ĠvÅ¯z":8385,"ĠvychutnÃ¡":8386,"MyslÃŃm":8387,"If":8388,"Ġozdob":8389,"anna":8390,"ĠÄįarodÄĽj":8391,"Ġkov":8392,"Ġstranger":8393,"ĠzranÄĽnÃ½":8394,"ĠsmÄĽje":8395,"Ġwheels":8396,"kÃ¡Å¾u":8397,"Ġrepair":8398,"ĠHledali":8399,"Ġdcera":8400,"ĠMotÃ½l":8401,"Ġenthusi":8402,"ovÃ½mi":8403,"ĠzÃ¡ÅĻivÃ©":8404,"ÄįÅĪ":8405,"ĠpÅĻÃŃro":8406,"ĠmÄĽlo":8407,"Ġchovat":8408,"ĠzÃ¡bavnÃ¡":8409,"ĠpÅĻedstÃŃrala":8410,"Ġreading":8411,"Ġnumbers":8412,"any":8413,"Ġearly":8414,"ĠdenÃŃk":8415,"Ġpant":8416,"pu":8417,"ĠbrÃ¡t":8418,"Ġchat":8419,"ĠsedÄĽt":8420,"Ġdiscover":8421,"Ġnajdeme":8422,"und":8423,"ract":8424,"Ġhunter":8425,"Ġvybrala":8426,"ĠnemÅ¯Å¾u":8427,"Ġpeeked":8428,"Ġroztr":8429,"ĠkaÅ¾dÃ©mu":8430,"cted":8431,"ĠkamarÃ¡dem":8432,"ÅĻÃ¡p":8433,"Ġbutterflies":8434,"ĠdÄĽtem":8435,"Ġmailbox":8436,"Ġchud":8437,"Ġcrystal":8438,"ĠtÃ©to":8439,"ĠkuÅĻe":8440,"ĠÅ¡tÃŃ":8441,"Ġmohly":8442,"Ġzasek":8443,"Ġnejrychleji":8444,"ĠUÄįitel":8445,"ĠknoflÃŃ":8446,"ĠprÃ¡t":8447,"ĠLook":8448,"ĠautÄĽ":8449,"Ġbicy":8450,"Ġmoci":8451,"ief":8452,"Ġdotkl":8453,"ĠSlyÅ¡ÃŃ":8454,"Ġspilled":8455,"Ġschodech":8456,"Ġkuku":8457,"ÃŃtÄĽz":8458,"ĠnechtÄĽli":8459,"ĠzakÅĻiÄįel":8460,"Ġsoucit":8461,"Ġbracelet":8462,"ĠseÅ¾":8463,"ĠpÅĻekvapeni":8464,"Ġkoupil":8465,"ggy":8466,"ĠnemÅ¯Å¾eme":8467,"lÃ¡dÄĽ":8468,"ÅĻedu":8469,"ĠvyÄįistit":8470,"ĠoblÃŃbenÃ½":8471,"Ġjezeru":8472,"ĠDÃŃval":8473,"ĠspokojenÃŃ":8474,"Ġrug":8475,"ĠmeÄį":8476,"ĠpoÅ¡tovnÃŃ":8477,"KdyÅ¾":8478,"ĠNemÅ¯Å¾ete":8479,"ĠtÄĽst":8480,"ĠbalÃ³nky":8481,"Ġzna":8482,"Ġstops":8483,"Ġupadl":8484,"NemÃ¡Å¡":8485,"Ġchobot":8486,"ĠnormÃ¡lnÃŃ":8487,"ĠuvidÃŃme":8488,"Ġzaklep":8489,"ustÃ¡le":8490,"ĠmalÃŃ":8491,"Ġcomput":8492,"ĠTvrdÄĽ":8493,"ÃŃnajÃŃ":8494,"ĠPostav":8495,"ĠProto":8496,"ĠmilÃ©":8497,"Ġahead":8498,"ĠRuby":8499,"Ġdiamant":8500,"Ġspring":8501,"ĠzazpÃŃv":8502,"bble":8503,"Å¡ept":8504,"Ġanxi":8505,"ĠmladÃ¡":8506,"Ġsorts":8507,"ĠMummy":8508,"Ġorder":8509,"Ġtowers":8510,"Ġwrit":8511,"Ġhumble":8512,"ĠnatÃ¡hla":8513,"Ġobject":8514,"ĠSnaÅ¾ili":8515,"Ġbent":8516,"ĠBudeme":8517,"Ġwing":8518,"Ġwarned":8519,"ĠvÃ¡Å¾nÄĽ":8520,"Å¡nÃ©":8521,"Ġpengu":8522,"Ġintel":8523,"ĠWhile":8524,"ÃŃÃŃÃŃÃŃ":8525,"ĠÅ¡tÄĽd":8526,"astic":8527,"Ġnarazila":8528,"ĠuÄįila":8529,"Ġspoke":8530,"Ġearth":8531,"ĠnejvÄĽtÅ¡ÃŃ":8532,"Ġfaz":8533,"Ġwindows":8534,"Ġpow":8535,"Ġvyst":8536,"Ġovce":8537,"ĠzmatenÃ½":8538,"Ġuncom":8539,"irled":8540,"Ġposkakovala":8541,"Ġfasc":8542,"Ġzranit":8543,"rop":8544,"bula":8545,"ĠnÃ¡moÅĻ":8546,"ĠkterÃ©m":8547,"Ġplaced":8548,"ĠuspoÅĻÃ¡dat":8549,"iches":8550,"ĠochrÃ¡":8551,"ĠtichÃ½":8552,"Ġuncomfortable":8553,"ĠBetsy":8554,"ĠnetrpÄĽli":8555,"Ġzhluboka":8556,"Ġrodiny":8557,"Ġbadly":8558,"ĠmuÅ¡le":8559,"ĠOllie":8560,"ĠsnÃŃdani":8561,"padlo":8562,"Ġdni":8563,"Ġnapravit":8564,"ĠnadÅ¡enÃ©":8565,"Ġanxious":8566,"Ġkalhoty":8567,"rko":8568,"ĠzahrajÃŃ":8569,"Ġporan":8570,"Ġdoktorovi":8571,"Ġosob":8572,"Ġsunflower":8573,"Ġvylezla":8574,"ĠTina":8575,"Ġslides":8576,"ĠnÃ¡vÅ¡tÄĽvu":8577,"iest":8578,"Ġolder":8579,"chÃ¡zela":8580,"ĠHrÃ¡la":8581,"ĠMohl":8582,"Ġscale":8583,"Ġbiggest":8584,"Ġjdeme":8585,"ĠSmÄĽjÃŃ":8586,"Ġbloom":8587,"ĠMiloval":8588,"ĠpÅĻÃ¡l":8589,"Ġlah":8590,"Ġkousnout":8591,"ĠostatnÃŃch":8592,"Ġptala":8593,"Ġflute":8594,"ĠflÃ©t":8595,"Ġspoj":8596,"ĠMilly":8597,"avid":8598,"ĠnevÅ¡im":8599,"ĠvÃ½chod":8600,"Ġzaplat":8601,"radla":8602,"ĠtÄĽsto":8603,"ĠvÃ½jimeÄįnÃ½":8604,"Ġscoot":8605,"Ġgrowing":8606,"Ġstatue":8607,"ĠprÅ¯":8608,"Ġtvrdou":8609,"med":8610,"lak":8611,"ĠkoÄįky":8612,"Ow":8613,"ĠpouÅ¾ila":8614,"valo":8615,"pet":8616,"Ġcounting":8617,"Ġcooking":8618,"ikes":8619,"ĠÅ¾lutÃ¡":8620,"ĠzÃ¡vodit":8621,"Ġbeetle":8622,"ĠÅ¡lo":8623,"ĠKÅĻiÄįeli":8624,"Ġscat":8625,"Ġcelebrate":8626,"ict":8627,"uÅ¥":8628,"Ġtunnel":8629,"Ġdrop":8630,"fung":8631,"Ġremain":8632,"Ġliz":8633,"ĠnÃ¡pla":8634,"ĠsobeckÃ½":8635,"ĠnÃ¡dobu":8636,"Ġchytila":8637,"ĠsendviÄįe":8638,"Ġbull":8639,"Ġcenu":8640,"bour":8641,"Ġribb":8642,"ĠholÄįiÄįky":8643,"Ġcoco":8644,"Ġer":8645,"Ġdesk":8646,"ĠobjÃŃmajÃŃ":8647,"ĠpÅĻikyvujÃŃ":8648,"omeÅĪ":8649,"ĠmnÄĽ":8650,"Ġmole":8651,"Ġsofa":8652,"Ġpho":8653,"Ġklidu":8654,"Ġcupboard":8655,"ĠtuÅ¾ku":8656,"ĠskoÅĻÃ¡p":8657,"Ġharmless":8658,"ĠPenny":8659,"ĠkÅĻi":8660,"ĠfarmÃ¡":8661,"ĠVrÃ¡tili":8662,"ĠzÃ¡mek":8663,"ĠtvÃ©":8664,"ĠÄįokolÃ¡du":8665,"buz":8666,"ĠnÃ¡ÅĻ":8667,"ĠruÄįnÃŃk":8668,"Ġbeauty":8669,"ĠJacku":8670,"ĠdÅ¾bÃ¡n":8671,"sme":8672,"ĠsprÃ¡vnÄĽ":8673,"inde":8674,"ĠDoufajÃŃ":8675,"ĠLil":8676,"Ġvidli":8677,"ĠpÅĻeÄįet":8678,"ĠvyletÄĽl":8679,"Ġpozorovali":8680,"Ġpear":8681,"cech":8682,"ora":8683,"Ġvalue":8684,"omoc":8685,"ĠvÄĽcech":8686,"ĠHere":8687,"ĠsladkÃ¡":8688,"ĠpÅĻipraveni":8689,"ĠokamÅ¾itÄĽ":8690,"Ġnurse":8691,"Ġdeaf":8692,"ĠdÃŃvce":8693,"ĠmluvÃŃ":8694,"Ġzpoza":8695,"Ġpersistent":8696,"ĠUsly":8697,"Ġodve":8698,"ates":8699,"Ġtug":8700,"ĠÄįetla":8701,"While":8702,"Ġhung":8703,"ĠneÅ¡kod":8704,"Ġbeep":8705,"Ġhist":8706,"ĠtakovÃ©":8707,"Ġshut":8708,"Ġcrocodile":8709,"ĠdÄĽtmi":8710,"ĠvyÅĻeÅ¡it":8711,"ĠkeÅĻ":8712,"Ġleh":8713,"Ġcrane":8714,"padl":8715,"Ġjumps":8716,"Ġtrack":8717,"ĠnÃ¡pomoc":8718,"Ġghost":8719,"Ġneposlouchala":8720,"vÃ©st":8721,"Ġgifted":8722,"ĠpÃ©":8723,"Ġzub":8724,"ĠpoÅ¾":8725,"Ġcharming":8726,"ĠpÅĻestaÅĪ":8727,"VidÃŃÅ¡":8728,"Ġrefused":8729,"Ġtaxi":8730,"ĠGive":8731,"louzl":8732,"ĠdotÃ½kat":8733,"Ġnakr":8734,"Ġnames":8735,"Ġpracovala":8736,"Å¾ce":8737,"Ġcourage":8738,"Ġbul":8739,"ĠKdykoli":8740,"ĠumÃ½t":8741,"okÃ¡Å¾e":8742,"ĠlÅ¾":8743,"Ġpony":8744,"rove":8745,"Ġser":8746,"ĠpikantnÃŃ":8747,"Ġyawn":8748,"aches":8749,"Ãºhel":8750,"Ġbrambor":8751,"ĠnaplnÄĽ":8752,"cream":8753,"ĠmÄĽsÃŃc":8754,"Ġflour":8755,"topus":8756,"Ġnail":8757,"Ġneat":8758,"Ġzapadat":8759,"Ġraven":8760,"ĠpotÅĻebovala":8761,"ĠHrÃ¡l":8762,"Ġpamatovat":8763,"suv":8764,"ĠpÅĻiblÃŃÅ¾il":8765,"Ġcereal":8766,"Ġcurt":8767,"book":8768,"ĠpodÄĽlili":8769,"ĠskoÄįila":8770,"ĠotevÅĻeli":8771,"Ġsandwiches":8772,"ĠvyÅ¡pl":8773,"Ġpretending":8774,"Ġcurtain":8775,"Ġkytaru":8776,"ĠJoy":8777,"ĠvzhlÃ©dl":8778,"Ġcollar":8779,"ĠSled":8780,"Ġsnuggled":8781,"aid":8782,"ĠzÃ¡suv":8783,"Ġticket":8784,"Ġdny":8785,"Ġordinary":8786,"ĠSdÃŃ":8787,"ĠjmenujeÅ¡":8788,"ĠÅłtÄĽnÄĽ":8789,"ĠstÃŃn":8790,"ĠÅ¡Å¥astnÃ½mi":8791,"Ġchasing":8792,"vedl":8793,"Ġneighbour":8794,"ĠtvrdÃ©":8795,"kan":8796,"Ġspolup":8797,"ĠVytÃ¡hla":8798,"Ġnepat":8799,"ĠvraÅ¥":8800,"Qu":8801,"Ġvyni":8802,"hroom":8803,"ĠplÃ¡Äįe":8804,"ĠPoppy":8805,"Ġquestion":8806,"hh":8807,"ĠUkazuje":8808,"ĠpotÄĽÅ¡en":8809,"Ġtriang":8810,"Ġodem":8811,"ĠkÃ½ch":8812,"Ġenvelope":8813,"ĠsnaÅ¾it":8814,"Ġtrh":8815,"Ġdrawer":8816,"ĠknoflÃŃk":8817,"ĠBuzz":8818,"olin":8819,"Ġmodel":8820,"Ã¡vu":8821,"ĠVÃŃla":8822,"Ġcomputer":8823,"ĠlÃ©ky":8824,"ĠvyhrÃ¡l":8825,"Ġbillboard":8826,"ĠkoÅ¡ÃŃku":8827,"Ġlively":8828,"Ġstation":8829,"ĠstojÃŃ":8830,"ĠUte":8831,"jemnÄĽ":8832,"ĠvÅ¡echnu":8833,"ĠnÃ¡klaÄıÃ¡ky":8834,"ĠKrab":8835,"Ġrules":8836,"ĠRachel":8837,"Ġoctopus":8838,"Ġplakal":8839,"bÄĽh":8840,"Å¡ilo":8841,"ubby":8842,"Ġrozma":8843,"Ġmuset":8844,"ĠaÅ¥":8845,"zes":8846,"ĠkotÄĽ":8847,"jÅ¡ÃŃm":8848,"ĠpoÄįÃŃtaÄį":8849,"ĠPÅĻÃ¡telÃ©":8850,"Ġshod":8851,"ĠdÄĽsivÃ½":8852,"Ġgloomy":8853,"Ġcarto":8854,"kup":8855,"Ġzkontrolov":8856,"ĠzÃ¡pas":8857,"ĠkouzelnÃ©":8858,"ĠnadÅ¡enÄĽ":8859,"ĠkaÅ¾dÃ©ho":8860,"Ġintelligent":8861,"Ġzahan":8862,"aro":8863,"Ġmay":8864,"Ġuncle":8865,"Ġspeed":8866,"Å¡tÄĽstÃŃ":8867,"ĠodpovÄĽÄı":8868,"ĠVrÃ¡til":8869,"chla":8870,"ĠdÄĽsiv":8871,"Å¡ce":8872,"MusÃŃme":8873,"cture":8874,"Ġnejprve":8875,"Ġdomy":8876,"Ġkrku":8877,"Ġsis":8878,"aka":8879,"ĠotoÄįil":8880,"ĠstarÃ©mu":8881,"Ġpackage":8882,"Ġshaking":8883,"Ġvydat":8884,"Ġwi":8885,"Ġexamin":8886,"ĠpodÄĽlÃŃ":8887,"ĠniÄį":8888,"ĠchlÃ©b":8889,"ĠutÄĽ":8890,"Ġzahanb":8891,"ĠStali":8892,"Ġblueber":8893,"Ġparade":8894,"kyt":8895,"ĠuvolnÄĽ":8896,"Ġneedle":8897,"ĠNev":8898,"Ġmushroom":8899,"ĠdokonÄįit":8900,"ĠmoudrÃ¡":8901,"Ġcreatures":8902,"Ġhodin":8903,"ĠveselÃ½":8904,"ĠEventually":8905,"Ġphoto":8906,"ĠPoh":8907,"ĠSk":8908,"ĠpodÄĽlil":8909,"Ġtwirled":8910,"ĠjÃŃzd":8911,"ĠpÅĻibliÅ¾":8912,"Ġhurry":8913,"ĠvlÃ¡":8914,"ĠborÅ¯v":8915,"ĠpoÄįÃŃtat":8916,"Ġprsten":8917,"avran":8918,"ĠhorkÃ½":8919,"ĠvajÃŃ":8920,"Ġreg":8921,"ĠvydÃ¡val":8922,"Ġauty":8923,"Ġskip":8924,"ĠnevÄĽdÄĽli":8925,"ovanÃ¡":8926,"lek":8927,"ĠpÃŃskovi":8928,"erable":8929,"Ġobru":8930,"Ġjable":8931,"ĠLilo":8932,"Ġlizard":8933,"Ġalert":8934,"ĠMÃŃÄį":8935,"ĠMohou":8936,"ĠvstÃ¡t":8937,"Ġsousto":8938,"ummer":8939,"ĠPoloÅ¾il":8940,"Ġnastoup":8941,"gust":8942,"Ġattract":8943,"ĠpÃŃÅ¡Å¥":8944,"Ġchance":8945,"Ġjazz":8946,"ĠSund":8947,"oby":8948,"ĠpÅĻÃŃstav":8949,"Ġsoldier":8950,"Ġthief":8951,"ĠsoutÄĽÅ¾":8952,"hÅĪ":8953,"ĠzÃ¡bavnÄĽjÅ¡ÃŃ":8954,"ĠÃºtulnÃ©":8955,"Ġmiserable":8956,"ĠneÅ¡lo":8957,"oun":8958,"Ġinst":8959,"ĠVÅ¡echna":8960,"ĠpÅĻÃŃÅ¡era":8961,"Ġpepper":8962,"ĠslyÅ¡et":8963,"ĠvÃ½hled":8964,"Ġfireman":8965,"\",":8966,"ĠotoÄįila":8967,"icha":8968,"Ġpotkala":8969,"ĠtÅĻÃŃletÃ¡":8970,"ĠkÅĻÃŃ":8971,"Ġanywhere":8972,"Ġdisgust":8973,"Ġdug":8974,"Ġobs":8975,"cut":8976,"ĠtvÃ¡ÅĻÃŃ":8977,"ĠKatie":8978,"ĠÄĮer":8979,"Ġbaseball":8980,"ĠzaneprÃ¡zdnÄĽnÃ¡":8981,"ĠstraÅ¡":8982,"lal":8983,"lÃŃm":8984,"ĠvrtÄĽl":8985,"ĠPan":8986,"ĠstavÄĽt":8987,"chlad":8988,"ĠpÃŃsek":8989,"ĠdÃ¡vÃ¡":8990,"Ġcoo":8991,"ĠvysvÄĽtlil":8992,"Ġseal":8993,"Ġods":8994,"Ġlux":8995,"cond":8996,"ÅĻÃ¡b":8997,"Ġresist":8998,"ĠnÄĽÄįÃŃm":8999,"ĠnadÃ½ch":9000,"Ġsbali":9001,"ĠzkouÅ¡el":9002,"ĠuÅ¾ila":9003,"nostÃŃ":9004,"ĠZÅ¯":9005,"Ġknot":9006,"Ġpasta":9007,"ĠvÄĽtvÃŃ":9008,"Ġcop":9009,"ĠÃºÅ¾asnÃ½":9010,"ĠtÅĻÃ¡s":9011,"Ġuzd":9012,"ĠÄįlun":9013,"Ġwishes":9014,"Ġsheet":9015,"ĠkrÃ©m":9016,"pÄĽt":9017,"Ġjeep":9018,"nech":9019,"ĠlahodnÃ½":9020,"ath":9021,"Ġbandage":9022,"Ġturkey":9023,"ÅĻÃŃk":9024,"Ġochutnat":9025,"Ġstickers":9026,"ĠuÄįite":9027,"Ġhelpless":9028,"Ġschoval":9029,"Ġbounced":9030,"Ġdruhy":9031,"bujÃŃ":9032,"ele":9033,"Ġscreen":9034,"Ġinte":9035,"Ġrepe":9036,"ĠTla":9037,"Ġtrash":9038,"ĠÄįÃŃslo":9039,"Ġcamp":9040,"Ġradio":9041,"Give":9042,"ĠhloupÄĽ":9043,"ĠÃºkol":9044,"vici":9045,"ĠnÃ¡ramek":9046,"ĠSmith":9047,"ĠÄįervenÃ½m":9048,"Ġpracticed":9049,"Ġhus":9050,"Ġstad":9051,"ĠpÅĻiletÄĽl":9052,"Dej":9053,"Ġblu":9054,"Ġnikoho":9055,"Ġshine":9056,"ĠvelkÃ½ch":9057,"Ġsecond":9058,"ĠchtÄĽlo":9059,"night":9060,"kaÅ¾":9061,"ĠÅ¡ÅĪ":9062,"Ġleash":9063,"ĠDot":9064,"ĠhnÃŃzda":9065,"Ġdrs":9066,"Ġjezdil":9067,"adit":9068,"ĠUÄįÃŃ":9069,"Ġpun":9070,"ĠvÅ¯ni":9071,"ĠvyprÃ¡vÄĽla":9072,"ĠTommyho":9073,"ĠNut":9074,"ĠtanÄįili":9075,"ĠAbigail":9076,"Ġnotebook":9077,"ĠmoudrÃ½":9078,"ĠnÃ¡plast":9079,"Ġimpat":9080,"Ġpobavit":9081,"vious":9082,"Ġopustit":9083,"Ġprase":9084,"Ġchodili":9085,"Ġlidmi":9086,"keys":9087,"Ġletters":9088,"Ġador":9089,"Ġcube":9090,"ĠdoÅ¡el":9091,"Ġsledovali":9092,"Ġkoupelny":9093,"Ġchubby":9094,"Ġattractive":9095,"rÃ©n":9096,"Ġstretched":9097,"Ġostrov":9098,"Ġstirred":9099,"Ġusnul":9100,"ĠkaÅ¾dou":9101,"ĠuÅ¾ÃŃval":9102,"Ġskvr":9103,"Ġnobody":9104,"Ġmrkve":9105,"Ġpoto":9106,"zeli":9107,"Ġthread":9108,"Ġmapu":9109,"ĠuÅ¡i":9110,"Ġnezmi":9111,"Ġcricket":9112,"urb":9113,"heart":9114,"ĠdÅ¯vÄĽ":9115,"Ġpapou":9116,"dravÃŃm":9117,"ĠAl":9118,"Ġrostlin":9119,"Ġpigeon":9120,"Ġcarpet":9121,"Ġcompassionate":9122,"Ġmajitele":9123,"ĠzajÃŃmavÃ©":9124,"upÃŃ":9125,"Ġzmizela":9126,"Ġfascin":9127,"ĠlaviÄįku":9128,"Ġtooth":9129,"ĠZaÄįÃŃ":9130,"Ġpopros":9131,"ĠProd":9132,"ĠhledÃ¡nÃŃ":9133,"Ġdecorate":9134,"ĠpÅĻestali":9135,"bÃ¡":9136,"ĠÅ¡Ã¡tek":9137,"Ġrespectful":9138,"Ġtap":9139,"Ġbezmoc":9140,"Ġcocoa":9141,"Ġbrighter":9142,"Ġmoji":9143,"Ġclub":9144,"arian":9145,"lala":9146,"Ġdisturb":9147,"ĠbrÃ½":9148,"Ġsteps":9149,"Ġcukr":9150,"Ġrozum":9151,"Ġsucceed":9152,"ouhlas":9153,"ĠSova":9154,"Ġhed":9155,"ĠpÅĻedstavenÃŃ":9156,"Ġimpatient":9157,"Ġmilovali":9158,"Ġscoop":9159,"adilo":9160,"Ġjug":9161,"ĠKrÃ¡lÃŃ":9162,"ligÃ¡t":9163,"Ġfurther":9164,"ĠdÃ¡me":9165,"ĠkoÅ¡":9166,"ĠdrÃ¡t":9167,"Ġotter":9168,"ĠroztomilÃ½":9169,"ĠmÃŃr":9170,"ĠTady":9171,"ĠDrÅ¾ÃŃ":9172,"ĠmÃ¡v":9173,"Ġhook":9174,"ĠnatÃ¡hl":9175,"Ġtroubled":9176,"ĠspolehlivÃ½":9177,"Ta":9178,"ĠzmatenÃ¡":9179,"Ġcompetitive":9180,"Ġitself":9181,"ĠsprÃ¡vnou":9182,"rÃ¡va":9183,"Ġpressed":9184,"ĠbabiÄįky":9185,"ĠuÄįÃŃ":9186,"ĠpÅĻÃ¡telskÃ¡":9187,"Ġcandle":9188,"Ġrukavice":9189,"ĠzahlÃ©d":9190,"ĠÅĻed":9191,"Ġafterno":9192,"iskÅĻi":9193,"PotÅĻe":9194,"ĠtalÃŃ":9195,"ĠÄįerva":9196,"ĠNejsou":9197,"hody":9198,"Ġattic":9199,"Ġskoro":9200,"Ġstarts":9201,"ĠVraÅ¥":9202,"Ġostri":9203,"Ġmug":9204,"ĠkouÅĻ":9205,"ĠPevnÄĽ":9206,"ĠdÃŃvajÃŃ":9207,"ĠpÅĻedstÃŃrat":9208,"ZdravÃŃm":9209,"Ġposadil":9210,"ĠAre":9211,"Ġrestless":9212,"Ġbled":9213,"Ġhust":9214,"Ġomluvil":9215,"Ġstodo":9216,"Ġkra":9217,"ĠjiskÅĻi":9218,"ĠtÃ½den":9219,"irit":9220,"Ġsomewhere":9221,"Ġmask":9222,"ĠperfektnÄĽ":9223,"pter":9224,"Ġskluzavky":9225,"ĠÅ¾idle":9226,"ÄĽst":9227,"vedla":9228,"ĠpÅĻikyvuje":9229,"ĠuÅ¡":9230,"urant":9231,"Ġknock":9232,"ĠdrahÃ©":9233,"Ġvytrval":9234,"nÃ©st":9235,"Ġtunel":9236,"ĠzachrÃ¡nil":9237,"Ġdisgusting":9238,"ito":9239,"Ġwaff":9240,"ĠvÃ¡zu":9241,"Ġdess":9242,"Å¾ou":9243,"Ġtroj":9244,"Ġzastavili":9245,"ĠnaÅ¡i":9246,"Ġnaslouch":9247,"cÅ¯":9248,"Ġvine":9249,"Ġheli":9250,"Ġanyway":9251,"Ġquar":9252,"Ġadorable":9253,"ĠptÃ¡Äįkovi":9254,"Ġallig":9255,"ĠsladkostÃŃ":9256,"Ġujistil":9257,"Ġfearful":9258,"Ġingredience":9259,"Ġshoe":9260,"Ġtakhle":9261,"thy":9262,"ĠÄįepici":9263,"Ġnuts":9264,"Ġshouts":9265,"ĠPrincezna":9266,"die":9267,"edy":9268,"ĠSeb":9269,"ĠHel":9270,"avu":9271,"ĠpokraÄįovat":9272,"outek":9273,"Ġcase":9274,"Ġmule":9275,"staurant":9276,"dil":9277,"Ġgorilla":9278,"Ġrestaurant":9279,"ĠSteve":9280,"ĠzÃ¡ÅĻivÄĽ":9281,"ĠBrown":9282,"Åł":9283,"Ġak":9284,"lÃŃzl":9285,"Ġenvious":9286,"ĠomÃ¡":9287,"ĠÄįistÃ¡":9288,"Ġpants":9289,"Ġscrew":9290,"ĠrÃ¡dy":9291,"copter":9292,"Ġfestival":9293,"ĠuÅ¾il":9294,"ĠpocÃŃt":9295,"ĠpÅĻikÃ½vne":9296,"Ġchyb":9297,"Ġafternoon":9298,"Ġdeset":9299,"Ġcards":9300,"Ġfilthy":9301,"ĠtÄĽstov":9302,"ĠvytvoÅĻila":9303,"zeÅĪ":9304,"Ã¡Å¾":9305,"Ġsweetheart":9306,"Ġstis":9307,"Ġdistant":9308,"rÄįila":9309,"Ġhipp":9310,"Ġhluku":9311,"ĠdÄĽkoval":9312,"ĠgauÄįi":9313,"VypadÃ¡":9314,"Ġnaplnila":9315,"Ġenthusiastic":9316,"Ġcomfort":9317,"Ġalar":9318,"ĠvyrÃ¡b":9319,"ĠNechtÄĽjÃŃ":9320,"Ġgiggle":9321,"ĠmalÃ½ch":9322,"Ġtray":9323,"Ġkaka":9324,"Ġposlechnout":9325,"Ġleskl":9326,"ĠobliÄįe":9327,"Ġbrocco":9328,"Ġbroccoli":9329,"chopil":9330,"Ġhada":9331,"ĠmÃ©nÄĽ":9332,"ĠPÅĻÃŃÅ¡tÄĽ":9333,"Ġkruh":9334,"Ġnefung":9335,"ĠÃºk":9336,"Ġrestau":9337,"ĠsilnÄĽjÅ¡ÃŃ":9338,"ĠtrojÃºhel":9339,"Ġcooked":9340,"Ġins":9341,"mber":9342,"ĠSchov":9343,"Ġloop":9344,"ĠÅ¾elÃ©":9345,"Ġjud":9346,"ĠWhere":9347,"Ġhelicopter":9348,"Ġmonkeys":9349,"ĠproblÃ©mÅ¯":9350,"ĠmodernÃŃ":9351,"Little":9352,"Mmm":9353,"ĠlÃ©tal":9354,"ĠrÅ¯Å¾ovÃ¡":9355,"Ġupustil":9356,"Ġsestru":9357,"Ġspoluprac":9358,"allow":9359,"ĠneÅĻek":9360,"ĠNer":9361,"ĠdokÃ¡zal":9362,"Ġfork":9363,"ĠvÃ½bor":9364,"Ġposlouchali":9365,"Ġpomyslela":9366,"Ġupustila":9367,"ajÃŃcÃŃ":9368,"stali":9369,"Ġharsh":9370,"Ġkorunu":9371,"rÃ¡nÃŃ":9372,"Ġcompla":9373,"cycle":9374,"ĠlÃ¡sku":9375,"Grandma":9376,"ĠprÃ¡d":9377,"Ġsandbox":9378,"Ġsoar":9379,"JupÃŃ":9380,"ĠkoÅ¡ili":9381,"ĠWould":9382,"ĠdÅĻevo":9383,"Ġmeow":9384,"ĠdÄĽlÃ¡te":9385,"case":9386,"Ġjeze":9387,"ĠmÄĽsto":9388,"ĠkoÅ¥":9389,"Ġsitu":9390,"Ġfort":9391,"ÄĽlej":9392,"ĠNez":9393,"Ġnowhere":9394,"Ġbackpack":9395,"Ġsent":9396,"ĠkouzelnÃ¡":9397,"ĠtriÄįko":9398,"ĠspÄĽch":9399,"ĠsladkÃ½":9400,"Ġkola":9401,"Ġmeas":9402,"ĠtrpÄĽlivÃ½":9403,"DobrÃ½":9404,"ĠLÃ©":9405,"Ġadmi":9406,"ĠStarÃ¡":9407,"Ġfive":9408,"tratil":9409,"Ġbatht":9410,"Ġscooter":9411,"ĠjejÃŃch":9412,"ĠptÃ¡Äįku":9413,"Ġpipe":9414,"Ġkostky":9415,"Ġbelt":9416,"Ġcountry":9417,"BÄĽÅ¾":9418,"ĠVez":9419,"Ġshr":9420,"Ġpostavil":9421,"ĠzbraÅĪ":9422,"ĠsilnÄĽji":9423,"eropla":9424,"Ġvlasech":9425,"Ġbathtub":9426,"Ġobvaz":9427,"Ġants":9428,"ĠMÃ¡me":9429,"ĠNav":9430,"ĠrÅ¯st":9431,"ĠbolÃŃ":9432,"Ġprinc":9433,"ĠvzhlÃ©dla":9434,"ĠzavÅĻ":9435,"Ġbarking":9436,"Ġquite":9437,"Ġkang":9438,"Ġpovzbuz":9439,"Ġpoem":9440,"ĠzlÃŃ":9441,"Ġaeropla":9442,"Ġkostek":9443,"ĠSlo":9444,"Ġunpack":9445,"ĠdÃŃt":9446,"ĠzpÄĽv":9447,"rr":9448,"Ġhu":9449,"ĠRo":9450,"stairs":9451,"Ġspeak":9452,"ĠMÃ¡Å¡":9453,"Ġbrokoli":9454,"jÃŃÅ¾d":9455,"Ġcennou":9456,"Ġsafari":9457,"ĠstejnÃ©":9458,"Ġraft":9459,"ralok":9460,"leÄį":9461,"Ã¡lu":9462,"Ġcows":9463,"ĠtuÄįÅĪ":9464,"ĠÅĻev":9465,"ĠUtÃŃkajÃŃ":9466,"Ġhappier":9467,"ĠletÄĽla":9468,"ĠÅ¾ivotÄĽ":9469,"ĠneslyÅ¡el":9470,"Ã¡kem":9471,"ĠBrou":9472,"Ġnamal":9473,"ĠrybnÃŃce":9474,"Ġvypadat":9475,"ĠprochÃ¡zky":9476,"Ġluk":9477,"Ġneoh":9478,"Ġlekce":9479,"Äįkej":9480,"ĠohnÄĽ":9481,"ĠRyba":9482,"Ġmama":9483,"ĠnezapomnÄĽla":9484,"Ġbicycle":9485,"anas":9486,"Ġsalt":9487,"Ġdezer":9488,"Ġobrazov":9489,"ĠlÃŃstek":9490,"Ġsepar":9491,"Ġvaf":9492,"Ġcus":9493,"ĠkuchyÅĪ":9494,"ĠEverything":9495,"ÄįÃ¡tku":9496,"ĠdlouhÃ¡":9497,"neum":9498,"Ġsmy":9499,"Ġsny":9500,"Ġlistening":9501,"ihÅĪ":9502,"Ġhlavy":9503,"ĠZvedne":9504,"Ġplanet":9505,"ĠJdou":9506,"Ġhrnce":9507,"Ġparkem":9508,"Ġplamen":9509,"Ġsummer":9510,"ĠProstÄĽ":9511,"Ġtalent":9512,"ĠbrÃ½le":9513,"Ġfirework":9514,"Ġstared":9515,"Ġhro":9516,"Cht":9517,"ĠoÄįÃŃm":9518,"Ġpravidla":9519,"Ġtvou":9520,"ĠneodpovÄĽ":9521,"ĠDavid":9522,"ging":9523,"ĠOpice":9524,"ĠmocnÃ½":9525,"ĠdodÃ¡v":9526,"stoupili":9527,"oom":9528,"Ġinteligent":9529,"ĠSpota":9530,"Ġmessage":9531,"ĠdÄĽlili":9532,"Bye":9533,"Ġadmire":9534,"Ġgrabs":9535,"Ġroh":9536,"Ġnebud":9537,"ĠpÅĻinÃ©st":9538,"Ġjahod":9539,"Ġgiven":9540,"rz":9541,"Ġbubliny":9542,"ÅĻice":9543,"ĠVyb":9544,"Ġcomet":9545,"Ġcibu":9546,"ÅĻici":9547,"mlouvÃ¡":9548,"Ġostrich":9549,"cela":9550,"hood":9551,"Ġlahodnou":9552,"ĠsvÄĽtle":9553,"ĠÅ¡pagety":9554,"loe":9555,"ĠvynikajÃŃcÃŃ":9556,"ĠÄįerst":9557,"ĠzÃ¡had":9558,"Ġhuman":9559,"ĠvydÃ¡vÃ¡":9560,"ĠloÅ¾nici":9561,"ĠnezapomnÄĽl":9562,"ouÅ¡tÃŃm":9563,"Ġsort":9564,"ĠskoÄįit":9565,"Ġkan":9566,"ĠroztomilÃ¡":9567,"ĠZdÃ¡lo":9568,"ĠPÅĻÃŃÅ¡":9569,"cope":9570,"ws":9571,"Sammy":9572,"Ġpaid":9573,"ĠbarevnÃ½":9574,"Ġalarm":9575,"ĠZatÃŃmco":9576,"ĠÅ¾ÃŃzeÅĪ":9577,"aser":9578,"ĠpostelÃŃ":9579,"ĠnÃ¡ru":9580,"year":9581,"ĠbohatÃ½":9582,"ĠhlasitÄĽji":9583,"ĠpÅĻit":9584,"ĠfrustrovanÃ½":9585,"Ġmodest":9586,"Ġfinds":9587,"ĠdÄĽkovala":9588,"ĠpÅ¯jdou":9589,"Ġneklid":9590,"Ġpostavili":9591,"ĠbÃ½":9592,"ĠnÃ¡dobÃŃ":9593,"Ty":9594,"ĠjezÃŃ":9595,"ĠmÃ©ho":9596,"Ġobser":9597,"ĠskÅĻÃŃni":9598,"ĠVl":9599,"Ġmeat":9600,"Ġdessert":9601,"ĠOdp":9602,"ĠdeÅ¡tnÃŃk":9603,"Ġalligator":9604,"Ġspell":9605,"Ã¡stÃŃ":9606,"Ġtuhle":9607,"Ġvyno":9608,"ĠdrÅ¾":9609,"ĠdomÃ¡cÃŃ":9610,"Ġnapo":9611,"Ob":9612,"ĠMod":9613,"Ġsupport":9614,"Ġhedge":9615,"ĠBaby":9616,"Ġspirit":9617,"Tak":9618,"etu":9619,"ait":9620,"tÃ¡k":9621,"ĠlÃŃnÃ½":9622,"ĠobrovskÃ©":9623,"Ġviolin":9624,"Ġmelon":9625,"Ġvyle":9626,"Ġjellyfish":9627,"ĠOblÃ©kla":9628,"Ġpistol":9629,"ĠodletÄĽla":9630,"Ġdceru":9631,"ĠskuteÄįnÃ©":9632,"ĠÅ¡rou":9633,"ician":9634,"ĠsnÃŃh":9635,"ĠneudÄĽla":9636,"ino":9637,"ĠzaÄįÃŃn":9638,"Ġpero":9639,"Everyone":9640,"ĠsouÄįÃ¡stÃŃ":9641,"Ã¡tka":9642,"ĠkrÃ¡va":9643,"vel":9644,"ĠRemy":9645,"ĠgauÄį":9646,"raÄįnÄĽ":9647,"Ġbod":9648,"Ã¡no":9649,"Ġrescue":9650,"Ġpulls":9651,"Ġtripped":9652,"Ġneboj":9653,"Å¾nÃ½":9654,"ĠkoÅ¡e":9655,"Ġyogurt":9656,"Ġpaws":9657,"pper":9658,"ĠbÃŃlou":9659,"ĠdobrÃ©ho":9660,"Ġsize":9661,"ĠchtÃŃt":9662,"ĠvyprÃ¡vÄĽl":9663,"ĠmÄĽly":9664,"Ġwheat":9665,"Ġholes":9666,"kÃ¡d":9667,"cog":9668,"Ã¡rnÃŃ":9669,"ĠloÅ¾nice":9670,"ĠlahodnÃ©ho":9671,"Ġukazuje":9672,"ĠhÅĻiÅ¡ti":9673,"Ġforgave":9674,"Ġroared":9675,"Ã¡lky":9676,"ĠuÅ¾iteÄįnÃ½":9677,"ĠbÃŃlÃ¡":9678,"Ġklec":9679,"ĠSpike":9680,"ĠjinÃ½m":9681,"ĠpomeranÄį":9682,"Jste":9683,"ĠÅĻeku":9684,"Ġlopat":9685,"son":9686,"ĠtvrdÃ¡":9687,"Ġbubble":9688,"Ġmalovat":9689,"ĠpÅĻipravila":9690,"Ġsir":9691,"Ġcats":9692,"Ġlepidlo":9693,"ĠdÅ¾ÃŃ":9694,"Ġpurse":9695,"Ha":9696,"Ġhippo":9697,"Ġlands":9698,"Ġvysokou":9699,"Ġrecog":9700,"ĠCat":9701,"Ġkachnu":9702,"ĠVyskoÄįil":9703,"Ġpavouka":9704,"ĠkÅ¯Å¾":9705,"Ġrozko":9706,"Ġhall":9707,"ĠdÃ¡rky":9708,"Ġchoice":9709,"orek":9710,"ĠstudenÃ¡":9711,"Daddy":9712,"ĠPomoh":9713,"Ġcact":9714,"Ġswinging":9715,"Ġpushing":9716,"Ġbikes":9717,"Ġslib":9718,"ĠlÃŃzÃ¡tko":9719,"Ġinse":9720,"Å¯vod":9721,"ĠdÃŃvÃ¡":9722,"Ġorganize":9723,"Å¾em":9724,"Ġsplit":9725,"Ġujistila":9726,"Ġbin":9727,"ĠdÅĻeva":9728,"Ġcitron":9729,"Ġscold":9730,"ĠdeÅ¡tÄĽ":9731,"ĠsvÃŃtÃŃ":9732,"ĠNebyl":9733,"ĠUsmÃŃvajÃŃ":9734,"ĠnepatÅĻÃŃ":9735,"Ġbehave":9736,"Ġrice":9737,"Moje":9738,"Ġneopatr":9739,"ĠneznÃ¡m":9740,"ouch":9741,"Ġklouzali":9742,"Ġshade":9743,"ĠPÅĻÃŃÅ¡era":9744,"ĠrozbitÃ¡":9745,"Ġver":9746,"Ġkrav":9747,"Ġsamot":9748,"Ġude":9749,"Ġstarting":9750,"Ġhaircut":9751,"ĠRozumÃŃÅ¡":9752,"Ġpolet":9753,"Ġzjistili":9754,"uÅ¾":9755,"Ġoat":9756,"okÃ¡zala":9757,"ĠnÃ¡stroj":9758,"ĠprÅ¡elo":9759,"ĠvytvoÅĻili":9760,"Ġokraji":9761,"bala":9762,"ĠVÄįela":9763,"Ġzatles":9764,"Ġlightning":9765,"ĠplachÃ½":9766,"ĠJem":9767,"ĠotevÅĻenÃ©":9768,"Ġtriangle":9769,"soby":9770,"ĠDob":9771,"cano":9772,"Ġoboj":9773,"ĠzaÄįÃŃt":9774,"Ġodpoledne":9775,"ife":9776,"ĠPop":9777,"Ġenergy":9778,"Ã¡ÅĻe":9779,"aroo":9780,"ĠhÅĻebÃŃ":9781,"ĠvymÄĽ":9782,"ĠMilujÃŃ":9783,"Ġklaun":9784,"Ġtemp":9785,"ĠdospÄĽl":9786,"Ġkouzelnou":9787,"Ġutekli":9788,"ĠObÄĽ":9789,"ĠpÃŃÅ¡Å¥al":9790,"ĠpÅĻikrÃ½vku":9791,"ĠkostÃ½m":9792,"LÃŃ":9793,"ĠhlÃŃny":9794,"Ġriding":9795,"ĠÅ¾enu":9796,"ĠZastavil":9797,"ujÃŃcÃŃ":9798,"Ġklobouky":9799,"ĠÄįekat":9800,"Ġbur":9801,"ĠmÃ½":9802,"reci":9803,"Ġporch":9804,"ĠvyprÃ¡vÄĽ":9805,"Ġfrowned":9806,"Ġbolelo":9807,"padla":9808,"ĠtvrdÃ½":9809,"Ġeither":9810,"Ġtis":9811,"anu":9812,"ĠnevÃŃ":9813,"ÃŃtr":9814,"Ġmath":9815,"orys":9816,"Ġjeli":9817,"Ġlearnt":9818,"Ġtire":9819,"ĠnelÃŃbÃŃ":9820,"Ġkrokod":9821,"ĠstrÃ¡vili":9822,"Ġjedin":9823,"Ġtrains":9824,"Ġended":9825,"ĠzklamanÃ¡":9826,"ĠlegraÄįnÄĽ":9827,"Ġwallet":9828,"Ġhodinky":9829,"Ġcomf":9830,"ĠsprÃ¡vnÃ©":9831,"Jsme":9832,"padalo":9833,"omas":9834,"ĠnemajÃŃ":9835,"ĠzmÃ¡Äį":9836,"Ġkrok":9837,"Ġchalk":9838,"ĠstudenÃ½":9839,"ĠznamenÃŃ":9840,"Ġkdykoli":9841,"Ġmisky":9842,"ĠzahrÃ¡l":9843,"Ġbananas":9844,"Ġluck":9845,"Ġkangaroo":9846,"aled":9847,"bili":9848,"Ġlend":9849,"Ġstarala":9850,"ĠOdpovÄĽ":9851,"Ġcactus":9852,"ĠnedÄĽla":9853,"Ġevening":9854,"Ġsticker":9855,"ĠÅ¡ÃŃp":9856,"ĠZjistili":9857,"ĠSli":9858,"ĠjezeÅĻe":9859,"ĠUn":9860,"Ġpoke":9861,"Ned":9862,"Ġsweater":9863,"ĠholÃŃ":9864,"ĠPomÅ¯Å¾u":9865,"Ġpapers":9866,"Ġvolcano":9867,"Ġsmutno":9868,"ations":9869,"ĠinteligentnÃŃ":9870,"Ġmuseum":9871,"nÄĽlo":9872,"Ġtwirl":9873,"ĠmÃ¡slo":9874,"mÄĽÅĻ":9875,"Ġhotov":9876,"Äįerst":9877,"ĠtemnÃ©":9878,"Ġappreci":9879,"Ġstamp":9880,"Ġpalace":9881,"latÃ¡":9882,"ĠsmÃŃ":9883,"Ġjednod":9884,"Ġkysel":9885,"Ġvypadaly":9886,"Ġlions":9887,"Ġchain":9888,"ÅĪost":9889,"xe":9890,"Ġstrawberry":9891,"Ġboots":9892,"Jmen":9893,"Ġjokes":9894,"Ġrolling":9895,"ĠpÃ¡sku":9896,"Ġbears":9897,"ĠlodÄĽ":9898,"ĠMaxem":9899,"racÃŃ":9900,"ĠPip":9901,"ĠKvÄĽt":9902,"ĠÅĻÃŃdit":9903,"Ġvest":9904,"ĠNemÃ¡":9905,"ez":9906,"ĠTomova":9907,"Ġbuben":9908,"ĠvtipnÃ©":9909,"Ġpneum":9910,"Ġpomyslel":9911,"ĠfialovÃ©":9912,"fee":9913,"Ġshopkeeper":9914,"bÄĽhne":9915,"ĠzprÃ¡v":9916,"Ġbarrel":9917,"ĠOprav":9918,"Ġmicrop":9919,"Ġautom":9920,"ĠmedvÄĽdovi":9921,"Ġhadn":9922,"ĠbalÃŃÄįek":9923,"Ġmaso":9924,"Ġnenech":9925,"ĠzÃ¡le":9926,"ĠsbÃŃrala":9927,"ĠlÃŃstky":9928,"offee":9929,"ĠNÄĽ":9930,"ĠpenÄĽÅ¾":9931,"ĠVytÃ¡hl":9932,"ĠBeth":9933,"Ġraketu":9934,"Ġsami":9935,"Ġzala":9936,"Ġarg":9937,"amie":9938,"ĠNemohli":9939,"Ġshakes":9940,"ev":9941,"Ġzavolal":9942,"Ġrecogni":9943,"ĠlouÅ¾i":9944,"ĠzklamanÃ½":9945,"apped":9946,"ĠÅ¡Å¥astnÄĽjÅ¡ÃŃ":9947,"ĠvÅ¡imli":9948,"Ġzamra":9949,"Ġoknem":9950,"Ġchlap":9951,"ĠohÅĪost":9952,"ĠnaÅ¡tvanÄĽ":9953,"Ġsilver":9954,"ĠpsÃ¡t":9955,"Å¾ka":9956,"urch":9957,"Ġlaund":9958,"Ġreinde":9959,"UÅ¾":9960,"Ġzda":9961,"Ġalive":9962,"ĠFrank":9963,"Ġvlajku":9964,"Ġgain":9965,"Ġsmells":9966,"ĠPouÅ¾il":9967,"ĠLou":9968,"ĠÅłÅ¥":9969,"ĠÅ½ena":9970,"Ġlaundry":9971,"Ġsock":9972,"Ġhory":9973,"ĠdÃŃÅĻe":9974,"Ġnakreslit":9975,"Ġplavala":9976,"Ġhmy":9977,"ĠchytÅĻÃŃ":9978,"ĠSÃ¡ÅĻ":9979,"idel":9980,"Ġexperi":9981,"ĠpÃŃp":9982,"Ġavoc":9983,"ĠpodÃŃvajÃŃ":9984,"ĠsnÄĽhov":9985,"ĠNejprve":9986,"ĠUm":9987,"Ġwire":9988,"ĠobÄįerst":9989,"ĠtÄĽch":9990,"ĠprochÃ¡zce":9991,"ĠÄįasu":9992,"ĠpotÃ¡":9993,"ĠkÅ¯Å¾i":9994,"Ġposlechl":9995,"Ġsprink":9996,"ĠnedotÃ½":9997,"ĠnehÃ½":9998,"ĠZapomnÄĽli":9999,"Ġputting":10000,"Ġmicrophone":10001,"nutÃŃm":10002,"ĠpoznÃ¡":10003,"Ġsoftly":10004,"ĠSedÃŃ":10005,"ĠpÅ¯sob":10006,"Ġhezkou":10007,"Ġpushes":10008,"rka":10009,"ĠpÅ¡en":10010,"Ġink":10011,"Ġdortu":10012,"Ġmild":10013,"Ġvisited":10014,"Ġmikro":10015,"Ġposl":10016,"Ġtricks":10017,"ĠpÅĻedstÃŃral":10018,"Äįily":10019,"Ġsladkost":10020,"ĠmlÃ©ka":10021,"Ġroot":10022,"Ġclapping":10023,"Ġknihami":10024,"ĠuÅ¾ÃŃt":10025,"Ġbab":10026,"ĠneublÃŃÅ¾":10027,"Ġdrawings":10028,"ĠzÃ¡mku":10029,"ĠupÃ©ct":10030,"ĠotevÅĻe":10031,"Ġsport":10032,"Ġfalling":10033,"Ġtube":10034,"ĠÅ¡atech":10035,"Ġshru":10036,"Ġcolours":10037,"Ġtub":10038,"ĠDÃŃvala":10039,"Ġcord":10040,"ĠKr":10041,"ĠpotÃ©":10042,"ĠpÅĻekvapenÄĽ":10043,"Ġsailor":10044,"Ġhodila":10045,"Ġshield":10046,"Ġhluboko":10047,"ĠhÃ½bat":10048,"Ġleaned":10049,"right":10050,"ĠMaj":10051,"Ġzoomed":10052,"bulance":10053,"Ġhive":10054,"ills":10055,"ĠBrouk":10056,"ĠVÃŃtr":10057,"ĠPapa":10058,"happy":10059,"Ġukazoval":10060,"ĠkamarÃ¡di":10061,"soro":10062,"Ġbah":10063,"MÃ¡Å¡":10064,"ĠvÃŃtÄĽz":10065,"ĠkÅ¯ÅĪ":10066,"ĠzaÅĻ":10067,"ĠkrÃ¡lovna":10068,"Time":10069,"ĠpÅĻibÄĽhl":10070,"Ġsnu":10071,"ĠSunny":10072,"ocho":10073,"Ġambulance":10074,"Ġdvorek":10075,"ĠVÅ¡iml":10076,"ĠnovÃ©m":10077,"ĠtrÃ©n":10078,"Ġbelongs":10079,"ĠslyÅ¡eli":10080,"Ġhar":10081,"ĠrozÄįÃŃ":10082,"buÄı":10083,"Ġpenguin":10084,"play":10085,"Ġairport":10086,"Ġusnula":10087,"Ġkladivo":10088,"Ġubrou":10089,"Ġchecked":10090,"Ġpastelkami":10091,"ĠNÃ¡":10092,"Ġinsist":10093,"Ġpolib":10094,"ĠDoktor":10095,"Ġmuze":10096,"kuje":10097,"hledn":10098,"Ġtremb":10099,"ĠsnÄĽhulÃ¡k":10100,"ĠzajÃŃ":10101,"anit":10102,"Ġkrout":10103,"zlu":10104,"Ġmarched":10105,"Ġquarrel":10106,"Ġtrick":10107,"Ġnapadlo":10108,"Ġpebble":10109,"Ġpustil":10110,"ĠprozkoumÃ¡vala":10111,"Ġmatem":10112,"Ġclimbing":10113,"ĠVykÅĻikl":10114,"Ġsnila":10115,"ĠzlodÄĽ":10116,"ĠptÃ¡kem":10117,"Ġjablek":10118,"Ġreindeer":10119,"Ġshelter":10120,"Kam":10121,"Ġpodala":10122,"Ġtrop":10123,"Åĺ":10124,"ĠvÃ¡mi":10125,"ĠmoÅ¾nÃ©":10126,"ĠSaro":10127,"ĠTan":10128,"cast":10129,"ĠpÅĻichÃ¡zet":10130,"Ġoy":10131,"Ġava":10132,"ampo":10133,"enÃ©ho":10134,"ĠProdavaÄį":10135,"ĠkutÃ¡le":10136,"alÃ¡":10137,"Ġsaus":10138,"ĠMie":10139,"ction":10140,"ĠnÃŃzko":10141,"Ġdomem":10142,"ĠsedÄĽli":10143,"ÅĻmi":10144,"Ã¡Ã¡Ã¡Ã¡Ã¡Ã¡Ã¡Ã¡":10145,"Ġdive":10146,"Ġjudge":10147,"Ġaeroplane":10148,"ĠkyselÃ©":10149,"Ġneohrab":10150,"hodÃŃ":10151,"atu":10152,"Ġdishes":10153,"ĠmladÅ¡ÃŃ":10154,"ĠNos":10155,"Ġpozdravit":10156,"ĠfrustrovanÃ¡":10157,"ĠveÄįÃŃrku":10158,"ĠpÅĻitu":10159,"Ġpolish":10160,"ĠpÅĻestalo":10161,"ĠtÅĻÃŃdÄĽ":10162,"Ġnit":10163,"reeze":10164,"Ġduha":10165,"ĠZach":10166,"Nej":10167,"Ġnevadilo":10168,"ĠmÃŃrum":10169,"Ġgoal":10170,"Ġquit":10171,"ĠpÃ¡rty":10172,"Ġgrapes":10173,"Ġobjedn":10174,"Ġbarks":10175,"upl":10176,"ĠuÄįitelka":10177,"ĠKÅĻiÄįela":10178,"Ġfields":10179,"ĠVÅ¡imla":10180,"Anno":10181,"Ġelev":10182,"Ġshrink":10183,"ĠbÄĽÅ¾et":10184,"ĠNebo":10185,"Ġsandcast":10186,"ĠlistÅ¯":10187,"ilable":10188,"ĠplachÃ¡":10189,"Ġapologized":10190,"Ġrh":10191,"ÄĽji":10192,"Ġkousl":10193,"Ġnaplnil":10194,"Ġmraz":10195,"ĠpodÄĽlila":10196,"Ġcoffee":10197,"Ġtrophy":10198,"ĠtakovÃ©ho":10199,"ĠplyÅ¡ovÃ½":10200,"ĠzÅ¯stane":10201,"ĠlodÃŃ":10202,"Ġcostu":10203,"ĠSuzy":10204,"Ġcostume":10205,"Äįinu":10206,"ĠKrÃ¡l":10207,"ĠrytÃŃÅĻ":10208,"Ġsoil":10209,"ĠTomem":10210,"ĠVrÃ¡tila":10211,"ĠuÅ¾ÃŃvala":10212,"ĠmÃ¡val":10213,"ĠdivokÃ½":10214,"Ġhoping":10215,"ĠtrapnÄĽ":10216,"ĠMajitel":10217,"ravÄĽ":10218,"ĠÅ¾iraf":10219,"ĠskrÃ½":10220,"ĠpleÅ¡":10221,"ĠnedalekÃ©":10222,"ĠrozruÅ¡enÃ½":10223,"Ġrubber":10224,"Ġfeelings":10225,"Ġart":10226,"Ġhelmu":10227,"ÅĻÃŃdit":10228,"sely":10229,"ĠveselÃ¡":10230,"Ġmedal":10231,"ĠnudnÃ©":10232,"Ġeraser":10233,"ĠpÄĽknou":10234,"Ġukazovala":10235,"ĠtÃ¡":10236,"Ġrag":10237,"ĠbonbÃ³ny":10238,"Ġunhappy":10239,"Ġtask":10240,"ĠradostnÄĽ":10241,"Ġsladkou":10242,"Ġkitty":10243,"ĠBohuÅ¾el":10244,"Ġelevator":10245,"Ġraining":10246,"ĠneposlouchÃ¡":10247,"Ġdek":10248,"ĠpÅĻivÃŃt":10249,"Ġbund":10250,"ĠnÃ¡dhernou":10251,"Ġdrops":10252,"Ġavailable":10253,"ĠChir":10254,"Ġminute":10255,"Ġdisplay":10256,"ĠzmenÅ¡":10257,"ĠmÃŃÄįky":10258,"Ġherb":10259,"Ġmarry":10260,"Ġstom":10261,"Ġthanks":10262,"ĠlÃ¡sky":10263,"ĠPÅĻemÃ½Å¡lel":10264,"Ġwool":10265,"Ġjournal":10266,"Ġpodle":10267,"Ġinclu":10268,"Ġunlock":10269,"Ġcelery":10270,"Ġshouldn":10271,"Ġtvo":10272,"Ġrever":10273,"Ġfisher":10274,"Ġkancel":10275,"Ġbasketball":10276,"Ġcounter":10277,"Ġonion":10278,"Ġjogurt":10279,"Ġyacht":10280,"Ġperfectly":10281,"Ġmill":10282,"Byly":10283,"ĠrozzÃ¡ÅĻily":10284,"Ġmechanic":10285,"ĠNemÄĽla":10286,"Mandy":10287,"Ġpage":10288,"ĠskuteÄį":10289,"Ġvelkorys":10290,"Ġkopat":10291,"ĠpoÅ¡":10292,"ĠNajdou":10293,"Ġimagine":10294,"Ġkaj":10295,"ĠkruzÃŃch":10296,"Ġbalanc":10297,"Ġwinter":10298,"Ġzim":10299,"Ġornam":10300,"Ġhousle":10301,"ĠhnÄĽdÃ©":10302,"ĠMusel":10303,"ĠÃºsmÄĽvu":10304,"ĠstÃ¡":10305,"ĠkouskÅ¯":10306,"Ġflies":10307,"Ġpejsek":10308,"Ã¡ky":10309,"Ġobrovskou":10310,"ĠveÄįeÅĻe":10311,"Ġohledupl":10312,"ĠjemnÃ©":10313,"ĠpÅĻipojil":10314,"Ġcomplete":10315,"Ġdiary":10316,"opis":10317,"Ġclosely":10318,"ĠupÅĻÃŃmnÃ½":10319,"utor":10320,"ngu":10321,"Ġmagaz":10322,"Ġjmenovali":10323,"Ġinsect":10324,"ĠobrÃ¡zkÅ¯":10325,"ĠMou":10326,"skalo":10327,"ĠhromÃ¡d":10328,"nÅ¯":10329,"ĠslÃŃbili":10330,"Ġmravenec":10331,"raÅ¡ÃŃ":10332,"ĠnepÅĻÃŃ":10333,"ĠvyprÃ¡":10334,"pected":10335,"ĠchrÃ¡nit":10336,"ĠNechci":10337,"ĠÅ¾ivota":10338,"Ġcardboard":10339,"Ġdojed":10340,"ĠtakovÃ½":10341,"ĠstateÄįnÄĽ":10342,"ĠPÅĻibÄĽhl":10343,"ÅĻÃŃÅ¡":10344,"ĠdozvÄĽdÄĽt":10345,"nau":10346,"Ġeagerly":10347,"Ġplayer":10348,"ĠprojÃŃÅ¾Äı":10349,"Ġvend":10350,"Ġbaking":10351,"ĠneustÃ¡le":10352,"Ġrukavici":10353,"ĠâĢĵ":10354,"ĠsÃ¡":10355,"Ġschopen":10356,"ĠmlÃ¡dÄĽ":10357,"ĠzdvoÅĻilÃ½":10358,"Ġkomet":10359,"ĠÅ¡krÃ¡":10360,"ĠmenÅ¡ÃŃ":10361,"ĠÅ¡tÃŃt":10362,"Ġdnech":10363,"kovÃ©":10364,"ĠskÃ¡ly":10365,"Ġdisag":10366,"Ġpavu":10367,"ĠpÅĻÃŃpad":10368,"niture":10369,"Ġpsy":10370,"Ã¡lie":10371,"Ġsmradla":10372,"ĠDlouho":10373,"ĠkrÃ¡vy":10374,"ĠPÃŃ":10375,"ĠvÄįely":10376,"Ġcooler":10377,"Ġposkyt":10378,"Ġglove":10379,"ĠpÃŃsniÄįky":10380,"Ġspravit":10381,"Ġbulb":10382,"lechl":10383,"alÃŃ":10384,"Ġnakou":10385,"buÅ¥":10386,"Ġpopel":10387,"ĠlabuÅ¥":10388,"ĠohromenÃ¡":10389,"Ġsyn":10390,"Ġdezert":10391,"Ã¡hnou":10392,"ĠudrÅ¾":10393,"ĠNaÅ¡tÄĽstÃŃ":10394,"Ġautomob":10395,"klad":10396,"Ġfurniture":10397,"inc":10398,"Ġuli":10399,"Ġstuffed":10400,"Ġvesnice":10401,"ĠzÃŃv":10402,"ĠVon":10403,"Ġmohu":10404,"Ġtreasures":10405,"ĠznÃ¡":10406,"ĠklidnÃ½":10407,"ĠPÅĻiÅ¡la":10408,"ssi":10409,"ĠmusÃŃm":10410,"kaÅĻ":10411,"Ġdisp":10412,"nad":10413,"xy":10414,"Ġpine":10415,"ĠokamÅ¾":10416,"ĠdÅ¾usu":10417,"ĠvyÅ¡li":10418,"ĠUsmÃŃvali":10419,"Ġhrady":10420,"Ġimagination":10421,"ĠomlouvÃ¡":10422,"Ġinkou":10423,"Ġbreaks":10424,"Ġavok":10425,"ĠspoÄįÃŃt":10426,"ĠPÅĻiÅ¡el":10427,"ĠPÅĻibÄĽhla":10428,"Ġskull":10429,"ĠmedÃº":10430,"Ġschovala":10431,"Ã¡du":10432,"Ġheaded":10433,"Ġoliz":10434,"Emma":10435,"Ġpair":10436,"Ġchurch":10437,"myslel":10438,"Ġwife":10439,"ĠSlon":10440,"auli":10441,"ĠpÃŃrko":10442,"Ġfrogs":10443,"kelet":10444,"ĠstÃ¡la":10445,"ĠnepotÅĻe":10446,"Äįce":10447,"ĠSklo":10448,"ĠtÃ©mÄĽÅĻ":10449,"ĠLetÄĽl":10450,"ĠpÅĻipe":10451,"Ġknob":10452,"Ġoslav":10453,"ĠpoÅ¡tu":10454,"Ġkouzlo":10455,"place":10456,"Vz":10457,"squ":10458,"ctory":10459,"ĠPotÅĻebuje":10460,"lovat":10461,"Ġsvetr":10462,"Ġswitch":10463,"enÃ½m":10464,"ĠaraÅ¡ÃŃ":10465,"ween":10466,"Ġsez":10467,"Ġtwink":10468,"annah":10469,"ĠvrÃ¡tily":10470,"Ġjelen":10471,"Ġfialovou":10472,"ĠNikdo":10473,"ĠsÃŃlu":10474,"Ġshrimp":10475,"ĠoblÃ¡z":10476,"ĠpÄĽt":10477,"Dnes":10478,"ĠÅ¡pÃŃ":10479,"Ġfootball":10480,"Ġsunset":10481,"hovat":10482,"Ġvykoupat":10483,"zat":10484,"Ġmeda":10485,"ĠobjÃŃmali":10486,"ĠvzlÃ©t":10487,"Ġoffer":10488,"ĠpostÃ½l":10489,"ĠruÄįnÃŃ":10490,"Ġoknu":10491,"SÃ¡":10492,"tÃ¡hl":10493,"vÄĽdÃŃ":10494,"Ġbetween":10495,"Ġlie":10496,"louche":10497,"anci":10498,"ĠkartÃ¡":10499,"ĠkvÄĽ":10500,"rÅ¾":10501,"Ġspr":10502,"ĠhotovÃ½":10503,"ories":10504,"ben":10505,"ĠzabrÃ¡":10506,"ĠuÄįil":10507,"udeb":10508,"Lisa":10509,"dila":10510,"cviÄį":10511,"ĠzlÃ©ho":10512,"ĠstraÅ¡idel":10513,"Ġpomoz":10514,"Ġmotorcycle":10515,"ĠnepÅĻest":10516,"ĠOr":10517,"Ġsuk":10518,"ĠDÃ¡ma":10519,"Ġsklo":10520,"ĠjejÃŃmu":10521,"Ġstanu":10522,"Ġfactory":10523,"Ġsednout":10524,"Ġzrcadla":10525,"Ġvet":10526,"ĠudÄĽlajÃŃ":10527,"ĠBÄĽhal":10528,"Ġcups":10529,"Ġcesta":10530,"Ġswung":10531,"Ġappla":10532,"ĠchvÃŃ":10533,"ĠspÃŃ":10534,"ĠkeÅĻe":10535,"ĠÅ¡kÃ¡d":10536,"gth":10537,"Ġmosqu":10538,"Ġklece":10539,"Ġoves":10540,"Ġzahrada":10541,"Ġponau":10542,"ĠDokÃ¡Å¾e":10543,"cause":10544,"omÃŃnajÃŃ":10545,"Ġpopul":10546,"ĠKay":10547,"Ġhoupali":10548,"Ġhrnek":10549,"Ġpamatovala":10550,"Ġshouting":10551,"ĠzÃ¡bavÄĽ":10552,"ĠtlaÄįÃŃ":10553,"ĠflÃ©tnu":10554,"Ġchirp":10555,"ĠvloÅ¾ila":10556,"ovol":10557,"Ġflame":10558,"ĠleÅ¾et":10559,"oku":10560,"Ġhut":10561,"Ġchystal":10562,"Ġknihovny":10563,"ĠpapÃŃrov":10564,"ĠMatka":10565,"ĠobliÄįeje":10566,"Ġblowing":10567,"ĠÄįekÃ¡":10568,"Ġcauli":10569,"Ġnepod":10570,"Ġkapse":10571,"Ġtanec":10572,"ason":10573,"Ġpeach":10574,"Ġsung":10575,"najÃŃ":10576,"ĠZeptÃ¡":10577,"ĠcereÃ¡lie":10578,"Ġproh":10579,"OO":10580,"Ġnahlas":10581,"UdÄĽla":10582,"Ġodraz":10583,"eros":10584,"Ġklou":10585,"ĠLilyinu":10586,"ĠospalÃ½":10587,"ef":10588,"ĠnÄĽÄįem":10589,"Ġpainter":10590,"Ġatr":10591,"raffe":10592,"ipper":10593,"Ġvendor":10594,"venÃŃ":10595,"Ġseeing":10596,"Ġmosquito":10597,"Ġdoru":10598,"inoc":10599,"ĠpÅĻipomÃŃn":10600,"ĠsluneÄįnÃ½":10601,"ĠpouÅ¡t":10602,"Ġstoupat":10603,"ijÃŃ":10604,"nÃŃci":10605,"ĠDoufal":10606,"Ġfolder":10607,"ĠzamÄį":10608,"Ġpirates":10609,"Ġkakt":10610,"ĠCoco":10611,"ĠmÃ½dlo":10612,"ĠÄįemu":10613,"ĠPÅĻemÃ½Å¡lela":10614,"ĠJulie":10615,"ĠponauÄįenÃŃ":10616,"use":10617,"bujeme":10618,"racejÃŃ":10619,"ĠChloe":10620,"Ġmeloun":10621,"ĠodmÄĽnu":10622,"ĠklÃ¡d":10623,"ĠPodÃŃvÃ¡":10624,"Ġcushion":10625,"ĠshromÃ¡Å¾d":10626,"Ġskelet":10627,"lÃ¡n":10628,"ĠÅ¡perky":10629,"Ġmixer":10630,"Ġframe":10631,"Your":10632,"Ġcheek":10633,"Ġcreated":10634,"utÃ¡":10635,"Ġcoal":10636,"MusÃŃÅ¡":10637,"Ġkay":10638,"Ġthrows":10639,"Ġheads":10640,"Ġpavouk":10641,"rus":10642,"Ġvlk":10643,"ĠzahÅĻ":10644,"Ġnadechl":10645,"Ġhoru":10646,"ĠprÅ¯vod":10647,"ĠolÃŃzl":10648,"ĠNesly":10649,"ding":10650,"ĠstÅĻÃŃbr":10651,"Ġfisherman":10652,"ĠSlyÅ¡ela":10653,"ĠpÅĻis":10654,"ĠdokÃ¡zala":10655,"ĠzahrÃ¡li":10656,"Ġsoc":10657,"ĠtÅĻeba":10658,"inoceros":10659,"Ġnemohou":10660,"ĠQu":10661,"ety":10662,"ahu":10663,"Ġsoccer":10664,"alit":10665,"Ġpneumati":10666,"vÄĽtnÃŃ":10667,"Ġconf":10668,"Ġyucky":10669,"ĠskvÄĽlÃ¡":10670,"ĠpÅĻiblÃŃÅ¾ila":10671,"ĠzdravÃ½":10672,"LÃŃbÃŃ":10673,"Ġbasketbal":10674,"Ġoil":10675,"Ġplaz":10676,"ekla":10677,"Ġchladno":10678,"ĠÄįÃŃsla":10679,"ĠzalÃ©":10680,"Ġpopped":10681,"ĠBÄĽhali":10682,"Ġexplain":10683,"ĠnÃ¡klaÄıÃ¡kem":10684,"Ġcauliflower":10685,"hly":10686,"Ġsamo":10687,"nuli":10688,"Ġbattery":10689,"ĠsamozÅĻejmÄĽ":10690,"Ġhorses":10691,"Ġattention":10692,"Ġwipe":10693,"Ġlangu":10694,"ĠvesmÃŃr":10695,"ĠÅ¡oku":10696,"ĠtrpÄĽlivÃ¡":10697,"ĠvelkÃ½mi":10698,"ĠpracÃŃ":10699,"ĠMuseli":10700,"ĠzÃ¡dech":10701,"Ġtvor":10702,"Ġpur":10703,"Ġforgotten":10704,"ĠPodÃŃvejte":10705,"Ġlives":10706,"Ġbuck":10707,"Ġsetkal":10708,"Ġweather":10709,"ĠAd":10710,"ivost":10711,"ĠÅ¡Å¥avnatÃ©":10712,"aÅ¡e":10713,"Ġseh":10714,"ĠjÃŃdlem":10715,"elcome":10716,"VÅ¡":10717,"pted":10718,"Ġsedmi":10719,"Ġobra":10720,"Ġcelebrated":10721,"Ġvyrost":10722,"render":10723,"Ġlime":10724,"ĠdÄĽlalo":10725,"skÃ½m":10726,"ĠKni":10727,"Ġlano":10728,"ĠGod":10729,"Å¡tros":10730,"Ġfishing":10731,"Ġmaze":10732,"ĠVydÄĽ":10733,"Ġposadili":10734,"RÃ¡d":10735,"ĠLuna":10736,"ĠstÅĻÃŃdat":10737,"ĠzaÅ¡ept":10738,"ÅĻou":10739,"Ġsurround":10740,"Ġnedovo":10741,"Ġhudba":10742,"Ġatrakt":10743,"Ġslept":10744,"Tati":10745,"Å¾ili":10746,"zvlÃ¡":10747,"ĠvloÅ¾il":10748,"ĠjmÃ©na":10749,"Ġlotion":10750,"fej":10751,"vajÃŃ":10752,"Ġwaving":10753,"ĠPouÅ¾ila":10754,"ĠbrÃ¡nu":10755,"ĠhladovÃ¡":10756,"ĠlahodnÃ½ch":10757,"ĠFloppy":10758,"ĠpÅĻiÅ¡lo":10759,"Ġyoga":10760,"Ġrhinoceros":10761,"dÄĽlo":10762,"chor":10763,"##":10764,"Ġdear":10765,"Ġnadechla":10766,"tain":10767,"unately":10768,"Ġodkud":10769,"ĠdajÃŃ":10770,"Ġupadla":10771,"ĠzvÃŃÅĻ":10772,"ĠJmenovala":10773,"Ġteta":10774,"ĠjÃ³":10775,"ozici":10776,"ĠVyÅ¡":10777,"Ġpowder":10778,"Ġgiraffe":10779,"Ġsnadno":10780,"Inside":10781,"Ġverand":10782,"Ġdole":10783,"Ġtutor":10784,"Ġfireplace":10785,"Ġrybka":10786,"ĠÅ¾Ã¡by":10787,"Ġstejnou":10788,"ĠKous":10789,"yb":10790,"ĠmÃ½m":10791,"ĠpokusÃŃ":10792,"ĠpoloÅ¾ili":10793,"ĠprÃ¡zdnÃ¡":10794,"Ġplave":10795,"Ġokou":10796,"ĠotÃ¡zky":10797,"ĠÄįernÃ©":10798,"Ġflea":10799,"ĠpÅĻevlÃ©":10800,"vil":10801,"Ġsub":10802,"Ġplechov":10803,"Ġbzu":10804,"Jmenuji":10805,"ĠvodÃŃtko":10806,"Ġnasadila":10807,"Ġpoints":10808,"Ġpse":10809,"ĠmlÃ½":10810,"Å¾ila":10811,"ĠchvÃŃle":10812,"ĠneznÃ¡":10813,"ĠjasnÃ½":10814,"ĠobjÃŃmÃ¡":10815,"lasses":10816,"ĠusmÃ¡lo":10817,"Äįera":10818,"ĠNutty":10819,"viÄįku":10820,"Ġkober":10821,"ĠHlas":10822,"ĠvytvoÅĻil":10823,"Ġbreeze":10824,"ĠlahodnÄĽ":10825,"Ġswamp":10826,"ĠÅĻadÄĽ":10827,"Ġpoint":10828,"ĠBillyho":10829,"ĠuÅ¾ÃŃvat":10830,"ĠzÃ¡da":10831,"Ġglowing":10832,"ĠmÃŃrumilov":10833,"tivÃ½":10834,"ckey":10835,"omenout":10836,"Ġlicen":10837,"Ġbaterku":10838,"Ġsunglasses":10839,"ĠmazlÃŃÄįka":10840,"ĠOtevÅĻeli":10841,"time":10842,"ĠnenaÅ¡la":10843,"ĠMusela":10844,"ĠdÃŃtÄĽti":10845,"Ġtip":10846,"ĠkulatÃ¡":10847,"VÃŃte":10848,"Ġkingdom":10849,"loha":10850,"Ġpostavila":10851,"ĠVenku":10852,"ĠstrÄįil":10853,"ĠpohodlnÄĽ":10854,"ĠRozhodnou":10855,"ĠTento":10856,"Ġnebyly":10857,"Ġmemories":10858,"ĠKop":10859,"ĠmaliÄįkÃ¡":10860,"ĠokvÄĽtnÃŃ":10861,"Miluju":10862,"Ġbludi":10863,"bles":10864,"ĠchybÃŃ":10865,"Ġstren":10866,"Ġsedla":10867,"Ġmikrofon":10868,"ĠLucky":10869,"ĠdÃ½ni":10870,"ĠchutnÃ¡":10871,"ĠtovÃ¡":10872,"ĠRu":10873,"Ġomluvili":10874,"nev":10875,"Ġsuperhrd":10876,"Ġpetals":10877,"spap":10878,"Ġtuna":10879,"kovÃ½":10880,"oto":10881,"Ġostra":10882,"ĠUdÄĽl":10883,"Ġslipp":10884,"Ġaxe":10885,"Ġparent":10886,"ĠbÅĻeh":10887,"ĠaligÃ¡t":10888,"Ġsrdci":10889,"Ġdispozici":10890,"Ġskeleton":10891,"fot":10892,"Ġdomku":10893,"ĠÅ¡tÄĽkÃ¡":10894,"Ġmotorku":10895,"hero":10896,"Ġvybral":10897,"ĠmÃŃchat":10898,"hovÃ¡":10899,"ĠHra":10900,"Ġreve":10901,"Ġfog":10902,"Ġmistakes":10903,"ĠuvÃŃzl":10904,"ache":10905,"Ġnewspap":10906,"icky":10907,"Ġdancer":10908,"Ġceiling":10909,"lÃº":10910,"Ġsek":10911,"ĠholÄįiÄįko":10912,"ĠzlÃ©":10913,"Ġsque":10914,"ÅĻet":10915,"Ġchickens":10916,"Ġgreedy":10917,"ĠoriginÃ¡lnÃŃ":10918,"kejte":10919,"ĠnÃ¡ÅĻadÃŃ":10920,"Ġdisappear":10921,"ĠPotÅĻeb":10922,"Ġzaplatit":10923,"Ġstrength":10924,"Ġduch":10925,"Ġodvahu":10926,"aw":10927,"Ġsquirrels":10928,"Ġiglo":10929,"Ġhockey":10930,"Ġjach":10931,"Ġkoho":10932,"Ġuniform":10933,"likopt":10934,"Ġgrin":10935,"Ġanchor":10936,"Jo":10937,"ĠBoba":10938,"ĠpodÃŃvejte":10939,"Ġbuzz":10940,"ĠRozlouÄįili":10941,"Ġspra":10942,"ĠzdravÃ©":10943,"ĠThomas":10944,"roscope":10945,"Ġpup":10946,"Ġsuperhero":10947,"ovÃ¡nÃŃm":10948,"ĠjÃ¡m":10949,"ĠÅ¡roub":10950,"Ġmluvila":10951,"ĠotevÅĻely":10952,"Ġhoupala":10953,"Ġtancovat":10954,"Ġexperience":10955,"Ġvypla":10956,"Ġgolden":10957,"Ġsniffed":10958,"sal":10959,"Ġargue":10960,"ĠpÅĻÃŃstavu":10961,"Ġfoukal":10962,"ĠusmÃŃvat":10963,"Ġcable":10964,"Ġnapkin":10965,"Eventually":10966,"Ġmusician":10967,"ĠBez":10968,"ĠstrÄįila":10969,"Ġskupinu":10970,"Ġspal":10971,"roskop":10972,"ĠblÃ¡tÄĽ":10973,"ĠchuÅ¥":10974,"Ġtemple":10975,"ĠpomÃ¡hali":10976,"ĠPolici":10977,"Ġmedu":10978,"Ġleb":10979,"ĠtÃ¡ty":10980,"Ġhokej":10981,"Ġhanging":10982,"Ġstaff":10983,"ĠlÃŃbily":10984,"likoptÃ©":10985,"Ġteplou":10986,"ĠTr":10987,"ĠÅ¾Ã¡dnÃ¡":10988,"ĠpÅĻemÃ½Å¡lÃŃ":10989,"Äįkou":10990,"ĠÅ¡vest":10991,"VÃŃm":10992,"Ġskirt":10993,"ĠnebezpeÄįnÃ½":10994,"ĠMraven":10995,"ĠnÃ¡lepku":10996,"Ġsanit":10997,"Ġbury":10998,"ĠzranÄĽnÃ¡":10999,"house":11000,"ĠvychÃ¡zel":11001,"iately":11002,"Ġneo":11003,"ĠjemnÃ¡":11004,"Ġagree":11005,"ĠkrÃ¡lovstvÃŃ":11006,"Ġdiscus":11007,"Å¾ec":11008,"lovi":11009,"onem":11010,"ĠvÃ½jimeÄįnÃ¡":11011,"Ġeaten":11012,"Ġga":11013,"Ġklacky":11014,"ĠMiss":11015,"ĠposlednÃŃ":11016,"Ġshovel":11017,"Ġtheater":11018,"Ã¡nku":11019,"Ġkajak":11020,"Ġnasadil":11021,"Proto":11022,"louzla":11023,"Ġmeeting":11024,"ĠÅ¡plouch":11025,"Ġrozbitou":11026,"Ġhonk":11027,"Ġinf":11028,"ĠvozÃŃk":11029,"ĠmÃŃstem":11030,"Ġmicroscope":11031,"ĠPouÄįili":11032,"Äįina":11033,"Ġinvest":11034,"ĠjasnÃ¡":11035,"ĠMiluju":11036,"Ġpoprosila":11037,"Ġchyby":11038,"ĠtÄĽstoviny":11039,"ĠVola":11040,"Thanks":11041,"ĠSlyÅ¡eli":11042,"Ġhrdina":11043,"Ġzipper":11044,"Ġveverky":11045,"Ġwelcomed":11046,"Ġbac":11047,"Ġshoulder":11048,"Ġvyhod":11049,"Ġshort":11050,"ĠcoÅ¾":11051,"ssible":11052,"Ġzkusil":11053,"Ġvyk":11054,"ĠBolÃŃ":11055,"Ġquietly":11056,"ĠvzruÅ¡enÃŃ":11057,"Ġigloo":11058,"ÄįasÃŃ":11059,"erc":11060,"Ġnechali":11061,"lay":11062,"ĠgarÃ¡Å¾i":11063,"ĠPoskakoval":11064,"ĠDrÅ¾ela":11065,"Ġrovnov":11066,"Å¡vi":11067,"Ġtrofej":11068,"Ġstaral":11069,"ĠkulatÃ½":11070,"Ġnepohn":11071,"Ġflapped":11072,"mÃ©":11073,"chair":11074,"Ġinvestig":11075,"ĠoÅĻÃŃ":11076,"Ġslippery":11077,"ĠHop":11078,"Ġbouncing":11079,"Ġfought":11080,"Ġposlechla":11081,"ujete":11082,"nies":11083,"Ġaccepted":11084,"Ġradish":11085,"ĠhlavnÄĽ":11086,"ĠJezd":11087,"ĠzÃ¡pis":11088,"ĠvÅĻel":11089,"Ġopak":11090,"Ġnavrhla":11091,"Ġnatr":11092,"Ġthrowing":11093,"ym":11094,"chÃ¡zejÃŃ":11095,"onu":11096,"rm":11097,"Ġpustila":11098,"Ġcub":11099,"Ġdoors":11100,"Ġmyst":11101,"ĠiglÃº":11102,"ĠInstead":11103,"Ġvzkaz":11104,"ĠzkouÅ¡ela":11105,"ĠtuÅĪ":11106,"Ġplastic":11107,"loÅ¾it":11108,"Ġcob":11109,"Ġcreek":11110,"ĠtoÄįÃŃ":11111,"ĠÅĻÃŃkat":11112,"Ġrameny":11113,"ĠotoÄįit":11114,"Ġztratit":11115,"ĠNelÃŃbilo":11116,"Today":11117,"ĠnebezpeÄįÃŃ":11118,"ĠpouÅ¾ÃŃvala":11119,"Ġsticky":11120,"Ġpinch":11121,"Ġmilujeme":11122,"ĠnezapomeÅĪ":11123,"Ġcalls":11124,"bie":11125,"ĠnabÃŃdl":11126,"ĠzvlÃ¡Å¡tnÃŃm":11127,"ĠdÄĽkovali":11128,"nÃŃka":11129,"tress":11130,"Wait":11131,"Ġmattress":11132,"Ġkayak":11133,"ĠÅ¡atÅ¯":11134,"yp":11135,"chie":11136,"ĠbaÅ¾":11137,"Ġobojek":11138,"Ġmoves":11139,"Ġfant":11140,"ĠkoÄįkou":11141,"ĠprojÃŃÅ¾Äıku":11142,"ĠZpo":11143,"vÃ½m":11144,"Ġsklouznout":11145,"Å¾ek":11146,"ĠstÄĽnÄĽ":11147,"Jsou":11148,"Å½":11149,"Ġsurrender":11150,"Ġwar":11151,"ĠpÄĽknÃ¡":11152,"ĠPtÃ¡ci":11153,"ĠJamie":11154,"ĠChirpy":11155,"ĠTi":11156,"ĠsuÅ¡enek":11157,"ĠJemnÄĽ":11158,"ĠtoÄįil":11159,"Ġtrail":11160,"Ġstodoly":11161,"ĠBenem":11162,"Ġcared":11163,"Ġfreezer":11164,"ĠPÅĻedstav":11165,"Ġlawy":11166,"Ġvany":11167,"ĠÄįeho":11168,"Ġsuff":11169,"vÄĽjÅ¡ÃŃ":11170,"Ġmikroskop":11171,"Ġkartu":11172,"Ġavocado":11173,"Ġmarble":11174,"byt":11175,"Ġlampu":11176,"ĠnÄĽkteÅĻÃŃ":11177,"ĠObloha":11178,"ĠmÄĽkkou":11179,"ĠstmÃŃv":11180,"ĠprÅ¯Å¡vi":11181,"ĠVyÅ¡pl":11182,"Ġvlas":11183,"Ġiron":11184,"ĠnauÄįÃŃ":11185,"ĠumÄĽ":11186,"ĠNatÃ¡hla":11187,"ĠTiny":11188,"Ġfau":11189,"Ġreef":11190,"Ġbudovy":11191,"Ġwriting":11192,"ĠdveÅĻmi":11193,"Ġkroc":11194,"ĠostÅĻÃŃ":11195,"was":11196,"edl":11197,"Ġnews":11198,"ĠklidnÃ¡":11199,"ĠleÅ¾el":11200,"ĠpÅĻichÃ¡zÃŃ":11201,"ĠBobovi":11202,"Ġoyster":11203,"ĠbÅĻ":11204,"inked":11205,"orem":11206,"Ġarmchair":11207,"ĠnenaÅ¡li":11208,"ĠdÄĽdeÄįek":11209,"Ġspadnout":11210,"nka":11211,"web":11212,"nesla":11213,"ĠhelikoptÃ©":11214,"ĠZpoÄįÃ¡tku":11215,"ĠodhodlanÃ¡":11216,"Ġmakeup":11217,"ĠrÃ¡do":11218,"ĠdÃ¡lky":11219,"ĠNatÃ¡hl":11220,"Ġvp":11221,"ĠpÅĻekvapen":11222,"Le":11223,"ĠdÃ½chÃ¡":11224,"ĠÅ¡ok":11225,"Ġinvestigate":11226,"ĠoÅĻechy":11227,"Ġsailing":11228,"Ġhavran":11229,"Å¡nÃŃ":11230,"ĠbanÃ¡ny":11231,"ĠNeÅ¾":11232,"Ġmystery":11233,"ilet":11234,"ĠkamarÃ¡dkami":11235,"bel":11236,"bit":11237,"ĠodchÃ¡zeli":11238,"ĠukÃ¡zali":11239,"Ġcvrli":11240,"jÃŃst":11241,"Ġnerad":11242,"Ġpistoli":11243,"ĠUÄįitelka":11244,"Ġpokou":11245,"Ġtrubku":11246,"ĠvzruÅ¡ujÃŃcÃŃho":11247,"Ġspadne":11248,"Ġpoklady":11249,"ĠhÅĻeben":11250,"Ġmimo":11251,"Ġcherries":11252,"Ġcost":11253,"Ġcrib":11254,"ĠJosh":11255,"ĠÄĮek":11256,"Ġunifor":11257,"Ġexerc":11258,"ĠvytÃ¡hnout":11259,"ĠBÃ¡l":11260,"Ġtruhlu":11261,"ĠpotÅĻebovali":11262,"rÃ¡p":11263,"Ġfaucet":11264,"Ġchystala":11265,"ĠrovnovÃ¡hu":11266,"washer":11267,"Ġworth":11268,"ĠdalÅ¡ÃŃho":11269,"ohod":11270,"ĠKrÃ¡lÃŃÄįek":11271,"Ġsplashing":11272,"ĠÃºtesu":11273,"ĠfialovÃ½":11274,"Ġraketa":11275,"Ġdome":11276,"ĠJeÅ¡tÄĽ":11277,"apar":11278,"Ġkluz":11279,"Ġprevent":11280,"Ġlepka":11281,"ĠVracejÃŃ":11282,"ĠPomoc":11283,"Ġcollected":11284,"Ġmenu":11285,"Ġopraven":11286,"Ġchim":11287,"ĠobÄĽdu":11288,"ĠAnne":11289,"Ġsprayed":11290,"Ġjevi":11291,"Ġquack":11292,"ĠoblÃ©kl":11293,"Ġujistit":11294,"chÃ¡zelo":11295,"Ġagre":11296,"Together":11297,"ĠzaÅ¾ÃŃt":11298,"ĠPÅĻedstÃŃrajÃŃ":11299,"Ġmagazine":11300,"ĠmladÃ½":11301,"Ġapplaud":11302,"Ġjmenovalo":11303,"Ġpresents":11304,"Ġwags":11305,"ĠmotÃ½ly":11306,"Ġcobweb":11307,"ĠsvaÄįiny":11308,"shes":11309,"Next":11310,"Ġnalo":11311,"Ġrespon":11312,"ĠkvÄĽtinÄĽ":11313,"Ġhappens":11314,"ĠBetty":11315,"ĠBennyho":11316,"ĠÅ¾ivÃ½":11317,"ĠKamkoli":11318,"Ġdishwasher":11319,"ĠostraÅ¾it":11320,"Ġnerozum":11321,"Ġpochopila":11322,"zli":11323,"Ġoblek":11324,"ĠplavÃ¡nÃŃ":11325,"Ġchceme":11326,"ĠpÃ¡nev":11327,"Ġkrevet":11328,"ĠobÄĽma":11329,"ĠjÃŃm":11330,"Ġentered":11331,"Ġokouzlu":11332,"ÃŃval":11333,"ĠmoÅ¾":11334,"ĠoÅĻech":11335,"ĠrozzÃ¡ÅĻila":11336,"ĠvanÄĽ":11337,"ĠpÅĻemÃ½Å¡let":11338,"Ġinv":11339,"ipping":11340,"ĠbÄĽÅ¾":11341,"Ġblou":11342,"Ġtear":11343,"Ġcastles":11344,"Ġsop":11345,"vÃ¡m":11346,"ĠChceme":11347,"ĠVÃŃm":11348,"Ġscolded":11349,"ĠÅłp":11350,"PoÄįkej":11351,"Ġveil":11352,"Ġshrugged":11353,"chran":11354,"ĠJohnovi":11355,"Ġposkakovat":11356,"ĠÄįin":11357,"Ġznud":11358,"Ġseparate":11359,"Ġbratrovi":11360,"Ġobdivovala":11361,"...":11362,"Chla":11363,"ĠzÃ¡ÅĻila":11364,"ĠostrÃ½":11365,"ĠprÅ¯Å¡vihu":11366,"ĠobÄįerstvenÃŃ":11367,"ĠpÅĻidala":11368,"ĠnejlepÅ¡ÃŃm":11369,"Ġweigh":11370,"Ġbarva":11371,"Ġstrany":11372,"ĠpopulÃ¡rnÃŃ":11373,"ĠtrojÃºhelnÃŃk":11374,"ĠkterÃ©mu":11375,"Ġtoilet":11376,"ĠzkouÅ¡et":11377,"Ġnakreslila":11378,"Ġchess":11379,"ĠobrovskÃ¡":11380,"clo":11381,"Ġjazyk":11382,"ĠodliÅ¡":11383,"ison":11384,"ĠdÅ¯leÅ¾itÃ¡":11385,"ĠsloÅ¾ku":11386,"Ġrake":11387,"Ġzaj":11388,"ĠnelÃŃbil":11389,"Ġcabinet":11390,"ĠvelkÃ½ma":11391,"Ġtenhle":11392,"ĠneudÄĽl":11393,"Ġargu":11394,"Ġklob":11395,"Ġmilovat":11396,"Ġmodlit":11397,"Ġzkoumala":11398,"ĠpouÅ¾ÃŃval":11399,"ĠpÅĻedstavivost":11400,"ĠchlupatÃ©":11401,"Ġblankets":11402,"tÄĽlo":11403,"ĠÄįerv":11404,"Ġhonil":11405,"ĠMÄĽsÃŃc":11406,"ĠhadÅĻÃŃk":11407,"Ġtucked":11408,"ĠzapomnÄĽli":11409,"ĠNÄĽco":11410,"Ġkleci":11411,"ĠÄįepice":11412,"hlÃŃÅ¾eli":11413,"hovala":11414,"Ġkloboukem":11415,"inami":11416,"Ġignored":11417,"aÅ¾":11418,"Ġkresl":11419,"ĠmincÃŃ":11420,"Budu":11421,"Ġkresby":11422,"lomil":11423,"Ok":11424,"inec":11425,"ĠÅ¡tÄĽÅĪ":11426,"ĠteplÃ¡":11427,"Ġpastelku":11428,"ĠrozhlÃŃÅ¾el":11429,"Ġzaslechl":11430,"Ġchimney":11431,"Ġlawyer":11432,"ĠUcÃŃt":11433,"Ġcoats":11434,"Ġsince":11435,"ĠDÃŃvali":11436,"Ġkisses":11437,"Ġcandles":11438,"Ġdrakem":11439,"Ġclassroom":11440,"ĠtvÃ¡ÅĻÃŃch":11441,"krÃ¡t":11442,"Ġobavy":11443,"ovÃ¡n":11444,"Ġattach":11445,"ĠClaire":11446,"Ġvzdy":11447,"Ġpuddles":11448,"Ġposlat":11449,"Ġhopes":11450,"ĠÅ¡plhat":11451,"ĠsbÃŃral":11452,"Dan":11453,"Ã½skalo":11454,"ĠvozÃŃ":11455,"Ġfollows":11456,"Maxi":11457,"Ġopici":11458,"ĠUvÄĽdomili":11459,"ĠnemÃ¡m":11460,"Ġyi":11461,"Ġeasily":11462,"ĠstÃŃnu":11463,"Ġapart":11464,"ĠTilly":11465,"ĠodletÄĽt":11466,"aty":11467,"ĠZOO":11468,"Ġosu":11469,"ÅĻÃ¡sl":11470,"ĠVzpomnÄĽla":11471,"ĠuhlÃŃ":11472,"Ġbeef":11473,"ĠZavÅĻela":11474,"Ġpamlsek":11475,"ĠkbelÃŃku":11476,"ĠPoloÅ¾ÃŃ":11477,"ĠHoup":11478,"ĠÅ¾ralok":11479,"Ġhousenka":11480,"Ġtleskala":11481,"ĠchutnÄĽ":11482,"Ġchairs":11483,"ĠnepÅĻiÅ¡el":11484,"Ġsnap":11485,"Ġvlnu":11486,"ĠzvÃŃÅĻatech":11487,"Ġburned":11488,"ĠSkoÄįil":11489,"olÃŃ":11490,"ĠbÃ¡li":11491,"Ġbother":11492,"ejte":11493,"ĠJel":11494,"ĠrybÃ¡ÅĻ":11495,"ĠpromiÅĪ":11496,"ĠchladnÃ½":11497,"Ġletting":11498,"Ġuzel":11499,"Ãļ":11500,"ĠzaÄįÃŃnÃ¡":11501,"Ġkamenem":11502,"ĠplyÅ¡ovÃ½m":11503,"ĠNext":11504,"ĠDrÅ¾el":11505,"Ġdem":11506,"ĠvydÃ¡":11507,"ĠÃºdo":11508,"hlÃŃd":11509,"ĠSbali":11510,"Ã¡mhle":11511,"Ġcaring":11512,"ĠjÃŃzdu":11513,"Ġnevzdal":11514,"¸ı":11515,"ï¸ı":11516,"ichotala":11517,"Ġcane":11518,"Ġtoto":11519,"Ġdressed":11520,"Ġautobusu":11521,"ĠjedÃŃ":11522,"Ġfoto":11523,"Ġstraight":11524,"ĠpeÄįivo":11525,"Ġtrusted":11526,"Ġenter":11527,"ĠÅ¡edÃ½":11528,"Ġaccept":11529,"Ġtakovou":11530,"ĠkrÃ¡lÃŃkovi":11531,"Ġtelep":11532,"Ġzmrzliny":11533,"ĠChyt":11534,"Ġveterinarian":11535,"ĠkolobÄĽ":11536,"ĠkoÅĻenÄĽ":11537,"Ġneus":11538,"Ġward":11539,"ĠBubbles":11540,"Ġhlou":11541,"Ġsizes":11542,"ĠrÃ¡dio":11543,"Ã¡ve":11544,"ĠÅ¡amp":11545,"ĠPodÄĽli":11546,"ĠdokonÄįila":11547,"Ġmluvil":11548,"stoupit":11549,"ĠkÃ½m":11550,"ĠOde":11551,"ĠvÄįelu":11552,"ĠpÃ¡n":11553,"Ġslice":11554,"ĠdÅ¯leÅ¾itÃ½":11555,"ĠVysvÄĽt":11556,"Ġlanguage":11557,"Ġzranil":11558,"Ġblinked":11559,"Ġzlobit":11560,"ĠtÅĻÃŃletÃ©":11561,"ĠLilu":11562,"ĠsluÅ¡nÄĽ":11563,"ede":11564,"raged":11565,"ĠDoufÃ¡m":11566,"tratila":11567,"Ġsigh":11568,"Ġmasku":11569,"Ġrise":11570,"Ġjewelry":11571,"Ġpotre":11572,"ĠzÃ¡stÄĽ":11573,"Ġzamr":11574,"ĠnevrlÃ½":11575,"ĠÅ¾vÃ½kaÄįku":11576,"Ġplanes":11577,"ĠhÅ¯lkou":11578,"ĠdÄĽsi":11579,"ĠZoom":11580,"ĠLulu":11581,"Ġvolal":11582,"Ġdovolenou":11583,"Ġwardrobe":11584,"Ġpill":11585,"Ġdare":11586,"ĠkÅĻÃŃdlo":11587,"Ġapron":11588,"Ġrequ":11589,"Ġprut":11590,"Ġshower":11591,"Ġkeeping":11592,"ĠvydÃ¡vat":11593,"ĠLilyiny":11594,"Ġoak":11595,"ĠIs":11596,"ĠZamÃ¡val":11597,"Ġjezdila":11598,"Ġzazvon":11599,"Ġmissile":11600,"Johnny":11601,"Ġtleskat":11602,"Ġskryt":11603,"ĠÅĻetÄĽ":11604,"Ġfotky":11605,"ĠrodiÄįÅ¯":11606,"Ġcrossed":11607,"ĠPÅĻistoupil":11608,"Ġlawn":11609,"ĠMad":11610,"ĠLÃŃbil":11611,"ĠzaneprÃ¡zdnÄĽnÃ½":11612,"ovanÃ½":11613,"Ġnewspaper":11614,"ĠdivokÃ©":11615,"ĠpÅĻistoupil":11616,"Ġtelephone":11617,"ĠdokonÄįil":11618,"ĠOtec":11619,"ĠodnÃ©st":11620,"Ġkraj":11621,"Ġclaws":11622,"Ġveselou":11623,"ĠzdravÃ¡":11624,"Ġprojet":11625,"ProtoÅ¾e":11626,"Ġnoviny":11627,"Ġwhisper":11628,"ĠvyprÃ¡vÄĽt":11629,"sty":11630,"Ġtrade":11631,"ĠpitÃŃ":11632,"Ġnebudou":11633,"Ġpuzzles":11634,"Ġrom":11635,"mend":11636,"Is":11637,"ĠÄįasopis":11638,"ĠY":11639,"ĠvÃ¡h":11640,"Ġhorkou":11641,"Ġrooms":11642,"Ġfotoapar":11643,"ĠnÄĽkter":11644,"stÃŃm":11645,"Ġgym":11646,"Ġvlaku":11647,"vidÃŃme":11648,"Ġmrz":11649,"ĠChytil":11650,"ĠpoÄįasÃŃ":11651,"ĠnemÅ¯Å¾ete":11652,"ĠtajnÃ©":11653,"ĠmuÅ¾em":11654,"ĠpÅĻipomnÄĽla":11655,"ĠhnÄĽ":11656,"ĠoceÃ¡n":11657,"Ġincre":11658,"ĠVÅ¡em":11659,"ĠhlÃ¡":11660,"ĠSusan":11661,"ĠobleÄį":11662,"ĠPrinc":11663,"radl":11664,"Ġenergie":11665,"Ġtornado":11666,"vedn":11667,"chÃ½":11668,"ĠobÃ¡lku":11669,"Ġodpla":11670,"erou":11671,"ĠobÄįas":11672,"ĠtvrdohlavÃ½":11673,"Ġstable":11674,"ĠÅ¡patnÃ¡":11675,"Ġexam":11676,"Ġbookcase":11677,"ĠpeÄįenÃŃ":11678,"ĠnecÃŃtil":11679,"kÃ½mi":11680,"ĠzpÅ¯sobilo":11681,"ĠtyÄį":11682,"Ġamaz":11683,"ĠÅ¡tÄĽstÃŃm":11684,"gy":11685,"Ġmouku":11686,"Ġboku":11687,"ume":11688,"Ġproje":11689,"Bude":11690,"ĠzaÄįnou":11691,"ĠnÃ¡stro":11692,"Ġamazement":11693,"lier":11694,"Ġblueberries":11695,"ĠmÃ¡vala":11696,"ĠSpotem":11697,"Ġnezastav":11698,"ĠnaÅ¡":11699,"Ġzkusila":11700,"PÅĻ":11701,"adle":11702,"Jake":11703,"ĠZhluboka":11704,"ĠpodivnÃ©":11705,"Ġcell":11706,"ĠÅĻedk":11707,"helf":11708,"ĠStoup":11709,"orted":11710,"Ġsqueezed":11711,"Ġnakrmit":11712,"Ġodej":11713,"Ġbookshelf":11714,"Because":11715,"ĠÅłÅ¥ast":11716,"ĠpÃ¡d":11717,"Ġrecom":11718,"Sus":11719,"ĠhledÃ¡":11720,"Ġkakao":11721,"ĠvystraÅ¡enÃŃ":11722,"Ġrecommend":11723,"Ġcras":11724,"ĠbÃ¡jeÄįnÄĽ":11725,"Ġposp":11726,"ĠjeÅĻÃ¡b":11727,"Ġvalley":11728,"Ġspala":11729,"ĠÅ¾Ã¡rov":11730,"ĠvÃ¡Å¾it":11731,"ĠStarÃ½":11732,"ampoo":11733,"ĠvÃ½Å¡ky":11734,"ĠSad":11735,"ĠrÃ©":11736,"Ġsubway":11737,"Emily":11738,"ĠtanÄįÃŃ":11739,"Ġpravda":11740,"sala":11741,"Ted":11742,"ctions":11743,"Ġrazor":11744,"Ġsnil":11745,"ived":11746,"Ġchlapcem":11747,"ĠpÃŃt":11748,"Ġradu":11749,"Ġsedli":11750,"Ġmint":11751,"Ġtelevision":11752,"ĠsilnÃŃ":11753,"ograf":11754,"ĠvzruÅ¡enÃ½":11755,"ĠJessie":11756,"ĠdÅ¾ÃŃp":11757,"'.":11758,"nÃŃky":11759,"Ġrequest":11760,"ĠklavÃŃ":11761,"nily":11762,"ĠblÃŃÅ¾ÃŃ":11763,"ĠHÃ¡":11764,"ĠsmÃ¡ly":11765,"ĠchÃ¡p":11766,"Ġcrawling":11767,"Ġsundat":11768,"Ġpoked":11769,"ĠbarevnÃ¡":11770,"Ġsedadlo":11771,"Ġslona":11772,"loval":11773,"Ġpasti":11774,"iction":11775,"ĠbÅĻicho":11776,"Ġpamatoval":11777,"Ġkohoutek":11778,"omes":11779,"Ġzatleskala":11780,"Ġsqueeze":11781,"Ġfollowing":11782,"ĠHelp":11783,"Ġcrow":11784,"ĠokamÅ¾ik":11785,"Ġblouse":11786,"Ġnosem":11787,"Ġklack":11788,"Ġposadila":11789,"ĠSlyÅ¡el":11790,"Ġrozs":11791,"Ġspear":11792,"Ġkrabic":11793,"ĠdokonÄįili":11794,"Ã¡ci":11795,"ĠvlasÅ¯":11796,"oÄįila":11797,"ĠhladkÃ½":11798,"Ġrobota":11799,"Ġchutnalo":11800,"ĠSpotovi":11801,"Ġlicks":11802,"Ġgrill":11803,"Ġfile":11804,"ero":11805,"Ġcacht":11806,"Ġholiday":11807,"hoval":11808,"ĠhorkÃ¡":11809,"Ġzeptali":11810,"ĠpotÅĻebovat":11811,"Ġtygr":11812,"Ġsteam":11813,"ĠlÃ©tajÃŃ":11814,"ĠzÃ¡padu":11815,"ĠNevidÃŃ":11816,"Ġdemand":11817,"Ġlumber":11818,"Ġdelay":11819,"Ġbrokolici":11820,"ictionary":11821,"gging":11822,"ĠtobÄĽ":11823,"Ġserve":11824,"ĠzmÄĽnit":11825,"ÄĽle":11826,"fortunately":11827,"Ġrow":11828,"Ġryt":11829,"ĠprostÄĽrad":11830,"Ġcliff":11831,"ĠhlÃŃnou":11832,"Ġimmed":11833,"Ġostr":11834,"Ġringing":11835,"Ġtabuli":11836,"Ġfazole":11837,"ĠstÄĽny":11838,"ĠvÃ¡le":11839,"Ġribbon":11840,"Ġperfume":11841,"ĠÅ¾ab":11842,"iÄįce":11843,"Ġshampoo":11844,"Ġquiz":11845,"ĠspÅĻÃ¡telili":11846,"ĠJednÃ©":11847,"ĠzaÅĻval":11848,"Ġimmediately":11849,"ĠnejvÃŃ":11850,"Ġappro":11851,"lÃ½m":11852,"Ġhelper":11853,"ĠMatt":11854,"ĠSee":11855,"MÅĪ":11856,"ĠdÄĽsivÃ©ho":11857,"ĠpadÃ¡":11858,"ĠÅĻekly":11859,"ĠmedvÃŃdkem":11860,"ĠÅĻada":11861,"ĠpÅĻedstÃŃrajÃŃ":11862,"ĠuÄįin":11863,"ĠNapl":11864,"ĠvonÃŃ":11865,"ĠSant":11866,"ĠhladkÃ©":11867,"Äįk":11868,"nami":11869,"ĠjinÃ©mu":11870,"Ġdictionary":11871,"Ġmelt":11872,"Ġgrowled":11873,"ĠpÃŃskoviÅ¡tÄĽ":11874,"ĠdobrÃ½m":11875,"Ġisn":11876,"Ġwaste":11877,"ĠPlÃ¡":11878,"Ġvesele":11879,"ĠlouÅ¾e":11880,"ĠStarÅ¡ÃŃ":11881,"ĠsklÃ¡dat":11882,"ĠZakÅĻiÄįel":11883,"ium":11884,"Ġbegged":11885,"Ġpodal":11886,"ĠkÅĻik":11887,"ĠKou":11888,"UdÄĽlejme":11889,"Ġmatches":11890,"ĠAbby":11891,"Ġkrystal":11892,"Ġvyz":11893,"Ġvyfot":11894,"Ġbrav":11895,"HolÄįiÄįka":11896,"cakes":11897,"Ġticho":11898,"nÃ¡ch":11899,"Ġideas":11900,"Ġwarmth":11901,"Ġnestalo":11902,"ĠvaÅĻit":11903,"ĠlaskavÃ©":11904,"Ġnosoro":11905,"Ġmustache":11906,"ĠmyÅ¡i":11907,"Ġpohyboval":11908,"ĠmyslÃŃÅ¡":11909,"ĠzpÅ¯sobit":11910,"Ġbirdc":11911,"ĠÅ¡anci":11912,"leÅĪ":11913,"ĠÃºdolÃŃ":11914,"ĠvÃŃko":11915,"ups":11916,"ĠknoflÃŃky":11917,"Ġsneeze":11918,"ĠstudenÃ©":11919,"Ġinvite":11920,"Ġdla":11921,"ĠrÃ¡nu":11922,"hic":11923,"ĠkabÃ¡ty":11924,"ĠatraktivnÃŃ":11925,"Ġvyrazit":11926,"Å¡lÃŃ":11927,"ĠvÅ¡eho":11928,"ĠÅ¾vÃ½kat":11929,"ralo":11930,"inda":11931,"ĠzlepÅ¡it":11932,"Ġvehic":11933,"Ġpevnost":11934,"Ġpodep":11935,"ĠNepos":11936,"Ġodeh":11937,"Ġjehlu":11938,"ĠodskÃ¡":11939,"Ġumyv":11940,"ĠzÃ¡ÅĻÃŃ":11941,"ĠKing":11942,"Ġzvedne":11943,"Ġalright":11944,"ĠdÅ¯leÅ¾itÄĽjÅ¡ÃŃ":11945,"Ġomot":11946,"Ġgear":11947,"ĠkÅĻeslo":11948,"Ġflut":11949,"ĠJuli":11950,"Ġkrk":11951,"ĠuÅ¾iteÄįnÃ©":11952,"Ġrabbits":11953,"Ġbirdcage":11954,"Ġweep":11955,"ĠchlapeÄįek":11956,"ĠMusÃŃ":11957,"ĠhÅ¯lku":11958,"Ġornament":11959,"Ġdest":11960,"Ġberry":11961,"Ġfuel":11962,"ĠvÃ½ro":11963,"Ġmarried":11964,"uckily":11965,"edli":11966,"ĠpÄĽknÄĽ":11967,"rky":11968,"ica":11969,"Ġrestaurace":11970,"ĠHoppy":11971,"StÅ¯j":11972,"Ġsett":11973,"ĠhnÄĽdÃ¡":11974,"Ġtext":11975,"Ġpovzdechla":11976,"ĠlÃ©tÃ¡nÃŃ":11977,"Ġcent":11978,"Ġzaplavat":11979,"ĠdÃŃra":11980,"ĠhovÄĽ":11981,"Ġpali":11982,"Ġfallen":11983,"ĠospalÃ¡":11984,"leÄįna":11985,"Ġzakopl":11986,"Ġstaly":11987,"ĠvÃ¡hu":11988,"Ġuhas":11989,"armel":11990,"Ġblood":11991,"Ġcalend":11992,"Ġhrozny":11993,"Ġdovolila":11994,"Ġcrash":11995,"ĠÄįernou":11996,"ĠdlouhÃ½m":11997,"Ġprop":11998,"ĠpostavÃŃ":11999,"ĠPet":12000,"Ġnovel":12001,"ĠrozdÄĽ":12002,"ĠPokraÄįovali":12003,"ĠÅ¾elva":12004,"ichu":12005,"Ġrail":12006,"ĠoÅ¡tÄĽ":12007,"ÃŃvala":12008,"Ġzavaz":12009,"ĠSkÃ¡kal":12010,"ĠrodiÄįi":12011,"Did":12012,"Ġvlna":12013,"Ġwigg":12014,"ĠleÅ¾ÃŃ":12015,"ĠvrtÃŃ":12016,"Ġmarmel":12017,"Ġpastry":12018,"Ġletadlem":12019,"ĠnebojÃŃ":12020,"Ġtomto":12021,"ĠpokÃ½vala":12022,"Ġluxus":12023,"Ġsilnice":12024,"ĠvzruÅ¡enÃŃm":12025,"Ġukryt":12026,"ĠnezÃ¡vislÃ¡":12027,"Ġworms":12028,"ĠotÃ¡zku":12029,"Ġhmyz":12030,"Ġrostlinu":12031,"Ġmateri":12032,"Ġprozkoumal":12033,"ĠvychÃ¡zÃŃ":12034,"Ġzu":12035,"Ġbravely":12036,"Ġbelow":12037,"Pe":12038,"ĠÄįem":12039,"ĠDcera":12040,"Ġkneel":12041,"Ġpozornost":12042,"Ġzticha":12043,"ĠohÅĪostroj":12044,"ĠÅ¡edÃ¡":12045,"Ġstructure":12046,"ĠKe":12047,"kÃ¡ÅĻ":12048,"ĠtvÃ½m":12049,"asis":12050,"ĠnemocnÃ½":12051,"Ġwandered":12052,"Mark":12053,"Ġsurprises":12054,"Äįnice":12055,"ĠdÃ½nÄĽ":12056,"ĠPrvnÃŃ":12057,"Will":12058,"Å¯soby":12059,"Ġrot":12060,"ĠHad":12061,"ĠzpÅ¯soby":12062,"Ġimprove":12063,"Ġrefres":12064,"Ġunderstanding":12065,"Ġpages":12066,"hÅ¯ru":12067,"Ġparf":12068,"VraÅ¥":12069,"Ġlimon":12070,"Ġpaste":12071,"Ġlaughter":12072,"Ġhurting":12073,"ĠrozÅ¡ÃŃ":12074,"ĠZniÄį":12075,"Ġdire":12076,"ĠnÃ¡dhernÄĽ":12077,"inku":12078,"Ġoasis":12079,"Ġcalendar":12080,"Ġwhip":12081,"Ġairpla":12082,"ĠPÅĻedstÃŃrali":12083,"Ġinkoust":12084,"Ġhodnot":12085,"rajeme":12086,"Ġdrain":12087,"ĠZe":12088,"ĠvelikostÃŃ":12089,"ĠodpoÄįÃŃvat":12090,"ĠÃļ":12091,"ĠtlustÃ½":12092,"Ġkohout":12093,"Ġnalez":12094,"Ġhearts":12095,"ĠnechÃ¡pala":12096,"Ġchip":12097,"omeday":12098,"ĠdalÅ¡ÃŃmi":12099,"ĠletiÅ¡tÄĽ":12100,"ĠOmlouvÃ¡me":12101,"ĠpÅĻÃ¡telÅ¡tÃŃ":12102,"ĠzÃ¡ÅĻit":12103,"uchem":12104,"ĠVypadala":12105,"ĠÄįernÃ¡":12106,"Ġthr":12107,"Vez":12108,"Peter":12109,"ĠSedÄĽli":12110,"ĠmaÄį":12111,"Ġitem":12112,"ĠWho":12113,"alila":12114,"ĠpÅĻevr":12115,"Ġfotograf":12116,"ĠoÅ¡klivÃ©":12117,"Ġzakous":12118,"ĠÄĮerven":12119,"ones":12120,"ĠpÃŃÅ¡Å¥alku":12121,"oral":12122,"ĠNejsi":12123,"ĠTÅĻe":12124,"ĠpomalÃ½":12125,"dÄĽnÃŃ":12126,"ĠKoup":12127,"Ġmatemati":12128,"ĠHannah":12129,"ĠskuteÄįnosti":12130,"Ġfiref":12131,"Å¡Ã¡k":12132,"ĠstÅĻechu":12133,"ĠRozlouÄįil":12134,"ĠpenÄĽÅ¾enku":12135,"ĠpromÄĽ":12136,"ĠprÃ¡zdnÃ½":12137,"ĠavokÃ¡do":12138,"Ġsafety":12139,"ĠvzhÅ¯ru":12140,"Ġka":12141,"ĠÃºkryt":12142,"ĠSmit":12143,"Ġreaches":12144,"Ġburied":12145,"rdÃŃ":12146,"ĠFo":12147,"Ġadmir":12148,"Uh":12149,"Äįiny":12150,"ĠvÄĽÅĻit":12151,"ĠmÃ¡vali":12152,"Ġpoho":12153,"ĠhluÄįnÃ½":12154,"Ġbathe":12155,"Ġvarovala":12156,"Ġtyto":12157,"ĠhloupÃŃ":12158,"Ġsestry":12159,"bers":12160,"anger":12161,"Ġbrala":12162,"Ġcaptain":12163,"Ġjedou":12164,"Ġkabelku":12165,"ĠkÃ½":12166,"ĠuvÃ¡z":12167,"ĠÅ¡Å¥ouch":12168,"Ġbuckle":12169,"Ġnejv":12170,"ĠbÄĽhajÃŃ":12171,"ĠpleÅ¡atÃ½":12172,"nÃŃkem":12173,"Ġstrawberries":12174,"Ġlouku":12175,"'ve":12176,"Ġoper":12177,"Ġrelaxed":12178,"ĠsuchÃ©":12179,"Ġmyself":12180,"ĠstÃ¡lo":12181,"Ġsandcastle":12182,"Ġport":12183,"ĠZeptali":12184,"ĠPomÃ¡hÃ¡":12185,"tivÄĽ":12186,"Ġskills":12187,"ĠKaÅ¾dou":12188,"Ġignore":12189,"Ġnaslouchat":12190,"ĠzÃ¡voj":12191,"ĠÅ¡perk":12192,"Ġhistor":12193,"oved":12194,"Ġplates":12195,"ĠPoloÅ¾ili":12196,"Ġtahat":12197,"ĠchladnÃ©":12198,"Ġcukru":12199,"Ġgril":12200,"Ġvtipy":12201,"ĠrajÄįe":12202,"Ġ1":12203,"ĠSpote":12204,"Welcome":12205,"rÃ¡d":12206,"Ã¡jemnÄĽ":12207,"ĠÃºstech":12208,"Ġscratch":12209,"Ġmoments":12210,"Ġasht":12211,"Yuck":12212,"Ġspade":12213,"ĠlÃ¡tku":12214,"Ġbang":12215,"Ġobr":12216,"Ġobdivovali":12217,"Å¯Å¯Å¯Å¯Å¯Å¯Å¯Å¯":12218,"Ġreverse":12219,"ĠhÅĻ":12220,"ising":12221,"ĠZÅ¯st":12222,"Ġopravil":12223,"ĠtichÃ©":12224,"Ġuklidila":12225,"ĠpohodlnÃ©":12226,"Ġskupina":12227,"ĠkoÅ¥Ã¡tko":12228,"ĠPÅĻistoupila":12229,"Ġvytis":12230,"ĠkvÄĽtÃ¡k":12231,"Ġmedaili":12232,"ĠOnce":12233,"ĠTles":12234,"ĠhrÃ¡lo":12235,"ĠkrÃ¡su":12236,"ĠoranÅ¾ovÃ©":12237,"Ġmyslet":12238,"Ġtriky":12239,"ĠkukuÅĻici":12240,"ika":12241,"Ġutrhnout":12242,"Ġhadr":12243,"ĠÅ¡pend":12244,"Ġdovedn":12245,"ĠPtajÃŃ":12246,"icing":12247,"Ġlabor":12248,"ĠhlÃŃnÄĽ":12249,"ĠlÅ¾ÃŃce":12250,"ĠkreslÃŃ":12251,"ĠblÃ¡z":12252,"ĠkÅĻes":12253,"riger":12254,"Ġborov":12255,"Ġkornout":12256,"Ġrozzlobil":12257,"Ġnapsat":12258,"Ġscore":12259,"ĠgarÃ¡Å¾e":12260,"chem":12261,"ĠÅ¾up":12262,"Ġbeamed":12263,"Ġraise":12264,"Ġrefriger":12265,"Ġsnapped":12266,"ĠPÅ¯j":12267,"ĠokouzlujÃŃcÃŃ":12268,"ĠdoÅ¡la":12269,"ĠdÅ¾ungle":12270,"ĠbludiÅ¡tÄĽ":12271,"Ġsomeday":12272,"Ġkopci":12273,"ivÃŃ":12274,"ĠpÅĻesto":12275,"Ġpochutnali":12276,"ĠStÅĻÃŃdali":12277,"ĠnÃ¡kup":12278,"ris":12279,"Ġpodno":12280,"Ġporanil":12281,"roval":12282,"Ġrefrigerator":12283,"Ġjunk":12284,"Äįkami":12285,"Å¡etÅĻovat":12286,"Ġreceived":12287,"Ġhudeb":12288,"Ġpomohlo":12289,"ĠdelfÃŃn":12290,"Ã©le":12291,"Ã©f":12292,"Ġashtray":12293,"Ġearlier":12294,"Ġlv":12295,"ĠohromenÃ½":12296,"acob":12297,"ĠhlubokÃ©":12298,"Ġvac":12299,"ĠzpÃŃvajÃŃ":12300,"ĠumÃŃst":12301,"rovala":12302,"Ġharbor":12303,"nutÃ½":12304,"Ġhadici":12305,"ĠKde":12306,"ĠmaÅ¡li":12307,"Ġweap":12308,"ÅĻka":12309,"ĠstÅĻÃŃdali":12310,"laÄį":12311,"Ġteaching":12312,"ĠcelÃ¡":12313,"ĠPeople":12314,"ĠZapomÃŃnajÃŃ":12315,"Ġmass":12316,"ĠVyÅ¡el":12317,"Ġzapl":12318,"NemÅ¯Å¾u":12319,"Ġodpustit":12320,"Ġpochopil":12321,"ĠliÅ¡ku":12322,"rist":12323,"ĠBÃ¡la":12324,"Ã¡vku":12325,"ĠpolÃ©vka":12326,"ĠskuteÄįnÃ½":12327,"NaÅ¡el":12328,"ÅĻejÅ¡ÃŃ":12329,"Ġpalm":12330,"ĠposluÅ¡nÃ½":12331,"Ġbavily":12332,"Ġkup":12333,"ĠdopÅĻedu":12334,"Ġsaving":12335,"ĠmagickÃ©":12336,"ĠDostal":12337,"ĠdrÃ¡py":12338,"Ġkalend":12339,"aped":12340,"Ġvanished":12341,"ĠOtoÄįil":12342,"Ġpodpo":12343,"Ġsparkling":12344,"ĠvznÃ¡Å¡el":12345,"ĠnÃ¡ruÄįÃŃ":12346,"Ġinsisted":12347,"ĠuvÄĽdomili":12348,"Ġjednoduch":12349,"sters":12350,"ĠJeff":12351,"Ġspots":12352,"Ġgumu":12353,"ĠCarl":12354,"ĠtalÃŃÅĻe":12355,"ĠchytrÃ©":12356,"Ġbumped":12357,"ĠlÃ¡skou":12358,"ĠnevrÃ¡til":12359,"Ġodstran":12360,"Ġsocks":12361,"ĠzpÃŃvÃ¡":12362,"ĠdÄĽdeÄįka":12363,"ience":12364,"ĠpÅĻedvÃ¡d":12365,"ĠIts":12366,"ĠtmÄĽ":12367,"Ġthumb":12368,"gie":12369,"ÅĻes":12370,"Ġvyroste":12371,"ĠoranÅ¾ovou":12372,"ĠsdÃŃleli":12373,"ĠzaÅ¾ili":12374,"miss":12375,"Ġbarvou":12376,"ĠpruÅ¾":12377,"ĠkÅĻup":12378,"ĠAdam":12379,"Ġochutnala":12380,"Ġkaktus":12381,"Ġsladce":12382,"pli":12383,"ĠhlubokÃ¡":12384,"ĠdosÃ¡hla":12385,"ĠpÅĻÃ¡telskÃ©":12386,"Ġlimet":12387,"ĠDom":12388,"Ġsklenice":12389,"ĠNevidÄĽli":12390,"Ġdried":12391,"ĠvÃŃtÃ¡ni":12392,"ĠSn":12393,"Ġhub":12394,"ĠNelÃŃbÃŃ":12395,"ĠPokraÄįoval":12396,"ĠveselÃ©":12397,"Ġprepare":12398,"ĠpÅĻiblÃŃÅ¾it":12399,"Ġrozmazl":12400,"Ġtoes":12401,"Ġjewels":12402,"enky":12403,"ĠpomÃ¡hajÃŃ":12404,"Ġomluvila":12405,"Ġpalec":12406,"Ġnoha":12407,"mission":12408,"Ġodnesli":12409,"Ġblackboard":12410,"ĠrÅ¯znÃ½mi":12411,"Ġspending":12412,"ĠVzpomnÄĽl":12413,"Ġvin":12414,"Ġscattered":12415,"ĠsvÄĽÅ¾ÃŃ":12416,"ĠBefore":12417,"avÃ©":12418,"Å¡tÄĽnÃŃ":12419,"lÃ½sk":12420,"Ġscooped":12421,"Ġsettled":12422,"Ġbak":12423,"Ġroste":12424,"Ġtease":12425,"ĠskÃ¡Äįe":12426,"ĠnabÃŃdla":12427,"Ġtax":12428,"ĠÃºÅ¾asnÃ¡":12429,"ĠtanÄįil":12430,"Ġpermission":12431,"ĠdÃ¡vali":12432,"ĠveÅ¡li":12433,"Ġpapri":12434,"ĠvyskoÄįit":12435,"PromiÅĪte":12436,"Ġsparkle":12437,"edla":12438,"ĠTÅĻÃŃ":12439,"Ġmravence":12440,"ĠvypadajÃŃcÃŃ":12441,"!\",":12442,"Ġknown":12443,"ctly":12444,"anÃŃm":12445,"Ġbreathe":12446,"Ġzmrzlin":12447,"ĠoÃ¡":12448,"ĠkvÃŃ":12449,"haz":12450,"Ġpotravu":12451,"Ġpotichu":12452,"ĠzlobivÃ¡":12453,"Ġtrochou":12454,"Ġmoz":12455,"ĠvÃ½z":12456,"Ġyawned":12457,"ĠbiÄį":12458,"ĠtovÃ¡r":12459,"Ġnezapadlo":12460,"ĠpÃ³":12461,"rumb":12462,"ĠstrÃ½c":12463,"ĠZkus":12464,"Ġkraba":12465,"Ġpoppy":12466,"ĠskoÅĻÃ¡pku":12467,"lost":12468,"ickÃ©":12469,"ĠpÅĻeÅ¡la":12470,"Ġachie":12471,"With":12472,"Ġnesouhlas":12473,"Ġwaffle":12474,"ĠhovÄĽzÃŃ":12475,"Ġpozorovat":12476,"Ġdestroyed":12477,"Ġsimp":12478,"Ġobejmou":12479,"olÃ¡":12480,"Ġbrosk":12481,"ĠÅ¡piÄį":12482,"Ġfloat":12483,"ĠZaÄįnou":12484,"Ġreplace":12485,"ĠdÅĻevÄĽ":12486,"Ġodvedla":12487,"Ġknihovnu":12488,"ĠjezÃŃrku":12489,"ĠHodil":12490,"arky":12491,"Ġoffic":12492,"Ġdeseti":12493,"Ġubrousek":12494,"Ġdoufala":12495,"Ġpotok":12496,"ĠbÃ¡seÅĪ":12497,"tÃ¡hla":12498,"Ġtelefonu":12499,"Ġhardly":12500,"ĠPrÃ¡vÄĽ":12501,"ĠVyh":12502,"ĠJedna":12503,"mes":12504,"ĠskromnÃ½":12505,"ĠpoloÅ¾ÃŃ":12506,"ĠkartÃ¡Äį":12507,"ĠvyhrÃ¡la":12508,"Ġpastelek":12509,"ĠobtÃŃ":12510,"Ġbundu":12511,"ĠMomo":12512,"ĠklobÃ¡s":12513,"ĠkrabicÃŃ":12514,"Ġlaborato":12515,"ĠsobeckÃ¡":12516,"ĠzdravÃŃ":12517,"Ġbathrobe":12518,"ighter":12519,"ĠzavÅĻÃŃt":12520,"Ġdno":12521,"ĠnecÃŃtila":12522,"Ġencouraged":12523,"Ġnikomu":12524,"Ready":12525,"Ġpokusit":12526,"Ġjail":12527,"mila":12528,"ĠtlaÄįit":12529,"okÃ¡zali":12530,"ĠmyÅ¡len":12531,"ĠdosÃ¡hl":12532,"ĠspÅĻÃ¡telit":12533,"Ġznamen":12534,"Ġsovu":12535,"ĠÅ¡tÄĽtec":12536,"ĠvyÅ¡Å¡ÃŃ":12537,"oÅ¾":12538,"alÃ³":12539,"Ġdecorations":12540,"ĠpokÃ½val":12541,"ĠvÄĽrnÃ½":12542,"klop":12543,"Ġlemonade":12544,"Ġosoba":12545,"Ġpride":12546,"Ġpozdravil":12547,"Ġremove":12548,"Ġsamolep":12549,"Å¡kou":12550,"Ġpulling":12551,"Ġpozoruje":12552,"Ġhanger":12553,"ĠchlupatÃ©ho":12554,"ĠNemajÃŃ":12555,"dob":12556,"ĠHave":12557,"ĠDolly":12558,"ĠpÅĻistoupila":12559,"ĠkrÃ¡t":12560,"Ġsits":12561,"ĠvojÃ¡k":12562,"ĠDÃ¡vajÃŃ":12563,"Ġtrik":12564,"ĠkoÅĻen":12565,"ĠvesmÃŃru":12566,"odnÃŃ":12567,"ĠtÅĻÃŃdy":12568,"ĠVybÄĽhl":12569,"Ġcuddled":12570,"ĠnadÄĽ":12571,"ĠLizzy":12572,"ĠNina":12573,"ĠPÅĻid":12574,"odpovÄĽ":12575,"dÅĻÃŃv":12576,"ĠplÃ¡nu":12577,"Ġmelod":12578,"ĠJedli":12579,"Ġnebudu":12580,"krovÃŃ":12581,"ĠhlÃŃnu":12582,"foukl":12583,"Ġdaisy":12584,"ĠsemÃŃnka":12585,"Ġhate":12586,"Ġbeans":12587,"Ã¡lka":12588,"Ġkopali":12589,"ĠvaÅĻila":12590,"Ġzachyt":12591,"ĠnejÃº":12592,"Ġdrob":12593,"Ġsrsti":12594,"ĠdrahÃ¡":12595,"ĠSdÃŃle":12596,"ĠdobrodruÅ¾stvÃŃch":12597,"ĠzahlÃ©dla":12598,"Same":12599,"Ġresponsi":12600,"ĠpÅĻeÄįetla":12601,"SÃ¡ro":12602,"Äįen":12603,"ĠmoÅĻ":12604,"Ġbotu":12605,"Ġlicense":12606,"Ġexist":12607,"Ġnepom":12608,"Ġzakry":12609,"ĠzÃŃskal":12610,"ĠchlupatÃ¡":12611,"ĠKrÃ¡va":12612,"ĠDoufÃ¡":12613,"ĠVlk":12614,"ĠMravenec":12615,"ĠrozhodnutÃŃ":12616,"Ġceler":12617,"Ġobvyk":12618,"Ġprodat":12619,"lÃŃch":12620,"Ġchirping":12621,"ĠsluneÄįnice":12622,"ĠjemnÃŃ":12623,"ĠNevÃŃ":12624,"Ġpraised":12625,"Ġklaks":12626,"ĠvajÃŃÄįka":12627,"lovou":12628,"Ġhits":12629,"ĠcÃŃle":12630,"ĠzamÃŃ":12631,"ĠpodÄĽl":12632,"ĠPÅĻip":12633,"ĠznepokojenÃ¡":12634,"ĠnemusÃŃ":12635,"ĠPinky":12636,"antly":12637,"ĠstavÄĽli":12638,"Ġsuffer":12639,"Ġpatiently":12640,"ĠzmÄĽÅĻit":12641,"racel":12642,"ĠsvÃŃÄįku":12643,"sity":12644,"ĠkterÃ½ch":12645,"Ġbuzzing":12646,"ĠnezaÄį":12647,"Ġbli":12648,"ĠKres":12649,"Ġmention":12650,"ĠpÅĻivÃ¡z":12651,"ĠRozbÄĽhla":12652,"Ġfastest":12653,"ĠZavÅĻel":12654,"ĠnejvyÅ¡":12655,"Ġequ":12656,"ĠbÅĻi":12657,"ĠkoupÃŃ":12658,"Ġdresses":12659,"ĠkutÃ¡":12660,"Ġodjel":12661,"bbie":12662,"Ġonemoc":12663,"ĠÅ¡tÄĽdrÃ½":12664,"Ġwiz":12665,"ĠpolÃ©vky":12666,"Ġrhy":12667,"Ġpokladem":12668,"Ġcartoon":12669,"ĠpÄĽ":12670,"ĠzÃ¡bavnou":12671,"ĠjinÃ¡":12672,"ĠvydÄĽÅ¡enÄĽ":12673,"Ġprozkoumala":12674,"ĠzajÃŃmavÃ½ch":12675,"ĠpouÄįil":12676,"Ġautomobile":12677,"Ġspravedli":12678,"Ġwob":12679,"Ġbleed":12680,"ĠlÅ¾iÄįku":12681,"Ġappreciate":12682,"ĠpÅĻipravit":12683,"Ġpohybovala":12684,"ĠpanovaÄįnÃ¡":12685,"NedÄĽlej":12686,"Ġmluvili":12687,"ĠvypÃŃna":12688,"Ġdestination":12689,"Ġhomes":12690,"Ġtaller":12691,"Ġkocou":12692,"ĠTw":12693,"Ġnation":12694,"bi":12695,"leskal":12696,"ĠdÅ¾em":12697,"Ġglit":12698,"ĠneodpovÄĽdÄĽl":12699,"rikÃ¡":12700,"ÅĻÃŃz":12701,"ĠtrpÄĽlivÃŃ":12702,"ĠpÃ¡ch":12703,"Ġlabel":12704,"ĠvidliÄįku":12705,"Ġodjeli":12706,"fied":12707,"ĠsvÃ½ma":12708,"Ġdigg":12709,"Ġozna":12710,"ĠÃºÅ¾asem":12711,"ĠpoÅĻÃ¡dnÄĽ":12712,"ĠNakres":12713,"avÄĽ":12714,"ĠomÃ¡Äįku":12715,"ĠLinda":12716,"ĠjinÃ½ch":12717,"ĠBou":12718,"ĠÅ¡Ã©f":12719,"Ġhrub":12720,"vila":12721,"Ġwine":12722,"ĠZavrt":12723,"ĠskÃ¡kÃ¡nÃŃ":12724,"Ġpohybu":12725,"ĠzÃŃs":12726,"ĠVlak":12727,"Ġmall":12728,"ĠdÃŃvky":12729,"ĠpoÅ¡Å¥":12730,"Ġpohybuje":12731,"ĠnajÃŃst":12732,"Ġlehl":12733,"Ġclimbs":12734,"Ġnone":12735,"ĠplnÃŃ":12736,"Ġbelieved":12737,"ĠVylezl":12738,"Ġrozves":12739,"Ġwashing":12740,"Ġvybav":12741,"Ġlean":12742,"Ġkrev":12743,"ĠzadnÃŃ":12744,"Ġpassport":12745,"Ġdigging":12746,"MÃ¡me":12747,"Ġshot":12748,"Ġhesit":12749,"ĠnaÅ¡ÃŃ":12750,"ĠVaÅ¡e":12751,"Ġnalep":12752,"Ġinfant":12753,"ĠotevÃŃ":12754,"ĠVyÅ¡la":12755,"ĠhluÄįnÃ©":12756,"Ġapproached":12757,"ĠfaleÅ¡":12758,"Ġplavali":12759,"ĠjÃŃzdÄĽ":12760,"ĠslavnÃ½":12761,"Ġspoil":12762,"Ġpohovku":12763,"ĠudrÅ¾el":12764,"atch":12765,"hoo":12766,"Ġdeeper":12767,"ĠOpravdu":12768,"Ġnehod":12769,"ĠzajÃŃmavÃ©ho":12770,"Ġucha":12771,"Ġproper":12772,"vÃŃzd":12773,"Miluji":12774,"Ġdoufal":12775,"ĠZnÄĽlo":12776,"ĠÃºspÄĽÅ¡nÃ½":12777,"ĠdÄĽsivÃ¡":12778,"Ġkousla":12779,"ĠomlouvÃ¡m":12780,"ĠSnÄĽdl":12781,"Ġtore":12782,"ĠMoje":12783,"Ġlegraci":12784,"ĠveterinÃ¡ÅĻi":12785,"Susie":12786,"Ġnezmizel":12787,"meme":12788,"Ġtour":12789,"Ġlap":12790,"ĠbarevnÃ½mi":12791,"Ġchamber":12792,"ĠPÅĻikÃ½v":12793,"Ġupe":12794,"ĠsuchÃ½":12795,"ĠSuzie":12796,"MalÃ½":12797,"ĠobyÄįejnÃ½":12798,"lÃŃÅ¾il":12799,"ĠuÄįitele":12800,"Ġpromluvit":12801,"Ġmitten":12802,"ĠodchÃ¡zÃŃ":12803,"ĠautÃŃÄįka":12804,"ĠVydal":12805,"ĠsluneÄįnÃŃm":12806,"ĠhladovÃŃ":12807,"Ġhers":12808,"lily":12809,"rÃ¡nil":12810,"ĠhlasitÃ½m":12811,"ĠjÃ¡mu":12812,"zem":12813,"ĠNebylo":12814,"ĠDÃ©Å¡Å¥":12815,"Ġstruggling":12816,"ĠdodrÅ¾ovat":12817,"Ġrestore":12818,"ĠmyslÃŃm":12819,"Ġpolibek":12820,"ĠTro":12821,"Ġdifference":12822,"Ġblesk":12823,"Ġtong":12824,"Ġobdivoval":12825,"ĠlahviÄįku":12826,"Ġpotoka":12827,"ĠKdo":12828,"Ġbatoh":12829,"Ġzkoumal":12830,"Ġsausage":12831,"Ġkarty":12832,"Ġheat":12833,"ĠMyslÃŃm":12834,"ĠpohÃ¡dku":12835,"Ġpunish":12836,"Ġpillows":12837,"Ġkmen":12838,"Ġhills":12839,"Ġtongue":12840,"ĠUvidÄĽli":12841,"Ġhurric":12842,"ĠZavolala":12843,"Ġzatla":12844,"ĠdivokÃ¡":12845,"ĠodvÃ¡Å¾nÃ¡":12846,"Ġsneezed":12847,"ĠkaÅ¾dÃ½m":12848,"ĠzamÃ¡vali":12849,"Ġnek":12850,"ĠrÅ¯Å¾i":12851,"adÃŃm":12852,"Ġwizard":12853,"All":12854,"Ġbrain":12855,"ĠÅ¡tÄĽkat":12856,"ĠmÃŃchÃ¡":12857,"ĠJackova":12858,"ĠZÅ¯stal":12859,"ĠdÃ©le":12860,"ĠsestÅĻe":12861,"ivit":12862,"ĠtÅĻeÅ¡nÄĽ":12863,"Ġsupply":12864,"ĠVytvo":12865,"Ġvydaly":12866,"Ġprovide":12867,"ĠpÅĻÃ¡telsky":12868,"mal":12869,"ĠEach":12870,"Ġnedos":12871,"Ġdocela":12872,"Ġcibuli":12873,"Ġawe":12874,"Ġdiscuss":12875,"ĠpoÄį":12876,"Ġteas":12877,"Ġthrilled":12878,"MÅ¯Å¾ete":12879,"ĠvarovÃ¡nÃŃ":12880,"utÃŃ":12881,"Ġsrdcem":12882,"Ġwarning":12883,"Ġupstairs":12884,"ĠpozvÃ¡":12885,"!'":12886,"ĠpÅĻedstavovala":12887,"Å¡k":12888,"ĠvydÃ¡vala":12889,"Ġpanic":12890,"ĠJohnson":12891,"kaly":12892,"ĠotÃ¡zek":12893,"ĠtuÅ¾ky":12894,"ĠkvÃ¡":12895,"Ġtwisted":12896,"Nep":12897,"ĠBir":12898,"ĠnÃ¡sledovali":12899,"ĠUtekl":12900,"ĠleÅ¡t":12901,"ule":12902,"Ġuniverse":12903,"Ġzbran":12904,"Ġglowed":12905,"ĠfarmÃ¡ÅĻi":12906,"Ġvzor":12907,"ĠÃºÄį":12908,"Ġvacation":12909,"ĠrozhlÃŃÅ¾ela":12910,"ĠdnÄĽ":12911,"ĠvelcÃŃ":12912,"Ġparts":12913,"Ġsukni":12914,"zal":12915,"Ġsolved":12916,"Äįci":12917,"ĠudÄĽlÃ¡me":12918,"ĠÄĮarodÄĽj":12919,"ship":12920,"Ġworse":12921,"pin":12922,"jiÅ¡Å¥":12923,"Ġpau":12924,"Ġtherm":12925,"Ġpoison":12926,"iÄįe":12927,"Ġjela":12928,"ĠslÃŃbit":12929,"Ġshed":12930,"Ġbydle":12931,"ĠhodnÃ©":12932,"ĠnablÃ½sk":12933,"ĠÃºspÄĽch":12934,"ĠoÅ¡tÄĽp":12935,"ulat":12936,"ĠVezmou":12937,"Ġhotovi":12938,"ĠnechtÄĽjÃŃ":12939,"ĠHolub":12940,"Ġairplane":12941,"allen":12942,"ÄĽr":12943,"ĠpanovaÄįnÃ½":12944,"ĠMusÃŃm":12945,"ĠhnÄĽdou":12946,"osity":12947,"Ġsetting":12948,"Ġevent":12949,"ĠJako":12950,"ĠmÃŃsu":12951,"ĠnÃ¡sledovat":12952,"ĠoÅĻÃŃÅ¡ek":12953,"ĠoblÃ¡zek":12954,"Ġodplu":12955,"Ġodola":12956,"Ġkopal":12957,"Ġpytle":12958,"ĠjÃŃdle":12959,"ĠzaÅ¡tÄĽ":12960,"ĠsamÃ©":12961,"ÃŃÃŃÃŃÃŃÃŃÃŃÃŃÃŃ":12962,"Ġjmenuje":12963,"ĠspÃ¡":12964,"ĠnÄĽjakÃ¡":12965,"ĠJohna":12966,"Hled":12967,"ĠVzhlÃ©dl":12968,"Ġodpadky":12969,"ĠznudÄĽ":12970,"ĠNevÅ¡im":12971,"ĠpotÅĻebujeme":12972,"ĠKayla":12973,"ĠchodÃŃ":12974,"Ġplays":12975,"Ġplavou":12976,"Ġyield":12977,"Ġkapes":12978,"Ġexamine":12979,"ĠnejÃºÅ¾as":12980,"ĠhvÃŃzd":12981,"Ġranch":12982,"Ġsparkles":12983,"ĠLuke":12984,"Ġremained":12985,"ĠZasmÃ¡la":12986,"Ġneighborhood":12987,"Ġhurricane":12988,"ĠnevidÃŃ":12989,"Ġrty":12990,"Ġvent":12991,"Ġcontain":12992,"Ġfloated":12993,"ĠspanÃŃm":12994,"Ġmizer":12995,"Ġrostlina":12996,"Ġthermomet":12997,"Ġzakopla":12998,"Ġchallen":12999,"Ġklub":13000,"Ġloaj":13001,"ĠkrÃ¡li":13002,"usÅ¥":13003,"bÄĽji":13004,"Å¯r":13005,"ĠJenna":13006,"Ġduhy":13007,"Ġneve":13008,"ĠzprÃ¡vu":13009,"Ġshooting":13010,"ĠMick":13011,"ĠNechceÅ¡":13012,"Ġchores":13013,"Ġoranges":13014,"ĠZasmÃ¡l":13015,"ĠcviÄįit":13016,"Ġfungovat":13017,"ĠpomÅ¯Å¾eÅ¡":13018,"ĠveÄįera":13019,"ĠzastavÃŃ":13020,"ĠsoutÄĽ":13021,"iggy":13022,"ĠLove":13023,"ĠskÃ¡Äįou":13024,"Ġweeks":13025,"Ġtunelu":13026,"ĠuklizenÃ½":13027,"asiÄį":13028,"ĠklidnÃ©":13029,"ĠKvÄĽtina":13030,"Ġfunguje":13031,"Ġvafle":13032,"ĠNÄĽkteÅĻÃŃ":13033,"ĠuvÄĽ":13034,"ĠUmÃŃ":13035,"ĠoranÅ¾ovÃ½":13036,"Ġzranila":13037,"Ġnaposled":13038,"Slunce":13039,"ĠUtÃŃkali":13040,"zag":13041,"ĠzodpovÄĽ":13042,"Ġuniverz":13043,"Ġuniversity":13044,"ĠnelÃŃbila":13045,"Ġfilmy":13046,"ĠMaxÅ¯v":13047,"ĠRozhlÃ©dli":13048,"ĠhezÄįÃŃ":13049,"Ġrepeat":13050,"ĠEveryday":13051,"Ġpaints":13052,"rise":13053,"Ġprach":13054,"ĠÄįistou":13055,"Ġpamatujte":13056,"ĠpolÅ¡tÃ¡ÅĻe":13057,"ĠHÃ¡d":13058,"ĠnalÃ©":13059,"ĠnemocnÃ¡":13060,"ovanÃŃ":13061,"thm":13062,"ĠposbÃŃrat":13063,"ĠmÃŃchala":13064,"Ġrozesm":13065,"ĠMart":13066,"Ġobklop":13067,"Ġbites":13068,"ÃŃd":13069,"ĠzÃ¡clo":13070,"ĠnadÅ¡eni":13071,"ĠPep":13072,"ĠnechÃ¡pal":13073,"ĠvzdÃ¡lenÃ©":13074,"louÅ¾ÃŃ":13075,"ĠdÃ½m":13076,"ĠZah":13077,"ĠnejÅ¡Å¥ast":13078,"Ġthermometer":13079,"Ġinstru":13080,"ĠhÃ¡zet":13081,"ĠnejÃºÅ¾asnÄĽjÅ¡ÃŃ":13082,"These":13083,"ĠvystraÅ¡it":13084,"ĠhloubÄĽji":13085,"ĠoÄįÃŃch":13086,"ĠPokus":13087,"ĠpospÃŃÅ¡":13088,"ĠvÄįas":13089,"Ġulice":13090,"stuje":13091,"ĠdivnÃ©ho":13092,"ĠtleskajÃŃ":13093,"Ġsebral":13094,"Ġjogging":13095,"ĠvyÅ¡plhat":13096,"Ġfixing":13097,"osed":13098,"Ġfloating":13099,"skev":13100,"Ġbroskev":13101,"Ġsupposed":13102,"ĠsedÃŃcÃŃho":13103,"ĠpÅĻekvapenÃŃm":13104,"ĠbohatÃ¡":13105,"Ġmeasured":13106,"Ġdobro":13107,"ĠPracovali":13108,"Ġsetkala":13109,"ĠobruÄį":13110,"Ġnaposledy":13111,"ĠtvÃ©ho":13112,"Ġledu":13113,"Ġstadium":13114,"ĠdivnÃ©":13115,"overy":13116,"ĠhrÃ¡bÄĽ":13117,"ĠsvÄĽtlÃ©":13118,"Ġhrn":13119,"ĠZastavila":13120,"Ġduring":13121,"Ġsmet":13122,"ĠholÄįiÄįkou":13123,"Ġgrinned":13124,"Ġvstoupila":13125,"Ġjdi":13126,"Ġodpustila":13127,"Ġsurrounded":13128,"ĠHraÄį":13129,"Ã½bor":13130,"ĠdychtivÄĽ":13131,"ĠstrÃ¡nku":13132,"Ġcherry":13133,"ĠOli":13134,"ĠpapÃŃry":13135,"Ġpaused":13136,"Ġsneak":13137,"Nechci":13138,"ĠNeb":13139,"Ġplout":13140,"Ġtahali":13141,"ĠponoÅ¾ky":13142,"Ã½bornÄĽ":13143,"veÅĻe":13144,"ĠbÄĽhem":13145,"Ġskluzavka":13146,"ĠzranÄĽnÃŃ":13147,"vce":13148,"ostÃŃ":13149,"Ġscatter":13150,"omÃŃnÃ¡":13151,"ĠBuÄıte":13152,"Ġuz":13153,"Ġbrings":13154,"Ġfotka":13155,"Ġsouseda":13156,"ĠNam":13157,"ĠPracoval":13158,"ĠTommymu":13159,"ĠhÃ¡Äįek":13160,"Ġky":13161,"Ġfut":13162,"ĠPomÅ¯Å¾eÅ¡":13163,"ĠOtoÄįila":13164,"Ġmassage":13165,"Ġvlaky":13166,"ĠhoupaÄįkÃ¡ch":13167,"Ġgifts":13168,"Ġpauzu":13169,"ĠpÅĻÃ¡telskÃ©ho":13170,"ĠzachrÃ¡nila":13171,"Ġukou":13172,"ĠzajÃ¡s":13173,"ĠZab":13174,"Ġleak":13175,"ĠJoeovi":13176,"namen":13177,"ĠPoÄįÃŃt":13178,"ĠhroznÄĽ":13179,"Ġspokojeni":13180,"Ġfuture":13181,"ĠpoÅ¾Ã¡dali":13182,"Ġsigns":13183,"ĠÄįarodÄĽjnice":13184,"ĠOtevÅĻe":13185,"Ġmarbles":13186,"ĠmodrÃ©ho":13187,"ĠÃºÅ¾asnÃ½ch":13188,"Ġsprinkles":13189,"ĠdalÅ¡ÃŃm":13190,"ĠSedÄĽl":13191,"ĠrozsvÃŃt":13192,"ĠOheÅĪ":13193,"Ġcollection":13194,"ĠnejvyÅ¡Å¡ÃŃ":13195,"Ġteaspo":13196,"Ġrhythm":13197,"ĠvydÄĽsilo":13198,"MÅ¯j":13199,"koÄįÃŃ":13200,"Ġgrey":13201,"ĠnedokÃ¡zal":13202,"ĠsÃ½ra":13203,"Ġsna":13204,"Ġvzduchem":13205,"Ġdinosaurus":13206,"ĠJohne":13207,"Ġmemory":13208,"Ġtune":13209,"ĠklÃ¡du":13210,"Ġbral":13211,"ĠÅ¡Ã¡lu":13212,"ĠkrabiÄįky":13213,"Ġpul":13214,"ĠQuack":13215,"Not":13216,"ĠtaÅ¡ce":13217,"ĠtÃ¡mhle":13218,"Ġstomach":13219,"ĠÃºlu":13220,"Ġbratrem":13221,"emember":13222,"ĠrÅ¯znÃ¡":13223,"Ġwisdom":13224,"ĠCindy":13225,"Ġtato":13226,"Ġflood":13227,"ĠdobrodruÅ¾nÃ½":13228,"stoupÃŃ":13229,"Ġdiscovery":13230,"Ġgust":13231,"Ġvelryba":13232,"Fred":13233,"Would":13234,"ĠmrtvÃ½":13235,"Ġactually":13236,"Ġseno":13237,"ĠMalÃ©":13238,"Ġsuchu":13239,"Ġnoze":13240,"Ġkdybych":13241,"Ġfantast":13242,"ĠZamÃ¡vala":13243,"ĠÅłplouch":13244,"Ġbolet":13245,"Ġpochoutky":13246,"Ġvehicle":13247,"ÄįinÄĽ":13248,"Ġnamo":13249,"ĠnÃ¡dhernÃ½ch":13250,"Ġvzdal":13251,"Ġmajiteli":13252,"Ġnedostal":13253,"Ġlily":13254,"Ġpermit":13255,"ĠmoudrÃ©":13256,"ĠzvlÃ¡dne":13257,"ĠbabiÄįkou":13258,"ĠodloÅ¾ila":13259,"koÄįili":13260,"sili":13261,"ĠsemÃŃnko":13262,"ĠNeposlouch":13263,"Å¡imi":13264,"ĠopravdovÃ½":13265,"ĠJa":13266,"ĠblÃ¡ta":13267,"lÃ©pe":13268,"ĠGood":13269,"vÃ¡t":13270,"ĠpotÅĻebujete":13271,"Ġtide":13272,"Ġgirls":13273,"ĠkÅ¯l":13274,"ĠBub":13275,"ĠsporÃ¡ku":13276,"pali":13277,"ĠPÅĻist":13278,"ĠSanta":13279,"Ġvestu":13280,"Ġsunrise":13281,"ĠmÅĪou":13282,"Ġzachichotala":13283,"ĠÃºklid":13284,"ĠPÅĻijde":13285,"igzag":13286,"ĠOdpouÅ¡tÃŃm":13287,"ÄįÃ¡tko":13288,"entgen":13289,"ĠlÃ©tala":13290,"ĠklacÃŃ":13291,"ĠdÄĽsivÄĽ":13292,"ĠsprÃ¡vnÃ¡":13293,"ĠhledajÃŃ":13294,"Ġodvedl":13295,"myslela":13296,"Ġzmrzlina":13297,"Ġvezmou":13298,"ĠtlustÃ¡":13299,"ĠDveÅĻe":13300,"ĠbezpeÄįnÃ½":13301,"itÃ¡n":13302,"lonil":13303,"Ġitch":13304,"ĠKar":13305,"ĠdÅĻÃŃve":13306,"choo":13307,"Ġmeowed":13308,"ĠvÃŃtÄĽzstvÃŃ":13309,"ĠÃºtulnÄĽ":13310,"Å¾oval":13311,"ĠnasbÃŃ":13312,"knou":13313,"Ġkoberci":13314,"Ġzkaz":13315,"El":13316,"ĠdÄĽkujÃŃ":13317,"ĠhlasitÄĽjÅ¡ÃŃ":13318,"Dave":13319,"ĠTomÅ¯v":13320,"ĠKla":13321,"hdy":13322,"Ġelephants":13323,"Ġprstu":13324,"ĠpÃ©Äįe":13325,"ĠJon":13326,"ĠstateÄįnÃŃ":13327,"ĠPÅĻibÄĽhne":13328,"Ġshodli":13329,"cles":13330,"igi":13331,"ĠumÄĽl":13332,"ĠvÄĽzenÃŃ":13333,"ĠprÃ¡dlo":13334,"ĠlÃ©ka":13335,"ĠÅ¾upan":13336,"ĠOmluvili":13337,"ĠborÅ¯vky":13338,"Ġchewed":13339,"Tweet":13340,"ĠplÃ¡Äį":13341,"Ġexercise":13342,"ĠÃºhledn":13343,"dled":13344,"Ġurge":13345,"Ġpodnos":13346,"ĠMohu":13347,"ĠvÃŃte":13348,"ĠpÅĻimÄĽt":13349,"Ġodhali":13350,"Ġrush":13351,"ĠandÄĽl":13352,"Ġjahody":13353,"ĠrÃ¡m":13354,"ĠpÅĻÃŃbÄĽhÅ¯":13355,"Ġpana":13356,"ĠkrÃ¡vu":13357,"Ġmailman":13358,"Ġpokryt":13359,"sku":13360,"Ġnepohod":13361,"ĠuklÃŃ":13362,"Ġjede":13363,"Ġobnov":13364,"kÃ¡t":13365,"Ġrozzlobila":13366,"ĠzÃ¡pisnÃŃk":13367,"hÃ¡nÃŃ":13368,"Ġzapadlo":13369,"ĠSamem":13370,"Ġlugg":13371,"ĠVelkÃ¡":13372,"ĠmalÃ½mi":13373,"ĠprostÄĽradlo":13374,"ĠbÅĻÃŃÅ¡":13375,"Ġdecision":13376,"ĠtuÄįÅĪÃ¡k":13377,"ĠklouÅ¾ou":13378,"haly":13379,"Ġding":13380,"ĠhradÄĽ":13381,"hodili":13382,"Ġunite":13383,"ĠJones":13384,"Ġnesm":13385,"Ġflexibil":13386,"Ġobserve":13387,"ĠromÃ¡n":13388,"Ġweapon":13389,"Ġmajitelem":13390,"blÃŃÅ¾il":13391,"Ġlednici":13392,"namenÃ¡":13393,"ĠFluffyho":13394,"Ġgrape":13395,"ĠZkouÅ¡el":13396,"Ġluggage":13397,"utÃ½":13398,"ĠDod":13399,"anÃ©ho":13400,"ĠpohÅĻ":13401,"Ġvystup":13402,"Nebojte":13403,"ĠvybÃŃ":13404,"ĠkachniÄį":13405,"Ġklouzat":13406,"ĠpÅĻipojila":13407,"ĠoranÅ¾ovÃ¡":13408,"ĠÄįetl":13409,"Ġzrcadlo":13410,"Ġscur":13411,"Zkus":13412,"ĠNic":13413,"ĠnejlÃ©pe":13414,"ĠÅ¾ije":13415,"Ġsew":13416,"ĠSil":13417,"ĠchtÄĽly":13418,"ĠodpoÄįinku":13419,"Ġchobotnice":13420,"ĠPohyb":13421,"Ġochutnal":13422,"ĠToho":13423,"Ġpossible":13424,"ĠmanÅ¾el":13425,"ĠLater":13426,"ĠtvrdohlavÃ¡":13427,"Ġcartoons":13428,"Ġtoe":13429,"Ġvstal":13430,"Äįinky":13431,"ĠuÅ¾iteÄįnÃ¡":13432,"Ġfet":13433,"ĠzÃ¡ÅĻil":13434,"ĠcÃŃtilo":13435,"Ġsore":13436,"Ġbudouc":13437,"Ġnedaleko":13438,"ĠÄįekajÃŃ":13439,"ĠvlastnÃŃm":13440,"ĠlÅ¾ÃŃcÃŃ":13441,"Ġnevzdala":13442,"Ġhusa":13443,"Ġfolded":13444,"Ġtomatoes":13445,"Ġvlo":13446,"ĠPouÅ¾ÃŃvajÃŃ":13447,"Ġcurled":13448,"ĠtlaÄįil":13449,"ĠochutnÃ¡":13450,"Ã¡valy":13451,"Äįeli":13452,"Ġpilul":13453,"ĠdÃ¡mÄĽ":13454,"ĠNechÃ¡":13455,"ĠpÅĻestane":13456,"Ġpsala":13457,"ĠzodpovÄĽd":13458,"Ex":13459,"Ġrust":13460,"ĠJohnova":13461,"ĠBÄĽhala":13462,"ĠnaÄį":13463,"Ġsip":13464,"Ġmelted":13465,"ĠhluchÃ½":13466,"Ġworks":13467,"Ġproti":13468,"Ġpozdravila":13469,"ĠvÃŃlu":13470,"ĠideÃ¡lnÃŃ":13471,"ĠBillymu":13472,"ĠLizzie":13473,"Ġdohled":13474,"ĠPlaval":13475,"nÃŃch":13476,"Ġsunlight":13477,"Ġchirped":13478,"Ġcollecting":13479,"ĠkaluÅ¾ÃŃ":13480,"eren":13481,"ĠhÅĻebÃŃk":13482,"ĠVybÄĽhla":13483,"Ġoken":13484,"nÄĽte":13485,"Ġpanenek":13486,"ĠLetadlo":13487,"kamÅ¾itÄĽ":13488,"ĠnÃ¡doby":13489,"ĠÅ¡ÅĪÅ¯ru":13490,"Ġvystoupil":13491,"Ġcomplain":13492,"Ġx":13493,"Ġcakes":13494,"ĠskÃ¡le":13495,"Ġuct":13496,"ĠVzÃ¡jemnÄĽ":13497,"ĠnÃ¡dhernÃ¡":13498,"Ġpovzdechl":13499,"Ġmineral":13500,"Ġspit":13501,"ĠJacob":13502,"ĠStis":13503,"ĠHasiÄį":13504,"ĠsÃŃt":13505,"Ġkonce":13506,"Ġteaspoon":13507,"ĠtichÃ¡":13508,"ĠneohrabanÃ½":13509,"ĠObr":13510,"ĠvÃ¡nek":13511,"ĠlÃ¡h":13512,"ĠuÅ¾ily":13513,"znÄĽ":13514,"ĠPolÃŃb":13515,"enty":13516,"ĠvysvÄĽtlit":13517,"Ġstiskl":13518,"ĠfotoaparÃ¡t":13519,"ĠsvÃŃÄįky":13520,"ĠÄįÃ¡ru":13521,"elly":13522,"ĠhraÄįkÃ¡m":13523,"ÄįitÄĽ":13524,"Ġzastavilo":13525,"ĠmÄĽsÃŃ":13526,"ĠzÃ¡kon":13527,"Ġproblems":13528,"ĠnÄĽkam":13529,"Ġtracks":13530,"ĠlahodnÃ¡":13531,"ĠuvÃŃzla":13532,"Ġodemknout":13533,"Ġnou":13534,"ĠMilovali":13535,"ĠmrakÅ¯":13536,"bily":13537,"Ġwherever":13538,"ĠchutnÃ½":13539,"Ġhotelu":13540,"ĠkÅĻesle":13541,"ĠspÃ¡nku":13542,"ĠvysokÃ©ho":13543,"ĠmÃ¡lem":13544,"ĠVelmi":13545,"Ġkoste":13546,"ĠmÃ½t":13547,"Ġhonit":13548,"ĠvÃŃle":13549,"ĠzamÃŃch":13550,"Ã¡lil":13551,"ĠBird":13552,"ĠnÃ¡moÅĻnÃŃk":13553,"Ġstadion":13554,"Ġnaplnit":13555,"Ġdinosaura":13556,"ĠList":13557,"Ġzmizelo":13558,"ĠpÅĻÃŃze":13559,"Ġmountains":13560,"Ġobjevilo":13561,"ĠdvÄĽma":13562,"tted":13563,"ĠVyprÃ¡vÄĽ":13564,"ĠtrÃ¡va":13565,"Ġnenajde":13566,"ĠPavou":13567,"rvÃ©":13568,"ateÄįnÄĽ":13569,"ĠhÃ¡dajÃŃ":13570,"Ġsliding":13571,"ĠpÃŃskat":13572,"ĠobrovskÃ©ho":13573,"Ġmanage":13574,"Ġslovy":13575,"zÃ½":13576,"ĠAnny":13577,"Ġnesl":13578,"Ġlaid":13579,"ĠvystraÅ¡enÃ©":13580,"Ġwatered":13581,"ĠoÅ¡klivÃ½":13582,"inka":13583,"Ġmilou":13584,"ipment":13585,"ĠÃºsmÄĽvy":13586,"Ġgrowl":13587,"ĠfialovÃ¡":13588,"Ġpohladila":13589,"Ġteplom":13590,"iers":13591,"Ġlick":13592,"ĠspeciÃ¡lnÃŃm":13593,"Ġadmiring":13594,"ĠpÅĻinese":13595,"ĠponÃŃk":13596,"Ġsatis":13597,"Teddy":13598,"ĠsnÄĽhovÃ©":13599,"ĠdivnÄĽ":13600,"kly":13601,"ĠÄįervenÃ©ho":13602,"Ġpotatoes":13603,"Ġobrazy":13604,"Mag":13605,"ĠpÅ¡tros":13606,"Ġcitro":13607,"Ġequipment":13608,"ĠnÃ©st":13609,"Ġcaw":13610,"Ġprice":13611,"ĠjÃŃdel":13612,"ĠnÃ¡stroje":13613,"hlÃ©dnout":13614,"ĠZv":13615,"Ġnavrhl":13616,"ĠZpÃŃvala":13617,"Ã¡va":13618,"ĠnaÄįech":13619,"Ġkruhu":13620,"ĠvyprÃ¡vÄĽli":13621,"Ġskipping":13622,"ĠPeÄį":13623,"Ġnapsala":13624,"ĠDÄĽda":13625,"ĠzÃ¡stÄĽru":13626,"ĠmodrÃ©m":13627,"Ġdozadu":13628,"Ġgli":13629,"Ġpetted":13630,"Ġtwigs":13631,"Ġpatterns":13632,"Ġlopatu":13633,"lohla":13634,"ĠkrabiÄįka":13635,"ĠSomeone":13636,"nicÃŃ":13637,"ĠZip":13638,"Ġkindly":13639,"ĠpÅĻikrÃ½vky":13640,"rÃ¡sk":13641,"Ġzk":13642,"Ġcontin":13643,"Ġseats":13644,"ĠdÅ¯leÅ¾itÃ©ho":13645,"ĠloajÃ¡lnÃŃ":13646,"Ġbricks":13647,"Ġsoldiers":13648,"ĠvÅ¡echen":13649,"Ġvolala":13650,"Ġuchu":13651,"Ġuklouzl":13652,"ĠukÃ¡Å¾u":13653,"Ġkout":13654,"Ġemer":13655,"ĠpochÃ¡zÃŃ":13656,"ĠsporÃ¡k":13657,"vÅ¯j":13658,"ĠSunday":13659,"ĠzatÃ¡hla":13660,"ĠbÄĽhÃ¡":13661,"ĠrÃ½Å¾i":13662,"ĠnenÃ¡":13663,"loves":13664,"ompli":13665,"ĠÅ¡lÃ¡":13666,"ĠVrt":13667,"walk":13668,"ĠtÅĻpytiv":13669,"aci":13670,"ĠUsmÃ¡li":13671,"ĠSest":13672,"Ġpokor":13673,"Ġgloves":13674,"ĠnÃ¡ramnÄĽ":13675,"ĠdÅ¯vÄĽÅĻovat":13676,"ĠzlodÄĽj":13677,"Ġreceive":13678,"ĠTÃ©":13679,"ĠpÅĻÃŃjemnÃ©":13680,"joyed":13681,"ĠMaxova":13682,"Ġbudovu":13683,"ĠÅĻetÄĽz":13684,"Ġcontinue":13685,"ĠuloÅ¾ila":13686,"Ġodk":13687,"Ġvylet":13688,"ĠkrÃ¡snÃ½mi":13689,"ĠRozlouÄįila":13690,"idents":13691,"ÄĽtÅĻes":13692,"ovÃ©m":13693,"ĠNemÃ¡m":13694,"ĠUsmÃŃvala":13695,"ĠtrpÄĽlivÄĽ":13696,"lejÅ¡ÃŃ":13697,"ĠmuÅ¡li":13698,"Ġlets":13699,"klaÄıÃ¡k":13700,"Ġpamlsky":13701,"mÃ©na":13702,"Ġpravidel":13703,"Ġkeeper":13704,"Ġcopper":13705,"Ġstrangers":13706,"Ġcelebrat":13707,"ĠzlobÃŃ":13708,"ĠÄĮekali":13709,"ĠnapÃŃt":13710,"Ġordered":13711,"ĠkulatÃ©":13712,"Ġgotten":13713,"Ġoverjoyed":13714,"ĠDrÅ¾eli":13715,"ĠÅ¡ÅĪÅ¯":13716,"buju":13717,"ĠnebezpeÄįnÃ¡":13718,"ĠdÃ½ch":13719,"ĠOdst":13720,"Ġuklidil":13721,"ĠpÅĻemÃ½Å¡leli":13722,"Ġtelevize":13723,"Ġbaterii":13724,"ejmÃ©na":13725,"ĠChut":13726,"oking":13727,"ĠNÄĽkdo":13728,"ĠnÃ¡bytek":13729,"ĠvÃ½kÅĻi":13730,"ĠZÃ¡":13731,"Ġsebrala":13732,"Ġblink":13733,"Äįte":13734,"ĠdÄĽlÃŃ":13735,"Ġzipped":13736,"ĠholiÄį":13737,"ilovnÄĽ":13738,"ĠmizernÄĽ":13739,"ĠÃºtÄĽ":13740,"hodila":13741,"Ġwhistling":13742,"Ġhodit":13743,"ĠHroz":13744,"Ġwatches":13745,"ivity":13746,"Ġpigs":13747,"ĠpirÃ¡ti":13748,"Joey":13749,"mother":13750,"Ġbye":13751,"ĠpÅĻeÅ¡el":13752,"jezd":13753,"Ġneotev":13754,"Ġcrun":13755,"lÃ¡c":13756,"ĠzatoÄįila":13757,"Ġpadat":13758,"Ġakt":13759,"ĠprohlÃŃÅ¾el":13760,"ĠzaklepÃ¡nÃŃ":13761,"Ġbeside":13762,"ĠmrzÃŃ":13763,"ĠBess":13764,"Ġkoza":13765,"ĠsÃŃtÄĽ":13766,"Ã¡vod":13767,"ĠodloÅ¾il":13768,"ĠstateÄįnÃ©":13769,"ĠzejmÃ©na":13770,"Ġtrhl":13771,"Ġkameni":13772,"Ġglitter":13773,"Ġnejsi":13774,"ĠvidÄĽly":13775,"jÃŃÅ¾dÃŃ":13776,"ĠsuchÃ¡":13777,"Ġptali":13778,"ĠvidÃŃm":13779,"Ġpochopit":13780,"ĠhladkÃ¡":13781,"ĠzaÅ¡tÄĽkal":13782,"ovÃ¡na":13783,"Ġstanici":13784,"ĠEmmy":13785,"Ġprayed":13786,"boo":13787,"Ġpoku":13788,"ĠPomohla":13789,"ĠnakrÃ¡":13790,"Chy":13791,"ĠvÃŃno":13792,"Ġtlapku":13793,"Ġneum":13794,"ĠlÃŃtost":13795,"Ġchutnou":13796,"ĠBig":13797,"ĠSparky":13798,"ĠÃºÅ¾asu":13799,"ĠÅ¡up":13800,"Ġpout":13801,"ĠLarry":13802,"Ġsmu":13803,"ĠflexibilnÃŃ":13804,"bbing":13805,"eho":13806,"zen":13807,"Ġpeered":13808,"Ġ(":13809,"Ġnefungovalo":13810,"ĠZvÃŃÅĻe":13811,"Ġdopisy":13812,"ĠMiluje":13813,"kujeme":13814,"Ġvstoupil":13815,"Ġspolehnout":13816,"ĠJde":13817,"Otev":13818,"ĠdobrodruÅ¾nÃ¡":13819,"Ġlednice":13820,"Ġhoupal":13821,"ĠÅĻÃŃdil":13822,"ĠzpÅ¯sobil":13823,"Ġpochodovat":13824,"ĠpronÃ¡sledoval":13825,"Ġnetwork":13826,"Å¡enÄĽ":13827,"ĠtlaÄįili":13828,"ĠbouÅĻi":13829,"ĠBlo":13830,"ĠzranÄĽn":13831,"Ġmarching":13832,"Ġpedal":13833,"ĠhurikÃ¡":13834,"Ġdohledu":13835,"Ġpocitem":13836,"ĠtornÃ¡do":13837,"ĠdoÅ¡li":13838,"Ġinvitation":13839,"ĠfarmÃ¡ÅĻe":13840,"Ġours":13841,"Ġbeat":13842,"ĠdrahÃ½":13843,"Ġposyp":13844,"Ġmozek":13845,"Yum":13846,"ĠTe":13847,"ĠpocÃŃtila":13848,"VÃ½bornÄĽ":13849,"Å¯Å¾ou":13850,"Ġsidewalk":13851,"ĠvytrvalÃ½":13852,"Ġzahradou":13853,"ĠÅ¡tÄĽt":13854,"Ġducha":13855,"Ġhudby":13856,"Ġearthqu":13857,"ejme":13858,"Ġeagle":13859,"ĠZavolal":13860,"ĠPark":13861,"Ġacorns":13862,"NÄĽk":13863,"Ġdoggy":13864,"ĠpostÅĻÃŃ":13865,"Ġfoukat":13866,"ĠTrochu":13867,"ÄĽte":13868,"Ġwooden":13869,"ĠsvobodnÃ½":13870,"Ġponech":13871,"ĠnÃ¡pomocnÃ½":13872,"avÃ½":13873,"Ġwond":13874,"Ġdrinks":13875,"ĠtÄĽlocviÄį":13876,"ĠnaÄįechran":13877,"ĠpapouÅ¡ek":13878,"Ġzabalila":13879,"ĠbazÃ©n":13880,"ĠkreslenÃŃ":13881,"ĠÃºsty":13882,"rÃ¡til":13883,"ĠPlakala":13884,"Ġbrambory":13885,"ĠÅ¾ÃŃt":13886,"Ġdisagreed":13887,"ĠTara":13888,"rocery":13889,"ĠTimÅ¯v":13890,"Ġweight":13891,"Ġperou":13892,"Ġzavr":13893,"ĠÄįtenÃŃ":13894,"ĠvracÃŃ":13895,"ĠHous":13896,"ĠMickey":13897,"Ġweren":13898,"Ġvylezli":13899,"ĠPandy":13900,"ĠudrÅ¾ovat":13901,"Ġdoprav":13902,"ĠhÃ¡dan":13903,"Ġrybami":13904,"Ġgrocery":13905,"ĠNased":13906,"ĠTeddyho":13907,"ĠteplÃ©ho":13908,"ĠHlasit":13909,"Ġnavy":13910,"ĠstejnÃ½":13911,"ĠKol":13912,"ÅĻÃ¡sla":13913,"Ouch":13914,"Ġattached":13915,"ĠObjÃŃm":13916,"ĠrychlÃŃ":13917,"ĠdruhÃ½m":13918,"ĠPov":13919,"Ġraised":13920,"ĠnehrÃ¡li":13921,"ody":13922,"ĠzÃ¡chod":13923,"Ġpohnul":13924,"Ġmotorky":13925,"Ġsmutek":13926,"Ġmatraci":13927,"ĠfaleÅ¡nÃ½":13928,"bem":13929,"lechla":13930,"ĠneopatrnÃ½":13931,"ĠJessica":13932,"ÃŃvali":13933,"ĠpÅĻipravovala":13934,"ĠÅ¾ivÃ¡":13935,"ĠpodkrovÃŃ":13936,"Ġcompany":13937,"ĠtemnÃ¡":13938,"Ġbrid":13939,"ĠnejÅ¡Å¥astnÄĽjÅ¡ÃŃ":13940,"seek":13941,"Ġmalovala":13942,"cious":13943,"ĠpÃ¡chnou":13944,"ĠpÅĻilep":13945,"ĠSmÃ¡l":13946,"ĠjejÃŃmi":13947,"Fluffy":13948,"ĠPotom":13949,"ĠutÃŃkala":13950,"vÃ¡ch":13951,"Ġrozvese":13952,"hodli":13953,"ĠWil":13954,"ĠbÄĽhÃ¡nÃŃ":13955,"ĠdÄĽlil":13956,"ÄĽtÅĻesenÃŃ":13957,"Ġdoporu":13958,"Ġmister":13959,"ĠkeÅĻi":13960,"ĠutÃŃkÃ¡":13961,
[...]
